{
  "version": "1.0",
  "truncation": null,
  "padding": null,
  "added_tokens": [
    {
      "id": 0,
      "content": "<|bos|>",
      "single_word": false,
      "lstrip": false,
      "rstrip": false,
      "normalized": false,
      "special": true
    },
    {
      "id": 1,
      "content": "<|user_start|>",
      "single_word": false,
      "lstrip": false,
      "rstrip": false,
      "normalized": false,
      "special": true
    },
    {
      "id": 2,
      "content": "<|user_end|>",
      "single_word": false,
      "lstrip": false,
      "rstrip": false,
      "normalized": false,
      "special": true
    },
    {
      "id": 3,
      "content": "<|assistant_start|>",
      "single_word": false,
      "lstrip": false,
      "rstrip": false,
      "normalized": false,
      "special": true
    },
    {
      "id": 4,
      "content": "<|assistant_end|>",
      "single_word": false,
      "lstrip": false,
      "rstrip": false,
      "normalized": false,
      "special": true
    },
    {
      "id": 5,
      "content": "<|python_start|>",
      "single_word": false,
      "lstrip": false,
      "rstrip": false,
      "normalized": false,
      "special": true
    },
    {
      "id": 6,
      "content": "<|python_end|>",
      "single_word": false,
      "lstrip": false,
      "rstrip": false,
      "normalized": false,
      "special": true
    },
    {
      "id": 7,
      "content": "<|output_start|>",
      "single_word": false,
      "lstrip": false,
      "rstrip": false,
      "normalized": false,
      "special": true
    },
    {
      "id": 8,
      "content": "<|output_end|>",
      "single_word": false,
      "lstrip": false,
      "rstrip": false,
      "normalized": false,
      "special": true
    }
  ],
  "normalizer": null,
  "pre_tokenizer": {
    "type": "Sequence",
    "pretokenizers": [
      {
        "type": "Split",
        "pattern": {
          "Regex": "'(?i:[sdmt]|ll|ve|re)|[^\\r\\n\\p{L}\\p{N}]?+\\p{L}+|\\p{N}{1,2}| ?[^\\s\\p{L}\\p{N}]++[\\r\\n]*|\\s*[\\r\\n]|\\s+(?!\\S)|\\s+"
        },
        "behavior": "Isolated",
        "invert": false
      },
      {
        "type": "ByteLevel",
        "add_prefix_space": false,
        "trim_offsets": true,
        "use_regex": false
      }
    ]
  },
  "post_processor": null,
  "decoder": {
    "type": "ByteLevel",
    "add_prefix_space": true,
    "trim_offsets": true,
    "use_regex": true
  },
  "model": {
    "type": "BPE",
    "dropout": null,
    "unk_token": null,
    "continuing_subword_prefix": null,
    "end_of_word_suffix": null,
    "fuse_unk": false,
    "byte_fallback": true,
    "ignore_merges": false,
    "vocab": {
      "<|bos|>": 0,
      "<|user_start|>": 1,
      "<|user_end|>": 2,
      "<|assistant_start|>": 3,
      "<|assistant_end|>": 4,
      "<|python_start|>": 5,
      "<|python_end|>": 6,
      "<|output_start|>": 7,
      "<|output_end|>": 8,
      "!": 9,
      "\"": 10,
      "#": 11,
      "$": 12,
      "%": 13,
      "&": 14,
      "'": 15,
      "(": 16,
      ")": 17,
      "*": 18,
      "+": 19,
      ",": 20,
      "-": 21,
      ".": 22,
      "/": 23,
      "0": 24,
      "1": 25,
      "2": 26,
      "3": 27,
      "4": 28,
      "5": 29,
      "6": 30,
      "7": 31,
      "8": 32,
      "9": 33,
      ":": 34,
      ";": 35,
      "<": 36,
      "=": 37,
      ">": 38,
      "?": 39,
      "@": 40,
      "A": 41,
      "B": 42,
      "C": 43,
      "D": 44,
      "E": 45,
      "F": 46,
      "G": 47,
      "H": 48,
      "I": 49,
      "J": 50,
      "K": 51,
      "L": 52,
      "M": 53,
      "N": 54,
      "O": 55,
      "P": 56,
      "Q": 57,
      "R": 58,
      "S": 59,
      "T": 60,
      "U": 61,
      "V": 62,
      "W": 63,
      "X": 64,
      "Y": 65,
      "Z": 66,
      "[": 67,
      "\\": 68,
      "]": 69,
      "^": 70,
      "_": 71,
      "`": 72,
      "a": 73,
      "b": 74,
      "c": 75,
      "d": 76,
      "e": 77,
      "f": 78,
      "g": 79,
      "h": 80,
      "i": 81,
      "j": 82,
      "k": 83,
      "l": 84,
      "m": 85,
      "n": 86,
      "o": 87,
      "p": 88,
      "q": 89,
      "r": 90,
      "s": 91,
      "t": 92,
      "u": 93,
      "v": 94,
      "w": 95,
      "x": 96,
      "y": 97,
      "z": 98,
      "{": 99,
      "|": 100,
      "}": 101,
      "~": 102,
      "¡": 103,
      "¢": 104,
      "£": 105,
      "¤": 106,
      "¥": 107,
      "¦": 108,
      "§": 109,
      "¨": 110,
      "©": 111,
      "ª": 112,
      "«": 113,
      "¬": 114,
      "®": 115,
      "¯": 116,
      "°": 117,
      "±": 118,
      "²": 119,
      "³": 120,
      "´": 121,
      "µ": 122,
      "¶": 123,
      "·": 124,
      "¸": 125,
      "¹": 126,
      "º": 127,
      "»": 128,
      "¼": 129,
      "½": 130,
      "¾": 131,
      "¿": 132,
      "À": 133,
      "Á": 134,
      "Â": 135,
      "Ã": 136,
      "Ä": 137,
      "Å": 138,
      "Æ": 139,
      "Ç": 140,
      "È": 141,
      "É": 142,
      "Ê": 143,
      "Ë": 144,
      "Ì": 145,
      "Í": 146,
      "Î": 147,
      "Ï": 148,
      "Ð": 149,
      "Ñ": 150,
      "Ò": 151,
      "Ó": 152,
      "Ô": 153,
      "Õ": 154,
      "Ö": 155,
      "×": 156,
      "Ø": 157,
      "Ù": 158,
      "Ú": 159,
      "Û": 160,
      "Ü": 161,
      "Ý": 162,
      "Þ": 163,
      "ß": 164,
      "à": 165,
      "á": 166,
      "â": 167,
      "ã": 168,
      "ä": 169,
      "å": 170,
      "æ": 171,
      "ç": 172,
      "è": 173,
      "é": 174,
      "ê": 175,
      "ë": 176,
      "ì": 177,
      "í": 178,
      "î": 179,
      "ï": 180,
      "ð": 181,
      "ñ": 182,
      "ò": 183,
      "ó": 184,
      "ô": 185,
      "õ": 186,
      "ö": 187,
      "÷": 188,
      "ø": 189,
      "ù": 190,
      "ú": 191,
      "û": 192,
      "ü": 193,
      "ý": 194,
      "þ": 195,
      "ÿ": 196,
      "Ā": 197,
      "ā": 198,
      "Ă": 199,
      "ă": 200,
      "Ą": 201,
      "ą": 202,
      "Ć": 203,
      "ć": 204,
      "Ĉ": 205,
      "ĉ": 206,
      "Ċ": 207,
      "ċ": 208,
      "Č": 209,
      "č": 210,
      "Ď": 211,
      "ď": 212,
      "Đ": 213,
      "đ": 214,
      "Ē": 215,
      "ē": 216,
      "Ĕ": 217,
      "ĕ": 218,
      "Ė": 219,
      "ė": 220,
      "Ę": 221,
      "ę": 222,
      "Ě": 223,
      "ě": 224,
      "Ĝ": 225,
      "ĝ": 226,
      "Ğ": 227,
      "ğ": 228,
      "Ġ": 229,
      "ġ": 230,
      "Ģ": 231,
      "ģ": 232,
      "Ĥ": 233,
      "ĥ": 234,
      "Ħ": 235,
      "ħ": 236,
      "Ĩ": 237,
      "ĩ": 238,
      "Ī": 239,
      "ī": 240,
      "Ĭ": 241,
      "ĭ": 242,
      "Į": 243,
      "į": 244,
      "İ": 245,
      "ı": 246,
      "Ĳ": 247,
      "ĳ": 248,
      "Ĵ": 249,
      "ĵ": 250,
      "Ķ": 251,
      "ķ": 252,
      "ĸ": 253,
      "Ĺ": 254,
      "ĺ": 255,
      "Ļ": 256,
      "ļ": 257,
      "Ľ": 258,
      "ľ": 259,
      "Ŀ": 260,
      "ŀ": 261,
      "Ł": 262,
      "ł": 263,
      "Ń": 264,
      "ĠĠ": 265,
      "ĠĠĠĠ": 266,
      "ĠĠĠ": 267,
      "ĠĠĠĠĠĠĠ": 268,
      "ĠĠĠĠĠĠĠĠĠĠĠ": 269,
      "on": 270,
      "in": 271,
      "re": 272,
      "se": 273,
      "at": 274,
      "de": 275,
      "Ġt": 276,
      "er": 277,
      "Ġa": 278,
      "or": 279,
      "--": 280,
      "he": 281,
      "st": 282,
      "al": 283,
      "ĠĠĠĠĠĠĠĠĠĠĠĠĠĠĠ": 284,
      ",Ċ": 285,
      "Ġi": 286,
      "ĊĊ": 287,
      "me": 288,
      "le": 289,
      "Ġf": 290,
      "Ġc": 291,
      "Ġ=": 292,
      "Ġthe": 293,
      "ion": 294,
      "es": 295,
      "ar": 296,
      "Ġin": 297,
      "Ġ\"": 298,
      "Ġre": 299,
      "an": 300,
      "Ġb": 301,
      "en": 302,
      "Ġo": 303,
      "Ġn": 304,
      "ame": 305,
      "----": 306,
      "Ġd": 307,
      "ol": 308,
      ":Ċ": 309,
      "it": 310,
      "lf": 311,
      "self": 312,
      "==": 313,
      "ct": 314,
      "ed": 315,
      "Ġs": 316,
      "ro": 317,
      "ing": 318,
      "Ġp": 319,
      ")Ċ": 320,
      "ue": 321,
      "el": 322,
      "ur": 323,
      "is": 324,
      "Ġw": 325,
      "ĠN": 326,
      "ul": 327,
      "one": 328,
      "..": 329,
      "ot": 330,
      "Ġde": 331,
      "pe": 332,
      "as": 333,
      "ut": 334,
      "Ġto": 335,
      "Ġm": 336,
      ".ĊĊ": 337,
      "ode": 338,
      "mp": 339,
      "un": 340,
      "Ġis": 341,
      "val": 342,
      ".Ċ": 343,
      "ata": 344,
      "dex": 345,
      "Ġself": 346,
      ">>": 347,
      "ĠĠĠĠĠĠĠĠ": 348,
      "Ġ`": 349,
      "\"\"": 350,
      "Ġif": 351,
      "ult": 352,
      "um": 353,
      "cl": 354,
      "Ġan": 355,
      "ra": 356,
      "ce": 357,
      "pon": 358,
      "ĠS": 359,
      "ĠNone": 360,
      "Ġ#": 361,
      "ex": 362,
      "urn": 363,
      "turn": 364,
      "Ġfor": 365,
      "ponse": 366,
      "ĠA": 367,
      "li": 368,
      "(Ċ": 369,
      "oc": 370,
      "Ġdef": 371,
      "il": 372,
      "ĠT": 373,
      "ĠD": 374,
      "ation": 375,
      "Ġ\"\"\"": 376,
      "fi": 377,
      "ype": 378,
      "ies": 379,
      "ke": 380,
      "res": 381,
      "Ġ:": 382,
      "Ġof": 383,
      "====": 384,
      "co": 385,
      "pt": 386,
      "nt": 387,
      "Ġbe": 388,
      "th": 389,
      "Ġ\"\"\"Ċ": 390,
      "Ġres": 391,
      "str": 392,
      "Ġ..": 393,
      ")ĊĊ": 394,
      "ab": 395,
      "Ġreturn": 396,
      "Ġand": 397,
      "ad": 398,
      "ap": 399,
      "ĠI": 400,
      "ĠF": 401,
      "Ġth": 402,
      "ĠĠĠĠĠĠĠĠĠĠĠĠĠĠĠĠĠĠĠ": 403,
      "ort": 404,
      "ĠR": 405,
      "rame": 406,
      "ge": 407,
      "Ġor": 408,
      "ate": 409,
      "Ġval": 410,
      "odel": 411,
      "eld": 412,
      "--------": 413,
      "Ġnot": 414,
      "._": 415,
      "ic": 416,
      "Ġ*": 417,
      "ath": 418,
      "ault": 419,
      "up": 420,
      "ly": 421,
      "Ġ(": 422,
      "olum": 423,
      "olumn": 424,
      "ter": 425,
      "pen": 426,
      "ast": 427,
      "ption": 428,
      "Ġfi": 429,
      "rom": 430,
      "que": 431,
      "Ġ-": 432,
      "eries": 433,
      "):Ċ": 434,
      "Frame": 435,
      "lo": 436,
      "_m": 437,
      "type": 438,
      "ver": 439,
      "ated": 440,
      "od": 441,
      "xis": 442,
      "Ġ[": 443,
      "clu": 444,
      "\",": 445,
      ">>>": 446,
      "ht": 447,
      "ataFrame": 448,
      "name": 449,
      "Ġ...": 450,
      "Ġ>>>": 451,
      "ass": 452,
      "ith": 453,
      "ction": 454,
      "per": 455,
      "clude": 456,
      "ure": 457,
      "Ġse": 458,
      "ill": 459,
      "ri": 460,
      "ror": 461,
      "id": 462,
      "ĠC": 463,
      "index": 464,
      "Ġle": 465,
      "ĠRe": 466,
      "ool": 467,
      "use": 468,
      "ues": 469,
      "ck": 470,
      "and": 471,
      "ĠSeries": 472,
      "Ġh": 473,
      "PI": 474,
      "ĠO": 475,
      "Ġ|": 476,
      "``": 477,
      "Ġit": 478,
      "ore": 479,
      "arg": 480,
      "ĠDataFrame": 481,
      "Ġco": 482,
      "py": 483,
      "Ġas": 484,
      "able": 485,
      "Ġl": 486,
      "Ġcon": 487,
      "Ġbool": 488,
      "Ġe": 489,
      "Ġresponse": 490,
      "Ġex": 491,
      "Ġindex": 492,
      "Ġ)": 493,
      "olumns": 494,
      "API": 495,
      "========": 496,
      "alse": 497,
      "mple": 498,
      "_f": 499,
      "Ġ``": 500,
      "rue": 501,
      "ch": 502,
      "ĠP": 503,
      "ment": 504,
      "(self": 505,
      "Ġdefault": 506,
      "ta": 507,
      "mport": 508,
      "Ġwith": 509,
      "quest": 510,
      "response": 511,
      "get": 512,
      "xt": 513,
      "key": 514,
      "pl": 515,
      "Ġ->": 516,
      "bj": 517,
      "_model": 518,
      "Ġ_": 519,
      "Ġg": 520,
      "ine": 521,
      "path": 522,
      "all": 523,
      "Ġuse": 524,
      "_s": 525,
      "ray": 526,
      "Ġ'": 527,
      "Ġwill": 528,
      "sion": 529,
      "_c": 530,
      "ig": 531,
      "der": 532,
      "ĠAn": 533,
      "vel": 534,
      "ve": 535,
      "ect": 536,
      "are": 537,
      ".co": 538,
      "par": 539,
      "ample": 540,
      "te": 541,
      "Ġal": 542,
      "Ġstr": 543,
      "Ġname": 544,
      "_d": 545,
      "ent": 546,
      "out": 547,
      "us": 548,
      "ener": 549,
      "],Ċ": 550,
      "peration": 551,
      "Ġimport": 552,
      "Ġon": 553,
      "Ġaxis": 554,
      "Ġel": 555,
      "unction": 556,
      "api": 557,
      "qu": 558,
      "ma": 559,
      "Ġar": 560,
      "Ġfrom": 561,
      "Ġdata": 562,
      "ise": 563,
      "Ġvalues": 564,
      "def": 565,
      "args": 566,
      "class": 567,
      "ocs": 568,
      "Ġdf": 569,
      "ho": 570,
      "set": 571,
      "not": 572,
      "Ġli": 573,
      "Ġme": 574,
      "ĠM": 575,
      "bject": 576,
      "ase": 577,
      "ict": 578,
      "ti": 579,
      "ĠThe": 580,
      "Ġ{": 581,
      "if": 582,
      "Ġthat": 583,
      "ance": 584,
      "xture": 585,
      "_in": 586,
      "_ex": 587,
      "ther": 588,
      "Ġfield": 589,
      "ps": 590,
      "Ġ--------": 591,
      "Ġthis": 592,
      "thod": 593,
      "Er": 594,
      "ptional": 595,
      "Error": 596,
      "con": 597,
      "pp": 598,
      "ite": 599,
      "ew": 600,
      "am": 601,
      "eat": 602,
      "Ġdtype": 603,
      "ĠFalse": 604,
      "vi": 605,
      "om": 606,
      "Ġ...,Ċ": 607,
      "Ġy": 608,
      "ang": 609,
      "htt": 610,
      "Ġby": 611,
      "Ġ)Ċ": 612,
      "field": 613,
      "],": 614,
      "Ġvalue": 615,
      "Ġint": 616,
      "__": 617,
      "Ġare": 618,
      "Ġst": 619,
      "ack": 620,
      "error": 621,
      "from": 622,
      "ĠE": 623,
      "che": 624,
      "astAPI": 625,
      "nc": 626,
      "ded": 627,
      "_val": 628,
      "ĠReturn": 629,
      "(\"": 630,
      "\"Ċ": 631,
      "//": 632,
      "\",Ċ": 633,
      "ĠTrue": 634,
      "://": 635,
      "tr": 636,
      "Ġmore": 637,
      "ĠIf": 638,
      "stance": 639,
      "Ġobject": 640,
      "\":": 641,
      "kw": 642,
      "Ġ]": 643,
      "Ġresult": 644,
      "Ġat": 645,
      "Ġ),Ċ": 646,
      "Ġpar": 647,
      "Ġelse": 648,
      "Ġcolumns": 649,
      ").Ċ": 650,
      "=\"": 651,
      "Ġoperation": 652,
      "uld": 653,
      "[Ċ": 654,
      "ĠDoc": 655,
      "https": 656,
      "row": 657,
      "ser": 658,
      "iz": 659,
      "Ġother": 660,
      "ures": 661,
      "ĠB": 662,
      "ameter": 663,
      "fig": 664,
      "orm": 665,
      "notated": 666,
      "ĠAnnotated": 667,
      "amples": 668,
      "ndex": 669,
      "Ġra": 670,
      "unc": 671,
      ".com": 672,
      "kwargs": 673,
      "astapi": 674,
      "af": 675,
      "None": 676,
      "pre": 677,
      "Ġr": 678,
      "_exclude": 679,
      "Ġgener": 680,
      "Ġab": 681,
      "Ġkey": 682,
      "ĠĠĠĠĠ": 683,
      "ust": 684,
      "Ġlist": 685,
      "Ġma": 686,
      "int": 687,
      "Ġapp": 688,
      "abel": 689,
      "im": 690,
      "ĠĠĠĠĠĠĠĠĠĠĠĠĠĠĠĠĠĠĠĠĠĠĠ": 691,
      "_name": 692,
      "lic": 693,
      "ok": 694,
      "ag": 695,
      "ace": 696,
      "Ġraise": 697,
      "]Ċ": 698,
      "app": 699,
      "Ġcl": 700,
      "ĠSe": 701,
      "================": 702,
      "array": 703,
      "ĠW": 704,
      "ip": 705,
      "Ġfunction": 706,
      "his": 707,
      "ĠL": 708,
      "Ġlevel": 709,
      "Ġen": 710,
      "ib": 711,
      "Ġrequest": 712,
      "ding": 713,
      "uni": 714,
      "esponse": 715,
      "Ġset": 716,
      "Ġ@": 717,
      "()": 718,
      "Ġcan": 719,
      "Ġused": 720,
      "ha": 721,
      "ial": 722,
      "ĠRead": 723,
      "Ġpd": 724,
      "ĠThis": 725,
      "Ġabout": 726,
      ":`": 727,
      "[\"": 728,
      "FastAPI": 729,
      "_b": 730,
      "unique": 731,
      "_t": 732,
      "na": 733,
      "ĠOptional": 734,
      "',": 735,
      "instance": 736,
      "_p": 737,
      "fastapi": 738,
      ".ti": 739,
      "_o": 740,
      "_le": 741,
      "](": 742,
      "Ġv": 743,
      "Ġdocs": 744,
      "_index": 745,
      "ire": 746,
      "Ġpro": 747,
      "_n": 748,
      "olo": 749,
      "Ġ**": 750,
      "angolo": 751,
      ".n": 752,
      "()Ċ": 753,
      "00": 754,
      "Ġ)ĊĊ": 755,
      ".tiangolo": 756,
      "ist": 757,
      "ty": 758,
      "hen": 759,
      "Ġwe": 760,
      "item": 761,
      ".d": 762,
      "Ġisinstance": 763,
      "Ġerror": 764,
      "plit": 765,
      "test": 766,
      "sed": 767,
      "ĠU": 768,
      "ext": 769,
      "_field": 770,
      "Ġmethod": 771,
      "\")Ċ": 772,
      "ary": 773,
      "ow": 774,
      "andas": 775,
      "Ġ--------Ċ": 776,
      "_re": 777,
      "ĠNa": 778,
      "Ġarg": 779,
      "eatures": 780,
      "Ġ==": 781,
      "ute": 782,
      "True": 783,
      "ument": 784,
      "Ġnew": 785,
      "url": 786,
      "Val": 787,
      "Ġcol": 788,
      "Ġpre": 789,
      "columns": 790,
      "ef": 791,
      "ou": 792,
      "_w": 793,
      "low": 794,
      "=None": 795,
      ".s": 796,
      "ĠOpen": 797,
      "Ġtype": 798,
      "loat": 799,
      "nore": 800,
      "Ġsho": 801,
      "place": 802,
      "[str": 803,
      "Ġnum": 804,
      "ĠOpenAPI": 805,
      "pend": 806,
      "axis": 807,
      "False": 808,
      "version": 809,
      "Ġnode": 810,
      "Ġpath": 811,
      "ave": 812,
      "ant": 813,
      "ight": 814,
      "ator": 815,
      "default": 816,
      "_value": 817,
      "ible": 818,
      "iter": 819,
      "inal": 820,
      "arent": 821,
      "ces": 822,
      "heck": 823,
      "ĠNaN": 824,
      "allable": 825,
      "Ġ<": 826,
      "oth": 827,
      "Ġfixture": 828,
      "tain": 829,
      "Ġget": 830,
      "Ġlen": 831,
      ".g": 832,
      "64": 833,
      "ĠEx": 834,
      "so": 835,
      "ub": 836,
      "Ġwh": 837,
      "ĠCon": 838,
      "param": 839,
      "Ġcolumn": 840,
      "Ġdo": 841,
      "----------------": 842,
      "_class": 843,
      "Ġad": 844,
      "iv": 845,
      "pec": 846,
      "pende": 847,
      "ON": 848,
      "Ġ----": 849,
      "ket": 850,
      "Ġall": 851,
      "Ġnp": 852,
      "rent": 853,
      "\"]": 854,
      "data": 855,
      "irect": 856,
      "put": 857,
      "col": 858,
      "_id": 859,
      "ĠVal": 860,
      "pendenc": 861,
      "_co": 862,
      "ug": 863,
      "cor": 864,
      "os": 865,
      "-Ċ": 866,
      "ition": 867,
      "Ġ(Ċ": 868,
      "Ġhave": 869,
      "figur": 870,
      "ĠH": 871,
      "Ġlabel": 872,
      "ĠPar": 873,
      "figuration": 874,
      "Series": 875,
      "loc": 876,
      "/t": 877,
      "form": 878,
      "ize": 879,
      "cope": 880,
      "uple": 881,
      "Ġfields": 882,
      "ameters": 883,
      "ght": 884,
      "gnore": 885,
      "),": 886,
      "Ġversion": 887,
      "atus": 888,
      "ild": 889,
      "rop": 890,
      "=False": 891,
      "Ġarray": 892,
      "ĠSee": 893,
      "_on": 894,
      "attr": 895,
      "ĠIt": 896,
      "ĠĠĠĠĠĠ": 897,
      "Ġwhen": 898,
      "using": 899,
      ".re": 900,
      "utor": 901,
      "like": 902,
      "cri": 903,
      "Ġhe": 904,
      "/tutor": 905,
      "/tutorial": 906,
      "_de": 907,
      "age": 908,
      "Ġrow": 909,
      "right": 910,
      "Ġgenerated": 911,
      "Re": 912,
      ".__": 913,
      "Index": 914,
      "atch": 915,
      "--Ċ": 916,
      "_fields": 917,
      "rst": 918,
      "Ġhas": 919,
      "([": 920,
      ".index": 921,
      "kip": 922,
      "Ġcont": 923,
      "Ġonly": 924,
      "arn": 925,
      "=True": 926,
      "cept": 927,
      "20": 928,
      "DataFrame": 929,
      "ity": 930,
      "::": 931,
      "sing": 932,
      "Ġdict": 933,
      "load": 934,
      "ifi": 935,
      "Ġignore": 936,
      "ĠResponse": 937,
      "func": 938,
      "ĠX": 939,
      "ally": 940,
      "/#": 941,
      "ep": 942,
      "ses": 943,
      "assed": 944,
      "_default": 945,
      "gr": 946,
      "),Ċ": 947,
      "Ġfloat": 948,
      "hape": 949,
      "wor": 950,
      "Ġch": 951,
      "pendencies": 952,
      "ber": 953,
      "Ġun": 954,
      "ception": 955,
      "eature": 956,
      "ĠReturns": 957,
      "docs": 958,
      "eric": 959,
      "isible": 960,
      "ĠAny": 961,
      "ĠG": 962,
      "Ġtr": 963,
      "Ġcheck": 964,
      "Ġpassed": 965,
      "und": 966,
      ".get": 967,
      "Ġover": 968,
      "line": 969,
      "ĠĠĠĠĠĠĠĠĠ": 970,
      "back": 971,
      "ive": 972,
      "red": 973,
      "uct": 974,
      "Ġcomp": 975,
      "Ġshould": 976,
      ").ĊĊ": 977,
      "Ġpandas": 978,
      "ulti": 979,
      "ĠAl": 980,
      "po": 981,
      "Ġcopy": 982,
      "(n": 983,
      "=response": 984,
      "av": 985,
      "Ġone": 986,
      "Ġspec": 987,
      "ĠĠĠĠĠĠĠĠĠĠ": 988,
      "Ġsup": 989,
      "Ġmin": 990,
      "ft": 991,
      "model": 992,
      "rout": 993,
      "ich": 994,
      "ustom": 995,
      "tri": 996,
      "ĠIndex": 997,
      "'t": 998,
      "min": 999,
      "scri": 1000,
      "Ġne": 1001,
      "ĠType": 1002,
      "ody": 1003,
      "uplic": 1004,
      "Ġclass": 1005,
      "ree": 1006,
      "Ġinclude": 1007,
      "Ġser": 1008,
      "Ġyou": 1009,
      "other": 1010,
      "word": 1011,
      "method": 1012,
      "_only": 1013,
      "ir": 1014,
      "Ġcall": 1015,
      "fe": 1016,
      "pes": 1017,
      "roup": 1018,
      "Ġ`/": 1019,
      "ĠAxis": 1020,
      "Ġfill": 1021,
      "))Ċ": 1022,
      "cket": 1023,
      "ask": 1024,
      "Ġline": 1025,
      "max": 1026,
      "Ġmax": 1027,
      "ĠParameters": 1028,
      "est": 1029,
      "Ġcontain": 1030,
      "string": 1031,
      "ĠPy": 1032,
      "sert": 1033,
      "Ġwhich": 1034,
      "scription": 1035,
      "ader": 1036,
      "Ġfile": 1037,
      "Ġusing": 1038,
      "ory": 1039,
      "meta": 1040,
      "racket": 1041,
      "ĠValue": 1042,
      "ule": 1043,
      "_features": 1044,
      ".t": 1045,
      "level": 1046,
      "Ġ*,Ċ": 1047,
      "enerate": 1048,
      "kipna": 1049,
      ":ĊĊ": 1050,
      "ff": 1051,
      "ide": 1052,
      "ield": 1053,
      "ans": 1054,
      "Ġany": 1055,
      "chema": 1056,
      "prec": 1057,
      "lection": 1058,
      "value": 1059,
      "ss": 1060,
      "ign": 1061,
      "mo": 1062,
      "---Ċ": 1063,
      "fixture": 1064,
      ".DataFrame": 1065,
      "_st": 1066,
      "ers": 1067,
      "Ġaut": 1068,
      "led": 1069,
      "fix": 1070,
      "ced": 1071,
      "Ġ-------Ċ": 1072,
      "lect": 1073,
      "urrent": 1074,
      "Ġelif": 1075,
      "Ġ----------Ċ": 1076,
      "cess": 1077,
      "Ex": 1078,
      "quen": 1079,
      "ach": 1080,
      "ump": 1081,
      "upd": 1082,
      "'s": 1083,
      ").": 1084,
      "}Ċ": 1085,
      "Ġallow": 1086,
      "ĠAlso": 1087,
      "]]": 1088,
      "port": 1089,
      "Ġj": 1090,
      "thon": 1091,
      "================================": 1092,
      "Ġargument": 1093,
      "fo": 1094,
      "values": 1095,
      "penapi": 1096,
      ".Series": 1097,
      "Ġso": 1098,
      "Ġmodel": 1099,
      "ations": 1100,
      "_un": 1101,
      "`,": 1102,
      "ify": 1103,
      "ĠExamples": 1104,
      "ren": 1105,
      "Ġsame": 1106,
      "ĠNot": 1107,
      "_con": 1108,
      "Ġvisible": 1109,
      "darray": 1110,
      "-like": 1111,
      "Ġerrors": 1112,
      "Ġlabels": 1113,
      "Ġvalid": 1114,
      "pr": 1115,
      "Ġcom": 1116,
      "_samples": 1117,
      "lement": 1118,
      "ĠIn": 1119,
      "ms": 1120,
      "Ġeach": 1121,
      ".columns": 1122,
      "ates": 1123,
      "struct": 1124,
      "aves": 1125,
      "=self": 1126,
      "_unique": 1127,
      "ĠConfiguration": 1128,
      "ĠValueError": 1129,
      "*.ĊĊ": 1130,
      "cal": 1131,
      "backs": 1132,
      "ark": 1133,
      "Ġ\"Ċ": 1134,
      "10": 1135,
      "=[\"": 1136,
      "Ġ+": 1137,
      "Ġinplace": 1138,
      "pytest": 1139,
      "Ġ__": 1140,
      "__(": 1141,
      "Ġtuple": 1142,
      "Response": 1143,
      "ting": 1144,
      "items": 1145,
      "(s": 1146,
      ".name": 1147,
      "Ġadded": 1148,
      "ime": 1149,
      "Ġk": 1150,
      "atic": 1151,
      "anced": 1152,
      "Ġelement": 1153,
      "Ġexclude": 1154,
      "Ġbut": 1155,
      "efault": 1156,
      "ns": 1157,
      "Ġsort": 1158,
      "Ġmode": 1159,
      "ind": 1160,
      "Ġcli": 1161,
      "result": 1162,
      "_to": 1163,
      "iod": 1164,
      "rite": 1165,
      "ER": 1166,
      "eight": 1167,
      "end": 1168,
      "list": 1169,
      "append": 1170,
      "gs": 1171,
      "over": 1172,
      "vanced": 1173,
      "odule": 1174,
      "Ġno": 1175,
      "ptions": 1176,
      "do": 1177,
      "Ġright": 1178,
      "Ġparent": 1179,
      "unt": 1180,
      "antic": 1181,
      "-o": 1182,
      "Ġmust": 1183,
      "Ġnames": 1184,
      "quence": 1185,
      "_unset": 1186,
      "ĠFor": 1187,
      "ash": 1188,
      "_values": 1189,
      "JS": 1190,
      "ail": 1191,
      "gth": 1192,
      "Ġskipna": 1193,
      "types": 1194,
      "JSON": 1195,
      "ĠFi": 1196,
      "precated": 1197,
      "dantic": 1198,
      "Ġ):Ċ": 1199,
      "Ġbase": 1200,
      "Ġorder": 1201,
      "ared": 1202,
      "tra": 1203,
      "Ġcor": 1204,
      "Ġcase": 1205,
      "Ġexcept": 1206,
      "]:Ċ": 1207,
      "generate": 1208,
      "},": 1209,
      "Ġsplit": 1210,
      "_weight": 1211,
      "Ġnumeric": 1212,
      "update": 1213,
      "IN": 1214,
      "ger": 1215,
      "ync": 1216,
      "ange": 1217,
      "tern": 1218,
      "parse": 1219,
      "Ġstring": 1220,
      "Request": 1221,
      "umpy": 1222,
      ".c": 1223,
      "])Ċ": 1224,
      "pro": 1225,
      "Ġurl": 1226,
      "Ġnumber": 1227,
      "Ġsub": 1228,
      "ĠAd": 1229,
      "()ĊĊ": 1230,
      "issing": 1231,
      "ound": 1232,
      "wise": 1233,
      "keep": 1234,
      "_function": 1235,
      "ĠModel": 1236,
      ".m": 1237,
      "ted": 1238,
      "Ġcurrent": 1239,
      "arning": 1240,
      "RL": 1241,
      "Ġcode": 1242,
      "Ġoptional": 1243,
      "ĠFeature": 1244,
      "trib": 1245,
      ".in": 1246,
      "oo": 1247,
      "Ġtw": 1248,
      "advanced": 1249,
      "time": 1250,
      "Ġtry": 1251,
      "(f": 1252,
      ".is": 1253,
      ".con": 1254,
      "_al": 1255,
      "ache": 1256,
      "ari": 1257,
      "Ġper": 1258,
      "_defaults": 1259,
      "\")ĊĊ": 1260,
      "import": 1261,
      "ĊĊĊ": 1262,
      "Ar": 1263,
      "andl": 1264,
      "Ġcls": 1265,
      "router": 1266,
      "ĠPydantic": 1267,
      "De": 1268,
      "[L": 1269,
      "_type": 1270,
      "ay": 1271,
      "ined": 1272,
      "ĠFastAPI": 1273,
      "iffe": 1274,
      "(d": 1275,
      "/response": 1276,
      "_path": 1277,
      "Ġqu": 1278,
      "by": 1279,
      "ĠY": 1280,
      "order": 1281,
      "Ġfunc": 1282,
      "Ġleft": 1283,
      "aders": 1284,
      "overload": 1285,
      "(data": 1286,
      "ĠSt": 1287,
      "Ġ...ĊĊ": 1288,
      "ents": 1289,
      "Ġkeyword": 1290,
      "imal": 1291,
      "_leaf": 1292,
      ".append": 1293,
      "40": 1294,
      "An": 1295,
      "our": 1296,
      "Ġdoc": 1297,
      ".p": 1298,
      "/).Ċ": 1299,
      "`.Ċ": 1300,
      "op": 1301,
      "ook": 1302,
      "request": 1303,
      "Ġreturned": 1304,
      "Ġyield": 1305,
      "ultiIndex": 1306,
      "##": 1307,
      "aut": 1308,
      "dict": 1309,
      "et": 1310,
      "ste": 1311,
      "Ġparameter": 1312,
      "Ġdoes": 1313,
      "stra": 1314,
      "cls": 1315,
      "=n": 1316,
      "ose": 1317,
      "andom": 1318,
      "Ġite": 1319,
      "_code": 1320,
      "Ġspecifi": 1321,
      "11": 1322,
      "mary": 1323,
      "Ġlo": 1324,
      "ĠĠĠĠĠĠĠĠĠĠĠĠĠĠĠĠĠĠĠĠĠĠĠĠĠĠĠ": 1325,
      "Ġprovi": 1326,
      "calar": 1327,
      ">`": 1328,
      "mon": 1329,
      "son": 1330,
      "copy": 1331,
      "Ġfirst": 1332,
      "imum": 1333,
      "ard": 1334,
      "art": 1335,
      "ĠCallable": 1336,
      "ĠPath": 1337,
      "ĠURL": 1338,
      "]ĊĊ": 1339,
      "`).ĊĊ": 1340,
      "ved": 1341,
      "Ġunique": 1342,
      "Ġout": 1343,
      "ĠDe": 1344,
      "Ġleaf": 1345,
      "_include": 1346,
      "-response": 1347,
      "/advanced": 1348,
      "Ġrows": 1349,
      "dition": 1350,
      "lask": 1351,
      "text": 1352,
      "valid": 1353,
      "ĠĠĠĠĠĠĠĠĠĠĠĠ": 1354,
      "Ġloc": 1355,
      "_by": 1356,
      "Ġstatus": 1357,
      "Ġgenerate": 1358,
      "Ġmay": 1359,
      "_names": 1360,
      "Ke": 1361,
      "RE": 1362,
      "ml": 1363,
      "ould": 1364,
      "xes": 1365,
      "Ġform": 1366,
      "ĠDefault": 1367,
      "Ġ[\"": 1368,
      "_bracket": 1369,
      "-model": 1370,
      ".ad": 1371,
      "Ġdirect": 1372,
      "Ġdiffe": 1373,
      "child": 1374,
      "_data": 1375,
      "apping": 1376,
      "_l": 1377,
      "ression": 1378,
      "``,": 1379,
      "Ġgiv": 1380,
      "_col": 1381,
      ".to": 1382,
      "=f": 1383,
      "Ġro": 1384,
      "ĠWe": 1385,
      "stead": 1386,
      "\"],Ċ": 1387,
      "Rout": 1388,
      "Ġx": 1389,
      "Ġwould": 1390,
      "Ġdeprecated": 1391,
      "ĠAPI": 1392,
      "Ġthan": 1393,
      "_com": 1394,
      "(key": 1395,
      "ks": 1396,
      "Ġsy": 1397,
      ".o": 1398,
      ".de": 1399,
      "01": 1400,
      "act": 1401,
      "nd": 1402,
      "Ġfeatures": 1403,
      "Ġthen": 1404,
      "Ġduplic": 1405,
      "\"\"\"Ċ": 1406,
      "comp": 1407,
      "Ġlib": 1408,
      "construct": 1409,
      "ags": 1410,
      "iteral": 1411,
      "ashable": 1412,
      "(le": 1413,
      "12": 1414,
      "_C": 1415,
      "{\"": 1416,
      "Ġpass": 1417,
      "Ġwhe": 1418,
      "asses": 1419,
      "Ġmissing": 1420,
      "file": 1421,
      "(other": 1422,
      ".w": 1423,
      "=s": 1424,
      "Callable": 1425,
      "`.ĊĊ": 1426,
      "oin": 1427,
      "Ġcre": 1428,
      "_doc": 1429,
      "view": 1430,
      "own": 1431,
      "Ġarguments": 1432,
      "ING": 1433,
      "base": 1434,
      "cen": 1435,
      "code": 1436,
      "mit": 1437,
      "added": 1438,
      "Ġcould": 1439,
      "python": 1440,
      "params": 1441,
      "ĠHT": 1442,
      "Ġtwo": 1443,
      "30": 1444,
      "bug": 1445,
      "Ġ%": 1446,
      "Ġ>": 1447,
      "ery": 1448,
      "Ġac": 1449,
      "pect": 1450,
      "_schema": 1451,
      "Ġshow": 1452,
      "Ġversionadded": 1453,
      "Ġgiven": 1454,
      "\")": 1455,
      ".f": 1456,
      "=axis": 1457,
      "uf": 1458,
      "Ġinstead": 1459,
      "Ġbody": 1460,
      "Ġmatch": 1461,
      "coding": 1462,
      "``Ċ": 1463,
      "Ġgroup": 1464,
      "ĠMultiIndex": 1465,
      "Ġrequested": 1466,
      "-operation": 1467,
      "tribute": 1468,
      "Any": 1469,
      "direct": 1470,
      "lean": 1471,
      "isit": 1472,
      "_none": 1473,
      "`Ċ": 1474,
      "doc": 1475,
      "Ġali": 1476,
      "Ġsum": 1477,
      "mpty": 1478,
      "Ġcons": 1479,
      "_split": 1480,
      "\"])Ċ": 1481,
      "_arg": 1482,
      "anag": 1483,
      "ingle": 1484,
      "first": 1485,
      "ride": 1486,
      "xtures": 1487,
      "init": 1488,
      "rel": 1489,
      "ating": 1490,
      "Ġtags": 1491,
      "Ġav": 1492,
      "Ġndarray": 1493,
      "ĠNA": 1494,
      "_axis": 1495,
      "dic": 1496,
      "Ġtest": 1497,
      "Ġremo": 1498,
      "env": 1499,
      "Ġmat": 1500,
      "rap": 1501,
      ".core": 1502,
      "_dict": 1503,
      "hook": 1504,
      ".nan": 1505,
      "Array": 1506,
      "():Ċ": 1507,
      ">Ċ": 1508,
      "[[": 1509,
      "ull": 1510,
      "Ġdependencies": 1511,
      "ĠIter": 1512,
      "osition": 1513,
      ".st": 1514,
      "ron": 1515,
      "Ġinstance": 1516,
      "Ġhow": 1517,
      "anged": 1518,
      "ĠWhen": 1519,
      "cending": 1520,
      "=de": 1521,
      "Ġkeep": 1522,
      "Ġid": 1523,
      "Ġinput": 1524,
      "ĠĠĠĠĠĠĠĠĠĠĠĠĠ": 1525,
      "Ġparam": 1526,
      "--------------------------------": 1527,
      "Ġsuper": 1528,
      "Ġsupport": 1529,
      "nion": 1530,
      "riter": 1531,
      "lex": 1532,
      "any": 1533,
      "Ġdescription": 1534,
      "DE": 1535,
      "_h": 1536,
      "_app": 1537,
      "_line": 1538,
      "Ġpy": 1539,
      "Ġchild": 1540,
      "**": 1541,
      "cre": 1542,
      "final": 1543,
      "ĠJSON": 1544,
      "med": 1545,
      "Ġnon": 1546,
      "Ġshape": 1547,
      "Ġ#:": 1548,
      "atetime": 1549,
      "Ġ[]Ċ": 1550,
      "omatic": 1551,
      "Ġoperations": 1552,
      "ints": 1553,
      "_leaves": 1554,
      "mgr": 1555,
      "arens": 1556,
      "ized": 1557,
      "ormal": 1558,
      "lication": 1559,
      ".dtype": 1560,
      "Ġcollection": 1561,
      "(node": 1562,
      "ĠYou": 1563,
      "constructor": 1564,
      ".\"Ċ": 1565,
      "Ġ.": 1566,
      "ref": 1567,
      "mpl": 1568,
      "ĠĠĠĠĠĠĠĠĠĠĠĠĠĠĠĠ": 1569,
      "tags": 1570,
      "ĠLiteral": 1571,
      "Ġcallbacks": 1572,
      ".N": 1573,
      "iction": 1574,
      "tent": 1575,
      "lied": 1576,
      "iginal": 1577,
      "check": 1578,
      "rence": 1579,
      "Key": 1580,
      "ST": 1581,
      "Ġdrop": 1582,
      "ultip": 1583,
      "Ġbeha": 1584,
      "Ġautomatic": 1585,
      "iods": 1586,
      "Ġspecified": 1587,
      "Ġdifferent": 1588,
      "!=": 1589,
      "Dict": 1590,
      "_url": 1591,
      "frame": 1592,
      "ne": 1593,
      "sure": 1594,
      "Ġ!=": 1595,
      "Ġreg": 1596,
      "Ġscalar": 1597,
      "``.ĊĊ": 1598,
      "Ġalso": 1599,
      "anager": 1600,
      "_method": 1601,
      "Ġtime": 1602,
      "Ġpart": 1603,
      "Ġfixturedef": 1604,
      "Ġarrays": 1605,
      "(index": 1606,
      ".e": 1607,
      "Type": 1608,
      "]],Ċ": 1609,
      "lass": 1610,
      "run": 1611,
      "Ġinter": 1612,
      "Ġscope": 1613,
      "Ġ\"\"\"ĊĊ": 1614,
      "pth": 1615,
      "_mgr": 1616,
      "Ġkeys": 1617,
      "Ġlength": 1618,
      "corated": 1619,
      "PA": 1620,
      "_cl": 1621,
      "custom": 1622,
      "mory": 1623,
      "ner": 1624,
      "ative": 1625,
      "Ġthey": 1626,
      "_dtype": 1627,
      "Ġ{Ċ": 1628,
      "corator": 1629,
      "Ġcontext": 1630,
      "\"ĊĊ": 1631,
      "ias": 1632,
      "num": 1633,
      "ost": 1634,
      "ssion": 1635,
      "Ġty": 1636,
      "perty": 1637,
      "Ġsession": 1638,
      "rix": 1639,
      "Ġ{\"": 1640,
      "_set": 1641,
      "dle": 1642,
      "gine": 1643,
      "ous": 1644,
      "Ġweight": 1645,
      "_alias": 1646,
      "Ġbehavi": 1647,
      "].": 1648,
      "ike": 1649,
      "Ġwas": 1650,
      "nter": 1651,
      "iddle": 1652,
      "viron": 1653,
      "_pro": 1654,
      "_with": 1655,
      "ĠFixture": 1656,
      "(value": 1657,
      ".or": 1658,
      ".ex": 1659,
      ".type": 1660,
      "='": 1661,
      "ak": 1662,
      "})Ċ": 1663,
      "Ġcal": 1664,
      "ĠName": 1665,
      "ote": 1666,
      "perator": 1667,
      "Ġresponses": 1668,
      ".copy": 1669,
      "qui": 1670,
      "main": 1671,
      "Ġprovided": 1672,
      "Ġdirectly": 1673,
      "MA": 1674,
      "ile": 1675,
      "ils": 1676,
      "ĠID": 1677,
      "ical": 1678,
      "names": 1679,
      "Ġconver": 1680,
      "_for": 1681,
      "rows": 1682,
      "ĠBy": 1683,
      "ansform": 1684,
      "fixturedef": 1685,
      "ternal": 1686,
      ".add": 1687,
      "Ġwhere": 1688,
      "Ġautomatically": 1689,
      ".T": 1690,
      ".b": 1691,
      "Like": 1692,
      "TP": 1693,
      "Ġindic": 1694,
      "Ġsample": 1695,
      "route": 1696,
      "Ġvari": 1697,
      "_request": 1698,
      "Ġformat": 1699,
      "LE": 1700,
      "_error": 1701,
      "hs": 1702,
      "mt": 1703,
      "mand": 1704,
      "tes": 1705,
      "Ġkwargs": 1706,
      "alcon": 1707,
      "arget": 1708,
      "html": 1709,
      "_from": 1710,
      "Ġinto": 1711,
      "ĠLe": 1712,
      "ictionary": 1713,
      "coratedCallable": 1714,
      "\"],": 1715,
      "(result": 1716,
      "fer": 1717,
      "ient": 1718,
      "kle": 1719,
      "erge": 1720,
      "Ġmodule": 1721,
      "ocket": 1722,
      "Ġoriginal": 1723,
      "ĠExt": 1724,
      "lock": 1725,
      "children": 1726,
      "'Ċ": 1727,
      "-con": 1728,
      ".C": 1729,
      ".v": 1730,
      ".py": 1731,
      ".path": 1732,
      ".\"\"\"Ċ": 1733,
      "dent": 1734,
      "Ġass": 1735,
      "allbacks": 1736,
      "Ġitem": 1737,
      "ful": 1738,
      "node": 1739,
      "mplement": 1740,
      "Ġattribute": 1741,
      "okies": 1742,
      "ĠSequence": 1743,
      "Ġmethods": 1744,
      "pends": 1745,
      "Ġseries": 1746,
      "andler": 1747,
      "ditional": 1748,
      "(de": 1749,
      "-t": 1750,
      "/path": 1751,
      "25": 1752,
      "ME": 1753,
      "Union": 1754,
      "ccess": 1755,
      "Ġtra": 1756,
      "Ġassert": 1757,
      "changed": 1758,
      "Ġapplied": 1759,
      "Ġprefix": 1760,
      "NT": 1761,
      "_g": 1762,
      "bool": 1763,
      "function": 1764,
      "with": 1765,
      "Ġframe": 1766,
      "Ġnumpy": 1767,
      "ĠOperation": 1768,
      "Ġev": 1769,
      "Ġexample": 1770,
      "_len": 1771,
      "Ġ-----Ċ": 1772,
      "Ġneed": 1773,
      "Ġfiles": 1774,
      "Ġbehavior": 1775,
      "':": 1776,
      ".children": 1777,
      "ax": 1778,
      "be": 1779,
      "for": 1780,
      "Ġboth": 1781,
      "Ġna": 1782,
      "Ġsamples": 1783,
      "peed": 1784,
      "Ġexp": 1785,
      "qual": 1786,
      "make": 1787,
      "session": 1788,
      "ĠNotes": 1789,
      "Ġsummary": 1790,
      "-configuration": 1791,
      "50": 1792,
      "Label": 1793,
      "_array": 1794,
      "_string": 1795,
      "ause": 1796,
      "eb": 1797,
      "object": 1798,
      "sg": 1799,
      "sent": 1800,
      "status": 1801,
      "Ġfastapi": 1802,
      "Ġdefine": 1803,
      "Ġlast": 1804,
      "ments": 1805,
      "point": 1806,
      "Ġclient": 1807,
      "finalize": 1808,
      ".org": 1809,
      "OR": 1810,
      "_args": 1811,
      "ds": 1812,
      "du": 1813,
      "pandas": 1814,
      "Ġcer": 1815,
      "com": 1816,
      "Ġexist": 1817,
      "fields": 1818,
      "series": 1819,
      "().": 1820,
      "ĠIndexLabel": 1821,
      "\"):Ċ": 1822,
      "(X": 1823,
      "cur": 1824,
      "gre": 1825,
      "gor": 1826,
      "mal": 1827,
      "tw": 1828,
      "onic": 1829,
      "Ġpl": 1830,
      "otonic": 1831,
      "Ġmultip": 1832,
      "exclude": 1833,
      "Ġlevels": 1834,
      "_parent": 1835,
      "ĠValid": 1836,
      "_description": 1837,
      "ĠTypeError": 1838,
      "Ġallowed": 1839,
      "_response": 1840,
      "_par": 1841,
      "dtype": 1842,
      "ix": 1843,
      "ream": 1844,
      "_extra": 1845,
      "http": 1846,
      "umentation": 1847,
      "uplicates": 1848,
      "Route": 1849,
      "klearn": 1850,
      ".en": 1851,
      "NA": 1852,
      "ie": 1853,
      "og": 1854,
      "arge": 1855,
      "Ġrel": 1856,
      "anti": 1857,
      "Ġdec": 1858,
      "ility": 1859,
      "andle": 1860,
      "ignore": 1861,
      "Ġapplication": 1862,
      ".shape": 1863,
      "Ġnodes": 1864,
      "ĠHTTP": 1865,
      "({\"": 1866,
      ".at": 1867,
      "ION": 1868,
      "_or": 1869,
      "Ġag": 1870,
      "Ġdis": 1871,
      "Ġsingle": 1872,
      "respon": 1873,
      "adata": 1874,
      "prefix": 1875,
      "ĠList": 1876,
      "Ġprob": 1877,
      "Ġgetattr": 1878,
      "ĠGH": 1879,
      "Ġcompat": 1880,
      "riterion": 1881,
      ".value": 1882,
      "`.": 1883,
      "gn": 1884,
      "ider": 1885,
      "Ġobj": 1886,
      "ilter": 1887,
      "ĠFlask": 1888,
      "Ġthose": 1889,
      "Ġ[Ċ": 1890,
      "rial": 1891,
      "Ġempty": 1892,
      "usage": 1893,
      "Ġlike": 1894,
      "ormat": 1895,
      "Ġrun": 1896,
      "_count": 1897,
      "ffect": 1898,
      "Ġcalled": 1899,
      ".he": 1900,
      "TE": 1901,
      "_result": 1902,
      "rt": 1903,
      "uch": 1904,
      "}ĊĊ": 1905,
      "ong": 1906,
      "inue": 1907,
      "Ġclo": 1908,
      "ĠCo": 1909,
      "ĠCustom": 1910,
      "_off": 1911,
      "ivot": 1912,
      "Ġcorrespon": 1913,
      "property": 1914,
      "Ġmatrix": 1915,
      "(m": 1916,
      ".set": 1917,
      "=level": 1918,
      "ND": 1919,
      "[int": 1920,
      "_e": 1921,
      "apt": 1922,
      "man": 1923,
      "inplace": 1924,
      "orage": 1925,
      "Ġiter": 1926,
      "Ġopenapi": 1927,
      "Ġwant": 1928,
      "Ġreturning": 1929,
      "pening": 1930,
      "Ġextra": 1931,
      "output": 1932,
      "Ġmake": 1933,
      "Ġversionchanged": 1934,
      "Ġheaders": 1935,
      "pop": 1936,
      "Exception": 1937,
      "auth": 1938,
      "Ġvariable": 1939,
      "(o": 1940,
      "Fi": 1941,
      "Path": 1942,
      "side": 1943,
      "Ġaxes": 1944,
      "cluding": 1945,
      "Ġexception": 1946,
      "ization": 1947,
      ".ndarray": 1948,
      "\"{": 1949,
      "\":Ċ": 1950,
      "(axis": 1951,
      ".app": 1952,
      ".array": 1953,
      "_kwargs": 1954,
      "ake": 1955,
      "jang": 1956,
      "Ġap": 1957,
      "left": 1958,
      "ension": 1959,
      "Ġomit": 1960,
      "ametri": 1961,
      "Ġpa": 1962,
      "uture": 1963,
      "Ġmon": 1964,
      "umber": 1965,
      "Ġdefined": 1966,
      "ither": 1967,
      "_columns": 1968,
      "tem": 1969,
      "Ġencoding": 1970,
      "Ġcontinue": 1971,
      "Ġminimum": 1972,
      ".config": 1973,
      "####": 1974,
      "_cols": 1975,
      "jango": 1976,
      "ametriz": 1977,
      "31": 1978,
      "[Union": 1979,
      "_per": 1980,
      "_rows": 1981,
      "column": 1982,
      "dim": 1983,
      "eded": 1984,
      "sh": 1985,
      "uff": 1986,
      "ĠK": 1987,
      "Ġcustom": 1988,
      "ular": 1989,
      "mpur": 1990,
      "umeric": 1991,
      "ĠStr": 1992,
      "Ġserial": 1993,
      "argname": 1994,
      "Ġconfig": 1995,
      "_duplicates": 1996,
      "Ġ{'": 1997,
      "Ġend": 1998,
      "Ġengine": 1999,
      "ĠHashable": 2000,
      "Ġcontent": 2001,
      "Ġserver": 2002,
      "Ġauto": 2003,
      "dof": 2004,
      ".mode": 2005,
      "straints": 2006,
      "mplate": 2007,
      "(r": 2008,
      "-and": 2009,
      "OM": 2010,
      "_key": 2011,
      "fore": 2012,
      "lp": 2013,
      "uide": 2014,
      "Ġfoo": 2015,
      "Ġcallable": 2016,
      "annot": 2017,
      "olation": 2018,
      "Ġsparse": 2019,
      "valent": 2020,
      "Ġbefore": 2021,
      "_level": 2022,
      "Ġvalidate": 2023,
      "quivalent": 2024,
      "Base": 2025,
      "Def": 2026,
      "RA": 2027,
      "Se": 2028,
      "The": 2029,
      "[:": 2030,
      "last": 2031,
      "pared": 2032,
      "Ġver": 2033,
      "ines": 2034,
      "read": 2035,
      "arch": 2036,
      "Ġoperator": 2037,
      "Ġdecorator": 2038,
      "ĠAr": 2039,
      "lib": 2040,
      "ĠTo": 2041,
      "Ġreturns": 2042,
      "ick": 2043,
      "Ġfixtures": 2044,
      "idx": 2045,
      "Ġuser": 2046,
      "Ġrandom": 2047,
      "ĠUn": 2048,
      "Ġsome": 2049,
      "ailable": 2050,
      "Ġdocstring": 2051,
      "mpurity": 2052,
      "(col": 2053,
      "24": 2054,
      "SE": 2055,
      "ken": 2056,
      "nly": 2057,
      "req": 2058,
      "Ġfeature": 2059,
      "Ġwor": 2060,
      "ĠSort": 2061,
      "Ġ(\"": 2062,
      "Ġsend": 2063,
      "quire": 2064,
      "_redirect": 2065,
      "Ġjoin": 2066,
      "ĠNote": 2067,
      "Ġelements": 2068,
      "Ġclick": 2069,
      "Ġcorrel": 2070,
      "oolean": 2071,
      "[List": 2072,
      "Ġsupported": 2073,
      "iddlew": 2074,
      "_offset": 2075,
      "-par": 2076,
      ".response": 2077,
      "32": 2078,
      "43": 2079,
      "In": 2080,
      "[Dict": 2081,
      "_v": 2082,
      "_list": 2083,
      "ll": 2084,
      "tname": 2085,
      "way": 2086,
      "Ġ/": 2087,
      "Ġupdate": 2088,
      "Ġte": 2089,
      "Ġthere": 2090,
      "Ġop": 2091,
      "Ġnormal": 2092,
      ")ĊĊĊ": 2093,
      "Ġsee": 2094,
      "user": 2095,
      "Ġmeta": 2096,
      "errors": 2097,
      "ĠSet": 2098,
      ".sort": 2099,
      "Ġadd": 2100,
      "ifier": 2101,
      "Depends": 2102,
      "compat": 2103,
      ".visit": 2104,
      "Ġcorresponding": 2105,
      "Fixture": 2106,
      ".se": 2107,
      "/de": 2108,
      "=[": 2109,
      "HE": 2110,
      "ML": 2111,
      "Warning": 2112,
      "_F": 2113,
      "_item": 2114,
      "down": 2115,
      "een": 2116,
      "tadata": 2117,
      "},Ċ": 2118,
      "ings": 2119,
      "Ġtoken": 2120,
      "ĠĠĠĠĠĠĠĠĠĠĠĠĠĠĠĠĠĠĠĠĠĠĠĠĠĠĠĠĠĠĠ": 2121,
      "------------": 2122,
      "vert": 2123,
      "_cache": 2124,
      "ĠMark": 2125,
      "Ġstack": 2126,
      "Ġapply": 2127,
      "ibility": 2128,
      "(new": 2129,
      "Ġalign": 2130,
      "Ġavailable": 2131,
      "ĠIterator": 2132,
      ".items": 2133,
      "`).Ċ": 2134,
      "xy": 2135,
      "Ġrouter": 2136,
      "Ġbracket": 2137,
      "round": 2138,
      "Ġwarning": 2139,
      "Ġ```": 2140,
      "raction": 2141,
      "ĠRequest": 2142,
      "Ġwithout": 2143,
      "Ġfunctions": 2144,
      "ĠLine": 2145,
      "Ġrequests": 2146,
      "routing": 2147,
      "Ġneeded": 2148,
      "_state": 2149,
      "Ġindices": 2150,
      "(field": 2151,
      "(cls": 2152,
      ".,": 2153,
      ".from": 2154,
      "Ap": 2155,
      "`)": 2156,
      "az": 2157,
      "aise": 2158,
      "cat": 2159,
      "openapi": 2160,
      "pare": 2161,
      "pace": 2162,
      "Ġz": 2163,
      "den": 2164,
      "Ġfound": 2165,
      "Ġdictionary": 2166,
      "older": 2167,
      "pear": 2168,
      "cli": 2169,
      "quet": 2170,
      "ĠOnly": 2171,
      "Ġascending": 2172,
      "Ġarr": 2173,
      "how": 2174,
      "Ġmean": 2175,
      "ĠWhe": 2176,
      "_body": 2177,
      "_options": 2178,
      "Ġhasattr": 2179,
      "Ġchecks": 2180,
      "Ġincluded": 2181,
      "_context": 2182,
      "ĠAdditional": 2183,
      "auto": 2184,
      "Ġdoesn": 2185,
      "Ġlook": 2186,
      "hooks": 2187,
      "Ġmultiple": 2188,
      "\"))Ċ": 2189,
      ")):Ċ": 2190,
      "CE": 2191,
      "[Any": 2192,
      "pd": 2193,
      "dered": 2194,
      "Ġtree": 2195,
      "Ġact": 2196,
      "Ġfuture": 2197,
      "Ġback": 2198,
      "valu": 2199,
      "_insert": 2200,
      "Ġcomput": 2201,
      "Ġcontains": 2202,
      "Ġcomb": 2203,
      "Ġoutput": 2204,
      "(leaf": 2205,
      "Ġparams": 2206,
      "antile": 2207,
      ".attname": 2208,
      "uffer": 2209,
      "iddleware": 2210,
      ".I": 2211,
      ".loc": 2212,
      "ait": 2213,
      "cause": 2214,
      "Ġ],Ċ": 2215,
      "ision": 2216,
      "pender": 2217,
      "Ġhook": 2218,
      "Ġrv": 2219,
      "agg": 2220,
      ".no": 2221,
      "models": 2222,
      "lector": 2223,
      "ĠFile": 2224,
      "Ġsubset": 2225,
      "ĠDecoratedCallable": 2226,
      "Ġduplicate": 2227,
      "Ġcreate": 2228,
      "Ġremove": 2229,
      "Ġpair": 2230,
      "ways": 2231,
      ".E": 2232,
      ".F": 2233,
      "App": 2234,
      "_str": 2235,
      "null": 2236,
      "oid": 2237,
      "Ġdtypes": 2238,
      "ĠĠĠĠĠĠĠĠĠĠĠĠĠĠ": 2239,
      "ĠCol": 2240,
      "Ġmemory": 2241,
      "vious": 2242,
      "ncEx": 2243,
      "Ġattr": 2244,
      "Ġensure": 2245,
      ".drop": 2246,
      "pendant": 2247,
      "]]],Ċ": 2248,
      "ĠAdd": 2249,
      "=fill": 2250,
      "Ġmatching": 2251,
      "ĠString": 2252,
      "'},": 2253,
      "-de": 2254,
      ".\",Ċ": 2255,
      "=_": 2256,
      "[bool": 2257,
      "ccur": 2258,
      "Ġ}Ċ": 2259,
      "Ġview": 2260,
      "Ġimplement": 2261,
      "let": 2262,
      "ession": 2263,
      "Ġoccur": 2264,
      "Ġdjango": 2265,
      "ulation": 2266,
      "Ġmulti": 2267,
      "fic": 2268,
      "log": 2269,
      "Ġits": 2270,
      "ĠPer": 2271,
      "Ġ----------------------------------------": 2272,
      "Ġresulting": 2273,
      "Ġspecify": 2274,
      "ignment": 2275,
      "Ġdocumentation": 2276,
      "Ġitems": 2277,
      "pected": 2278,
      "_argument": 2279,
      "Ġcompatibility": 2280,
      "Appender": 2281,
      "Ġ--------------------------------------------------------": 2282,
      "([\"": 2283,
      ".max": 2284,
      "33": 2285,
      "=m": 2286,
      "AS": 2287,
      "IncEx": 2288,
      "[IncEx": 2289,
      "]})Ċ": 2290,
      "_is": 2291,
      "mall": 2292,
      "optional": 2293,
      "random": 2294,
      "include": 2295,
      "Ġincluding": 2296,
      "Ġdebug": 2297,
      "Ġ```Ċ": 2298,
      "ĠScope": 2299,
      "Ġforce": 2300,
      "Ġbetw": 2301,
      "Ġhost": 2302,
      "Ġrhs": 2303,
      "_op": 2304,
      "Ġhere": 2305,
      "ĠPython": 2306,
      "================================================================": 2307,
      "arker": 2308,
      "_label": 2309,
      "Ġsyms": 2310,
      "uffix": 2311,
      "Ġtypes": 2312,
      "ixin": 2313,
      "Ġ--------------------------------------------------------------------": 2314,
      "Ġbetween": 2315,
      "-wise": 2316,
      "DO": 2317,
      "Inter": 2318,
      "_output": 2319,
      "flex": 2320,
      "Ġload": 2321,
      "renc": 2322,
      "less": 2323,
      "itial": 2324,
      "Ġsh": 2325,
      "Ġschema": 2326,
      "uring": 2327,
      "ĠSo": 2328,
      "_cst": 2329,
      "hould": 2330,
      "Ġbytes": 2331,
      "__(Ċ": 2332,
      "Ġstate": 2333,
      "_non": 2334,
      "oss": 2335,
      "(df": 2336,
      "Ġremoved": 2337,
      "crease": 2338,
      "(b": 2339,
      "(right": 2340,
      "_i": 2341,
      "_as": 2342,
      "ld": 2343,
      "ling": 2344,
      "module": 2345,
      "pan": 2346,
      "qrt": 2347,
      "tx": 2348,
      "tuple": 2349,
      "wait": 2350,
      "xies": 2351,
      "Ġtable": 2352,
      "Ġctx": 2353,
      "Ġinform": 2354,
      "Ġmod": 2355,
      "Ġhandle": 2356,
      "Ġobjects": 2357,
      "_parens": 2358,
      "_obj": 2359,
      "_indexer": 2360,
      "Ġhelp": 2361,
      "=np": 2362,
      "Ġavoid": 2363,
      "Ġeven": 2364,
      "(l": 2365,
      ".ext": 2366,
      ".Any": 2367,
      "05": 2368,
      "19": 2369,
      "Default": 2370,
      "Na": 2371,
      "fter": 2372,
      "pass": 2373,
      "pha": 2374,
      "uil": 2375,
      "Ġup": 2376,
      "allow": 2377,
      "meth": 2378,
      "len": 2379,
      "Ġfit": 2380,
      "Ġtheir": 2381,
      "Ġrepre": 2382,
      "Ġsklearn": 2383,
      "rot": 2384,
      "root": 2385,
      "Ġdeta": 2386,
      "Ġbecause": 2387,
      "used": 2388,
      "Ġasync": 2389,
      "Ġeither": 2390,
      "part": 2391,
      "Ġalways": 2392,
      "_tra": 2393,
      "_position": 2394,
      ".dtypes": 2395,
      "Ġargname": 2396,
      ".reindex": 2397,
      "Return": 2398,
      "atching": 2399,
      "ĠInclude": 2400,
      "ERS": 2401,
      "[Line": 2402,
      "Ġalias": 2403,
      "ĠValidation": 2404,
      "Ġinformation": 2405,
      "Ġrepresent": 2406,
      ".url": 2407,
      ".html": 2408,
      "CK": 2409,
      "IT": 2410,
      "Mixin": 2411,
      "Par": 2412,
      "])": 2413,
      "callbacks": 2414,
      "ian": 2415,
      "iled": 2416,
      "join": 2417,
      "to": 2418,
      "Ġent": 2419,
      "Ġ\"--": 2420,
      "Ġread": 2421,
      "Ġrequire": 2422,
      "Ġsw": 2423,
      "roug": 2424,
      "utable": 2425,
      "classes": 2426,
      "Ġsent": 2427,
      "query": 2428,
      "_node": 2429,
      "istory": 2430,
      "ugin": 2431,
      "Ġcontaining": 2432,
      "Ġjson": 2433,
      "Ġquery": 2434,
      "imals": 2435,
      "greg": 2436,
      ".apply": 2437,
      "!r": 2438,
      "('": 2439,
      "(path": 2440,
      "-unique": 2441,
      ".me": 2442,
      "18": 2443,
      "Con": 2444,
      "ET": 2445,
      "TION": 2446,
      "_like": 2447,
      "axes": 2448,
      "np": 2449,
      "~~": 2450,
      "info": 2451,
      "Ġcat": 2452,
      "espan": 2453,
      "arlet": 2454,
      "Ġos": 2455,
      "Ġddof": 2456,
      "Ġduring": 2457,
      "Ġparens": 2458,
      "otenv": 2459,
      "iling": 2460,
      "Ġresol": 2461,
      "abc": 2462,
      "term": 2463,
      "ĠCli": 2464,
      "andard": 2465,
      "mplex": 2466,
      "_func": 2467,
      "host": 2468,
      "_input": 2469,
      "cheme": 2470,
      "ĠWrite": 2471,
      "Ġcannot": 2472,
      "Ġargs": 2473,
      "pendency": 2474,
      "format": 2475,
      "_depth": 2476,
      "ĠGenerate": 2477,
      "roupby": 2478,
      "Ġperform": 2479,
      "(dtype": 2480,
      "stract": 2481,
      "Ġprovide": 2482,
      "Ġcollections": 2483,
      "Sequence": 2484,
      "arlette": 2485,
      "(request": 2486,
      ".test": 2487,
      ".line": 2488,
      ".update": 2489,
      ".make": 2490,
      "Co": 2491,
      "Py": 2492,
      "SI": 2493,
      "Split": 2494,
      "_r": 2495,
      "amp": 2496,
      "polation": 2497,
      "sum": 2498,
      "socket": 2499,
      "stack": 2500,
      "Ġredirect": 2501,
      "Ġbl": 2502,
      "Ġbre": 2503,
      "ross": 2504,
      "ell": 2505,
      "urt": 2506,
      "iloc": 2507,
      "verride": 2508,
      "_exception": 2509,
      "Ġyour": 2510,
      "Value": 2511,
      "Ġwhile": 2512,
      "ird": 2513,
      "ource": 2514,
      ".parent": 2515,
      "_brackets": 2516,
      "Router": 2517,
      ".No": 2518,
      "ĠExtension": 2519,
      "(deep": 2520,
      "Ġmonotonic": 2521,
      "OMMA": 2522,
      "Ġcorrelation": 2523,
      "ĠWhether": 2524,
      "================================================================================": 2525,
      "Ġdetails": 2526,
      "(func": 2527,
      "-function": 2528,
      ".le": 2529,
      ".ut": 2530,
      "15": 2531,
      "38": 2532,
      "div": 2533,
      "her": 2534,
      "nse": 2535,
      "parent": 2536,
      "ually": 2537,
      "visible": 2538,
      "ze": 2539,
      "ĠJ": 2540,
      "Ġfinal": 2541,
      "Ġthem": 2542,
      "Ġoption": 2543,
      "ollow": 2544,
      "ĠNode": 2545,
      "ĠDrop": 2546,
      "fixtures": 2547,
      "ĠFinal": 2548,
      "lob": 2549,
      "Ġlarge": 2550,
      "_check": 2551,
      "_inter": 2552,
      "Ġparametriz": 2553,
      "Ġsetting": 2554,
      "Ġchange": 2555,
      "Ġoverride": 2556,
      "Ġroot": 2557,
      "vironment": 2558,
      "Ġcertain": 2559,
      "_parents": 2560,
      "rences": 2561,
      ".NoDefault": 2562,
      ".values": 2563,
      "</": 2564,
      "=index": 2565,
      "[-": 2566,
      "ĠQ": 2567,
      "ĠKey": 2568,
      "Ġtre": 2569,
      "Ġafter": 2570,
      "Ġcache": 2571,
      "Ġob": 2572,
      "lice": 2573,
      "ĠDict": 2574,
      "ategor": 2575,
      "Ġhandler": 2576,
      "Ġ{}Ċ": 2577,
      "Ġstart": 2578,
      "ackage": 2579,
      "ĠBase": 2580,
      "Ġprevious": 2581,
      "Ġdog": 2582,
      "cessary": 2583,
      "_comma": 2584,
      "Ġduplicates": 2585,
      "**ĊĊ": 2586,
      "fixturedefs": 2587,
      "Ġomitted": 2588,
      "[:,": 2589,
      ".extend": 2590,
      "rough": 2591,
      "))": 2592,
      "-cli": 2593,
      ".as": 2594,
      ".pop": 2595,
      "AL": 2596,
      "GI": 2597,
      "Mapping": 2598,
      "_file": 2599,
      "_params": 2600,
      "ailed": 2601,
      "ear": 2602,
      "Ġcast": 2603,
      "arrow": 2604,
      "Ġbuf": 2605,
      "Ġsuch": 2606,
      "Ġmsg": 2607,
      "ĠSer": 2608,
      "ress": 2609,
      "Ġbeen": 2610,
      "Ġeffect": 2611,
      "Ġones": 2612,
      "Ġdataframe": 2613,
      "tial": 2614,
      "Ġrange": 2615,
      "agger": 2616,
      "_bool": 2617,
      "Ġheader": 2618,
      "Ġunder": 2619,
      "Ġtransform": 2620,
      "Ġmaximum": 2621,
      "Ġjust": 2622,
      "Ġconsider": 2623,
      "Ġdropna": 2624,
      "ccessor": 2625,
      ".headers": 2626,
      "apter": 2627,
      "shared": 2628,
      "ready": 2629,
      "Ġwork": 2630,
      "compatible": 2631,
      "Ġ----------------------------------------------------------------------Ċ": 2632,
      "(name": 2633,
      "-id": 2634,
      "-generate": 2635,
      "/generate": 2636,
      "=name": 2637,
      "Func": 2638,
      "cut": 2639,
      "da": 2640,
      "df": 2641,
      "io": 2642,
      "kze": 2643,
      "ping": 2644,
      "rary": 2645,
      "uild": 2646,
      "return": 2647,
      "erkze": 2648,
      "heses": 2649,
      "stamp": 2650,
      "Ġfollow": 2651,
      "ely": 2652,
      "Ġmerge": 2653,
      "\"\"\"ĊĊ": 2654,
      "ĠApp": 2655,
      "Ġbest": 2656,
      "Ġ['": 2657,
      "rior": 2658,
      "ĠDataFrames": 2659,
      "Ġcount": 2660,
      "Ġindexer": 2661,
      "keyword": 2662,
      "Ġalready": 2663,
      "Ġ]Ċ": 2664,
      "ĠUse": 2665,
      "ĠConvert": 2666,
      "anspo": 2667,
      "Ġcommand": 2668,
      "Ġlocation": 2669,
      "(len": 2670,
      "=skipna": 2671,
      "ĠHTML": 2672,
      "-the": 2673,
      "_length": 2674,
      "ĠComp": 2675,
      "_outputs": 2676,
      "NaN": 2677,
      "ĠClients": 2678,
      "-clients": 2679,
      "erkzeug": 2680,
      "\"),": 2681,
      ".h": 2682,
      ".iloc": 2683,
      "Hashable": 2684,
      "PE": 2685,
      "SGI": 2686,
      "[Sequence": 2687,
      "\\*": 2688,
      "_he": 2689,
      "_DE": 2690,
      "_route": 2691,
      "flask": 2692,
      "numpy": 2693,
      "sort": 2694,
      "yle": 2695,
      "Ġupd": 2696,
      "reate": 2697,
      "del": 2698,
      "Ġtake": 2699,
      "state": 2700,
      "ars": 2701,
      "Ġoptions": 2702,
      "Ġdon": 2703,
      "uepr": 2704,
      "Ġwrap": 2705,
      "ĠND": 2706,
      "ilar": 2707,
      "upport": 2708,
      "_frame": 2709,
      "_flex": 2710,
      "plode": 2711,
      ".comp": 2712,
      "teger": 2713,
      "afe": 2714,
      "imilar": 2715,
      "_rel": 2716,
      "::ĊĊ": 2717,
      "funcitem": 2718,
      "Ġtuples": 2719,
      "-openapi": 2720,
      "Ġsys": 2721,
      "ĠLevel": 2722,
      "ĠExtra": 2723,
      "MENT": 2724,
      "Ġexisting": 2725,
      "Ġextract": 2726,
      "(ops": 2727,
      "Ġverify": 2728,
      "Ġnormalize": 2729,
      "/dependencies": 2730,
      ").__": 2731,
      ".fields": 2732,
      "Tree": 2733,
      "[Response": 2734,
      "_se": 2735,
      "_tags": 2736,
      "aded": 2737,
      "cp": 2738,
      "rint": 2739,
      "tc": 2740,
      "ual": 2741,
      "}\"Ċ": 2742,
      "Ġvi": 2743,
      "Ġtak": 2744,
      "lete": 2745,
      "Ġcriterion": 2746,
      "Ġinitial": 2747,
      "Ġredu": 2748,
      "Ġboolean": 2749,
      "vals": 2750,
      "Ġbeing": 2751,
      "icular": 2752,
      "Ġhandl": 2753,
      "Ġuseful": 2754,
      "_column": 2755,
      "_object": 2756,
      "Ġchar": 2757,
      "_stmt": 2758,
      "Ġmaybe": 2759,
      "Ġpytest": 2760,
      "Ġparticular": 2761,
      "PAR": 2762,
      "Ġaggreg": 2763,
      "-parameter": 2764,
      ".leaves": 2765,
      "-path": 2766,
      "14": 2767,
      "17": 2768,
      "=d": 2769,
      "={\"": 2770,
      "AR": 2771,
      "ODO": 2772,
      "Socket": 2773,
      "[Hashable": 2774,
      "_ar": 2775,
      "_en": 2776,
      "_loc": 2777,
      "aces": 2778,
      "bine": 2779,
      "float": 2780,
      "kes": 2781,
      "mb": 2782,
      "uccess": 2783,
      "Ġhttps": 2784,
      "hes": 2785,
      "Ġident": 2786,
      "lest": 2787,
      "Ġfail": 2788,
      "Ġcho": 2789,
      "Ġref": 2790,
      "Ġbar": 2791,
      "Ġsi": 2792,
      "Ġsco": 2793,
      "Ġposs": 2794,
      "utes": 2795,
      "unk": 2796,
      "raw": 2797,
      "ĠTODO": 2798,
      "pts": 2799,
      "Ġleaves": 2800,
      "abled": 2801,
      "_format": 2802,
      "_dtypes": 2803,
      "config": 2804,
      "__}": 2805,
      "izer": 2806,
      "_option": 2807,
      "Ġvisit": 2808,
      "Ġignored": 2809,
      "ference": 2810,
      "ssage": 2811,
      "move": 2812,
      "Ġkeywords": 2813,
      "validate": 2814,
      "compute": 2815,
      "Ġshown": 2816,
      "ĠLeaf": 2817,
      "nodes": 2818,
      "mallest": 2819,
      "Ġserialized": 2820,
      "Ġbreak": 2821,
      "delta": 2822,
      "ĠNDFrame": 2823,
      "uccessful": 2824,
      "\"]Ċ": 2825,
      "')Ċ": 2826,
      "(values": 2827,
      "))ĊĊ": 2828,
      "-s": 2829,
      ".M": 2830,
      ".res": 2831,
      "Class": 2832,
      "Model": 2833,
      "Options": 2834,
      "RING": 2835,
      "St": 2836,
      "[..": 2837,
      "_at": 2838,
      "_res": 2839,
      "_import": 2840,
      "_order": 2841,
      "ain": 2842,
      "cast": 2843,
      "patch": 2844,
      "scope": 2845,
      "vent": 2846,
      "ini": 2847,
      "Ġimp": 2848,
      "Ġfalcon": 2849,
      "Ġopening": 2850,
      "Ġold": 2851,
      "Ġdatetime": 2852,
      "Ġspeed": 2853,
      "Ġdes": 2854,
      "ĠĠĠĠĠĠĠĠĠĠĠĠĠĠĠĠĠ": 2855,
      "ĠRen": 2856,
      "ather": 2857,
      "lying": 2858,
      "``.Ċ": 2859,
      "Ġetc": 2860,
      "content": 2861,
      "(\"/": 2862,
      "Ġparameters": 2863,
      "after": 2864,
      "Ġclasses": 2865,
      "_number": 2866,
      ".db": 2867,
      ".sum": 2868,
      "Ġ<=": 2869,
      "tributes": 2870,
      "Ġquote": 2871,
      "Ġcreated": 2872,
      "_argkey": 2873,
      "crete": 2874,
      "Ġfixturedefs": 2875,
      "Ġtyping": 2876,
      "_arguments": 2877,
      "password": 2878,
      "Ġrequired": 2879,
      "TIONS": 2880,
      "ĠQu": 2881,
      "[...,": 2882,
      "\"),Ċ": 2883,
      "(line": 2884,
      ".tr": 2885,
      ".pre": 2886,
      ".min": 2887,
      "13": 2888,
      "80": 2889,
      "=cls": 2890,
      "Group": 2891,
      "OT": 2892,
      "Pre": 2893,
      "ba": 2894,
      "fit": 2895,
      "nsion": 2896,
      "umed": 2897,
      "Ġq": 2898,
      "Ġusage": 2899,
      "inary": 2900,
      "ater": 2901,
      "Ġawait": 2902,
      "Ġinsert": 2903,
      "raise": 2904,
      "ĠInter": 2905,
      "Ġselect": 2906,
      "idth": 2907,
      "ĠCheck": 2908,
      "Ġcoef": 2909,
      "outine": 2910,
      "pped": 2911,
      "__Ċ": 2912,
      "Ġstorage": 2913,
      "lications": 2914,
      "Ġenum": 2915,
      ".dot": 2916,
      "imension": 2917,
      "Ġperiods": 2918,
      "_lin": 2919,
      "Ġroute": 2920,
      "STRING": 2921,
      "nection": 2922,
      "_setting": 2923,
      "Ġconverted": 2924,
      "Ġendpoint": 2925,
      "Ġhooks": 2926,
      "_nodes": 2927,
      "ressor": 2928,
      "(v": 2929,
      ".int": 2930,
      ".axes": 2931,
      "02": 2932,
      "Buffer": 2933,
      "ILE": 2934,
      "_pre": 2935,
      "_test": 2936,
      "_items": 2937,
      "bit": 2938,
      "bda": 2939,
      "duct": 2940,
      "ethod": 2941,
      "gument": 2942,
      "ia": 2943,
      "json": 2944,
      "lt": 2945,
      "ped": 2946,
      "ry": 2947,
      "split": 2948,
      "the": 2949,
      "vari": 2950,
      "ĠV": 2951,
      "rer": 2952,
      "derer": 2953,
      "Ġtail": 2954,
      "Ġtarget": 2955,
      "stim": 2956,
      "Ġfind": 2957,
      "Ġinner": 2958,
      "Ġnan": 2959,
      "Ġsure": 2960,
      "Ġsmall": 2961,
      "Ġposition": 2962,
      "Ġdevel": 2963,
      "Ġanother": 2964,
      "ĠDatetime": 2965,
      "astype": 2966,
      "vers": 2967,
      "ĠOther": 2968,
      "``.": 2969,
      "Ġequal": 2970,
      "Ġexe": 2971,
      "_folder": 2972,
      "Ġdataset": 2973,
      "ĠMax": 2974,
      "ambda": 2975,
      "Ġstatic": 2976,
      "Ġparser": 2977,
      "serv": 2978,
      "Ġotherwise": 2979,
      "(),Ċ": 2980,
      ":`~": 2981,
      ".split": 2982,
      "cords": 2983,
      ".request": 2984,
      "Ġnecessary": 2985,
      ".tree": 2986,
      "precate": 2987,
      "Ġsorting": 2988,
      "endpoint": 2989,
      "Ġbased": 2990,
      "_handler": 2991,
      "common": 2992,
      "Ġprobab": 2993,
      ".Item": 2994,
      "_nonkeyword": 2995,
      "_impurity": 2996,
      ".utils": 2997,
      "ĠKeyError": 2998,
      "Ġupdated": 2999,
      "(None": 3000,
      "(level": 3001,
      "(child": 3002,
      "-in": 3003,
      ".P": 3004,
      ".Error": 3005,
      "35": 3006,
      "=min": 3007,
      "Data": 3008,
      "En": 3009,
      "Field": 3010,
      "LI": 3011,
      "Manager": 3012,
      "OU": 3013,
      "Set": 3014,
      "[nodes": 3015,
      "_version": 3016,
      "_usage": 3017,
      "miter": 3018,
      "oint": 3019,
      "table": 3020,
      "ume": 3021,
      "Ġthese": 3022,
      "Ġ\"_": 3023,
      "ctx": 3024,
      "Ġwho": 3025,
      "Ġwrite": 3026,
      "ĠNum": 3027,
      "ashes": 3028,
      "Ġmapping": 3029,
      "limiter": 3030,
      "apper": 3031,
      "Ġ|Ċ": 3032,
      "ĠPre": 3033,
      "Ġdefaults": 3034,
      "Ġ'%": 3035,
      "enerated": 3036,
      "Ġdatabase": 3037,
      "classmethod": 3038,
      "Ġmeans": 3039,
      "iff": 3040,
      "_info": 3041,
      "ĠEnum": 3042,
      "ĠEquivalent": 3043,
      "arrays": 3044,
      "_tree": 3045,
      "_pk": 3046,
      "_override": 3047,
      "Ġwere": 3048,
      "lower": 3049,
      ".groupby": 3050,
      "cript": 3051,
      "Ġauth": 3052,
      "cale": 3053,
      "Ġkind": 3054,
      "domain": 3055,
      "ternally": 3056,
      ".pk": 3057,
      "runing": 3058,
      "gorith": 3059,
      "Ġappend": 3060,
      "Ġwarnings": 3061,
      "ĠCollection": 3062,
      "ĠPeriod": 3063,
      "utableMapping": 3064,
      "(ex": 3065,
      ".r": 3066,
      ".arg": 3067,
      ".unique": 3068,
      "37": 3069,
      "=dtype": 3070,
      "YPE": 3071,
      "[Base": 3072,
      "_router": 3073,
      "cy": 3074,
      "cision": 3075,
      "eaf": 3076,
      "label": 3077,
      "ĠError": 3078,
      "deprecate": 3079,
      "mean": 3080,
      "Ġfraction": 3081,
      "Ġinternally": 3082,
      "Ġbuil": 3083,
      "Ġbird": 3084,
      "Ġnext": 3085,
      "itive": 3086,
      "Ġpop": 3087,
      "ulate": 3088,
      "Ġdepth": 3089,
      "utf": 3090,
      "ĠAs": 3091,
      "ĠAt": 3092,
      "ĠRaise": 3093,
      "verse": 3094,
      "ĠOr": 3095,
      "Ġlines": 3096,
      "Ġconnection": 3097,
      "Ġequivalent": 3098,
      "APIRoute": 3099,
      "Ġalgorith": 3100,
      "Ġstandard": 3101,
      "licit": 3102,
      "ages": 3103,
      ".sw": 3104,
      "ĠConfig": 3105,
      "foo": 3106,
      "Ġkn": 3107,
      ">`_": 3108,
      "Ġwhether": 3109,
      "Ġaccept": 3110,
      "Ġacross": 3111,
      "_arrays": 3112,
      "Ġclosing": 3113,
      "Ġlookup": 3114,
      ".local": 3115,
      "mplexity": 3116,
      "ĠExtensionArray": 3117,
      "ategorical": 3118,
      "riority": 3119,
      "\"},": 3120,
      "')": 3121,
      "'],": 3122,
      ".method": 3123,
      "75": 3124,
      "99": 3125,
      "=exclude": 3126,
      "ED": 3127,
      "Not": 3128,
      "_R": 3129,
      "_u": 3130,
      "_def": 3131,
      "body": 3132,
      "ftest": 3133,
      "fespan": 3134,
      "ged": 3135,
      "sol": 3136,
      "ward": 3137,
      "ining": 3138,
      "inition": 3139,
      "ately": 3140,
      "ert": 3141,
      "erate": 3142,
      "align": 3143,
      "lease": 3144,
      "Ġincompatible": 3145,
      "Ġreindex": 3146,
      "Ġreplace": 3147,
      "old": 3148,
      "Ġmgr": 3149,
      "click": 3150,
      "rag": 3151,
      "Ġthrough": 3152,
      "_matching": 3153,
      "periods": 3154,
      "pyfuncitem": 3155,
      "Ġconstraints": 3156,
      "play": 3157,
      "_slic": 3158,
      "_scope": 3159,
      "temp": 3160,
      "Ġalong": 3161,
      "ammal": 3162,
      "Ġpartial": 3163,
      "_tuple": 3164,
      ".data": 3165,
      "ĠUI": 3166,
      "_write": 3167,
      "ĠParameter": 3168,
      "ific": 3169,
      "(np": 3170,
      "_stack": 3171,
      "_constraints": 3172,
      "JSONResponse": 3173,
      "Ġstrings": 3174,
      ".insert": 3175,
      "_alpha": 3176,
      "DecoratedCallable": 3177,
      "=numeric": 3178,
      "Ġspecific": 3179,
      "ĠURLs": 3180,
      "ĠWeb": 3181,
      ".float": 3182,
      "NDFrame": 3183,
      "########": 3184,
      "_periods": 3185,
      "ficient": 3186,
      "ĠValidationError": 3187,
      "Ġcharact": 3188,
      ".reshape": 3189,
      "(_": 3190,
      "(x": 3191,
      "-d": 3192,
      "-NA": 3193,
      ".\"": 3194,
      ".pytest": 3195,
      ".Response": 3196,
      ".astype": 3197,
      "/null": 3198,
      "04": 3199,
      "21": 3200,
      "AD": 3201,
      "SS": 3202,
      "_a": 3203,
      "_fixture": 3204,
      "_IN": 3205,
      "ama": 3206,
      "mote": 3207,
      "nal": 3208,
      "spect": 3209,
      "tree": 3210,
      "xml": 3211,
      "ince": 3212,
      "metadata": 3213,
      "Ġdate": 3214,
      "Ġsimilar": 3215,
      "ĠNo": 3216,
      "ĠSpeed": 3217,
      "ĠSession": 3218,
      "ocation": 3219,
      "ĠData": 3220,
      "ters": 3221,
      "Ġsequence": 3222,
      "Ġexc": 3223,
      "Ġ``'": 3224,
      "tack": 3225,
      ".coef": 3226,
      "_docs": 3227,
      "context": 3228,
      "ched": 3229,
      "ches": 3230,
      "Ġothers": 3231,
      "ĠBut": 3232,
      "Ġraw": 3233,
      "oken": 3234,
      "_priority": 3235,
      "_rep": 3236,
      "ĠExample": 3237,
      "dataframe": 3238,
      "Reg": 3239,
      "ceptions": 3240,
      "Ġcompute": 3241,
      "routes": 3242,
      "Ġexcluded": 3243,
      "Ġsorted": 3244,
      "dog": 3245,
      "_command": 3246,
      "raph": 3247,
      "ĠIterable": 3248,
      "Ġidx": 3249,
      "_classes": 3250,
      "ĠFixtureDef": 3251,
      "ĠListLike": 3252,
      ".setdefault": 3253,
      "_redirects": 3254,
      "Ġtemplate": 3255,
      "Ġoccurrence": 3256,
      "parts": 3257,
      "lobal": 3258,
      ".asarray": 3259,
      "anspose": 3260,
      "Ġenumerate": 3261,
      "ĠNumPy": 3262,
      "solute": 3263,
      "'``": 3264,
      "(e": 3265,
      "({": 3266,
      "(loc": 3267,
      ".abc": 3268,
      "=include": 3269,
      "Dtype": 3270,
      "IE": 3271,
      "[False": 3272,
      "[object": 3273,
      "_A": 3274,
      "_E": 3275,
      "_ser": 3276,
      "`,Ċ": 3277,
      "large": 3278,
      "mod": 3279,
      "nderer": 3280,
      "Ġ--": 3281,
      "onent": 3282,
      "Ġaffect": 3283,
      "static": 3284,
      "Ġfmt": 3285,
      "Ġinside": 3286,
      "Ġrename": 3287,
      "Ġdb": 3288,
      "ollector": 3289,
      "Ġpk": 3290,
      "otal": 3291,
      "Ġmuch": 3292,
      "Ġ##": 3293,
      "Ġdefer": 3294,
      "ĠDictionary": 3295,
      "resh": 3296,
      "gether": 3297,
      "Ġ('": 3298,
      "assignment": 3299,
      "ĠColumn": 3300,
      "Ġhig": 3301,
      "Ġindexes": 3302,
      "keys": 3303,
      "Ġmakes": 3304,
      "ĠWSGI": 3305,
      "Ġenvironment": 3306,
      ".ndim": 3307,
      "locks": 3308,
      "attrs": 3309,
      "Ġhead": 3310,
      "idered": 3311,
      "_status": 3312,
      "Example": 3313,
      "Ġcases": 3314,
      "Ġlog": 3315,
      ".openapi": 3316,
      "Ġconsidered": 3317,
      "ArrayLike": 3318,
      "formed": 3319,
      "Ġexpression": 3320,
      ".head": 3321,
      "Ġvariables": 3322,
      "paredRequest": 3323,
      "Info": 3324,
      "_checks": 3325,
      "Ġtakes": 3326,
      "Ġexecut": 3327,
      "[BaseRoute": 3328,
      "_sliced": 3329,
      "ĠWebSocket": 3330,
      "((": 3331,
      "(y": 3332,
      "(url": 3333,
      "-type": 3334,
      ".idx": 3335,
      "/docs": 3336,
      "03": 3337,
      "=o": 3338,
      "Function": 3339,
      "LO": 3340,
      "Pandas": 3341,
      "Scope": 3342,
      "UT": 3343,
      "])ĊĊ": 3344,
      "_.": 3345,
      "_html": 3346,
      "_auth": 3347,
      "_after": 3348,
      "cs": 3349,
      "dis": 3350,
      "fail": 3351,
      "ivel": 3352,
      "klass": 3353,
      "lag": 3354,
      "ning": 3355,
      "rit": 3356,
      "requen": 3357,
      "repr": 3358,
      "err": 3359,
      "ersion": 3360,
      "Ġinv": 3361,
      "Ġinfo": 3362,
      "Ġinspect": 3363,
      "Ġreq": 3364,
      "ances": 3365,
      "Ġndim": 3366,
      "Ġsize": 3367,
      "Ġprint": 3368,
      "Ġwon": 3369,
      "Ġdevi": 3370,
      "Ġdependency": 3371,
      "asic": 3372,
      "ascending": 3373,
      "Ġman": 3374,
      "Ġmight": 3375,
      "Ġmask": 3376,
      "ĠĠĠĠĠĠĠĠĠĠĠĠĠĠĠĠĠĠ": 3377,
      "\"\"\"": 3378,
      "strip": 3379,
      "abstract": 3380,
      "ices": 3381,
      "ically": 3382,
      "_mat": 3383,
      "_mark": 3384,
      "Ġsepar": 3385,
      "ĠCannot": 3386,
      "Ġleast": 3387,
      "Ġexpected": 3388,
      "ĠPandas": 3389,
      "Ġstrict": 3390,
      "_dotenv": 3391,
      "Ġarbit": 3392,
      "ĠMode": 3393,
      "Ġstarlette": 3394,
      "ĠBlock": 3395,
      "Ġgenerating": 3396,
      "Ġenabled": 3397,
      "Ġsetattr": 3398,
      "_table": 3399,
      "Ġweb": 3400,
      "ubset": 3401,
      "corr": 3402,
      "uplicated": 3403,
      "Ġcalls": 3404,
      "cessor": 3405,
      "msg": 3406,
      "Ġ+=": 3407,
      "ends": 3408,
      "doption": 3409,
      ".include": 3410,
      "[Leaf": 3411,
      "Ġquantile": 3412,
      "Ġlocal": 3413,
      "Keep": 3414,
      "ĠAPIRouter": 3415,
      "=dependencies": 3416,
      "ĠIDs": 3417,
      ".Collector": 3418,
      "Ġevent": 3419,
      "herit": 3420,
      "Ġunderlying": 3421,
      "Ġcounts": 3422,
      "upported": 3423,
      "ively": 3424,
      "Ġarbitrary": 3425,
      "'}Ċ": 3426,
      "(generate": 3427,
      "(make": 3428,
      "(JSONResponse": 3429,
      ")}": 3430,
      ".par": 3431,
      "/b": 3432,
      "/openapi": 3433,
      "16": 3434,
      "=max": 3435,
      "IL": 3436,
      "Pro": 3437,
      "URE": 3438,
      "[True": 3439,
      "_j": 3440,
      "_ad": 3441,
      "_update": 3442,
      "_series": 3443,
      "best": 3444,
      "ki": 3445,
      "pk": 3446,
      "sl": 3447,
      "tion": 3448,
      "stit": 3449,
      "stable": 3450,
      "start": 3451,
      "Ġfast": 3452,
      "Ġfreq": 3453,
      "Ġ\"'": 3454,
      "Ġreset": 3455,
      "Ġbound": 3456,
      "Ġopen": 3457,
      "road": 3458,
      "ummary": 3459,
      "ceive": 3460,
      "rimary": 3461,
      "ools": 3462,
      "pyarrow": 3463,
      "_fraction": 3464,
      "getitem": 3465,
      "Ġguide": 3466,
      "Ġmetadata": 3467,
      "Ġstream": 3468,
      "(),": 3469,
      "().__": 3470,
      "Ġcols": 3471,
      "Ġpresent": 3472,
      ".scope": 3473,
      "ĠException": 3474,
      "collect": 3475,
      "_copy": 3476,
      "ignat": 3477,
      "_content": 3478,
      "ĠStream": 3479,
      "Ġdirectory": 3480,
      "_COMMA": 3481,
      ".warn": 3482,
      "maining": 3483,
      "Ġconverting": 3484,
      "ebsocket": 3485,
      "grees": 3486,
      "Ġrelative": 3487,
      "RAIL": 3488,
      "_vars": 3489,
      "pearman": 3490,
      "ĠFilePath": 3491,
      "Ġspecifying": 3492,
      "=mode": 3493,
      "ĠWriteBuffer": 3494,
      "Ġpossible": 3495,
      "ĠOtherwise": 3496,
      "_overrides": 3497,
      "_ui": 3498,
      "_EX": 3499,
      "roadcast": 3500,
      "RAILING": 3501,
      "(res": 3502,
      "(item": 3503,
      "(**": 3504,
      "(Pandas": 3505,
      "*.": 3506,
      ".\")Ċ": 3507,
      ".iter": 3508,
      ".\"\"\"ĊĊ": 3509,
      "45": 3510,
      "=c": 3511,
      "=openapi": 3512,
      "AT": 3513,
      "Feature": 3514,
      "Raise": 3515,
      "UN": 3516,
      "_te": 3517,
      "_time": 3518,
      "_MA": 3519,
      "_prefix": 3520,
      "_host": 3521,
      "ever": 3522,
      "iase": 3523,
      "ries": 3524,
      "rtype": 3525,
      "write": 3526,
      "zen": 3527,
      "replace": 3528,
      "section": 3529,
      "hed": 3530,
      "Ġimpurity": 3531,
      "Ġ\"__": 3532,
      "Ġnow": 3533,
      "Ġsince": 3534,
      "rozen": 3535,
      "Ġput": 3536,
      "Ġpivot": 3537,
      "ĠNumber": 3538,
      "uth": 3539,
      "Ġmammal": 3540,
      "ram": 3541,
      "example": 3542,
      "ĠDo": 3543,
      "Ġresp": 3544,
      "icode": 3545,
      "Ġ[]ĊĊ": 3546,
      "ĠCan": 3547,
      "Ġcookies": 3548,
      "Ġlong": 3549,
      "Ġevalu": 3550,
      "_sync": 3551,
      "Ġ'{": 3552,
      "Ġnamed": 3553,
      "ĠMapping": 3554,
      "_invisible": 3555,
      "vider": 3556,
      "__.": 3557,
      "trol": 3558,
      "served": 3559,
      "ĠWith": 3560,
      ":`.": 3561,
      "Ġproxies": 3562,
      "_wings": 3563,
      "Ġnodeid": 3564,
      "ropna": 3565,
      "_decrease": 3566,
      "Ġchanged": 3567,
      "Ġchecking": 3568,
      "aving": 3569,
      "Ġcalling": 3570,
      "Ġcommon": 3571,
      "Ġclients": 3572,
      "ookie": 3573,
      "RED": 3574,
      "Ġxp": 3575,
      ".options": 3576,
      "actory": 3577,
      ".std": 3578,
      ".status": 3579,
      "=deprecated": 3580,
      "Ġregression": 3581,
      ".empty": 3582,
      "_clos": 3583,
      "numeric": 3584,
      "Ġweights": 3585,
      "_provider": 3586,
      "quires": 3587,
      "Ġconvert": 3588,
      ".body": 3589,
      "Ġassign": 3590,
      "ograph": 3591,
      "Ġrelated": 3592,
      "Ġdecimal": 3593,
      "ĠMarkdown": 3594,
      "_async": 3595,
      "Ġrepresentation": 3596,
      "Ġentries": 3597,
      "Ġtrees": 3598,
      "variance": 3599,
      "utableMappingT": 3600,
      "Ġknow": 3601,
      "Ġaffects": 3602,
      "ography": 3603,
      "(t": 3604,
      "(columns": 3605,
      "-on": 3606,
      ".B": 3607,
      ".python": 3608,
      "/custom": 3609,
      "/user": 3610,
      "36": 3611,
      "70": 3612,
      "=line": 3613,
      "=generate": 3614,
      "=tags": 3615,
      "=route": 3616,
      "=status": 3617,
      "Format": 3618,
      "IC": 3619,
      "Ks": 3620,
      "LT": 3621,
      "PTIONS": 3622,
      "Session": 3623,
      "Successful": 3624,
      "[Fixture": 3625,
      "_iter": 3626,
      "_ON": 3627,
      "_STRING": 3628,
      "ares": 3629,
      "biase": 3630,
      "falcon": 3631,
      "gith": 3632,
      "luepr": 3633,
      "oper": 3634,
      "ru": 3635,
      "sive": 3636,
      "til": 3637,
      "ued": 3638,
      "wh": 3639,
      "Ġus": 3640,
      "Ġ},Ċ": 3641,
      "lev": 3642,
      "Ġinst": 3643,
      "Ġinfer": 3644,
      "Ġinherit": 3645,
      "Ġopts": 3646,
      "Ġsafe": 3647,
      "ispytest": 3648,
      "lifespan": 3649,
      "ĠTree": 3650,
      "ĠTime": 3651,
      "aps": 3652,
      "Ġthings": 3653,
      "Ġorient": 3654,
      "_mask": 3655,
      "versed": 3656,
      "Ġseen": 3657,
      "Ġsense": 3658,
      "rid": 3659,
      "ĠCh": 3660,
      "Ġlin": 3661,
      "Ġconfiguration": 3662,
      "Ġconstruct": 3663,
      "plot": 3664,
      "Ġgo": 3665,
      "_scalar": 3666,
      "igger": 3667,
      "_df": 3668,
      "_dir": 3669,
      "ential": 3670,
      "cond": 3671,
      "Ġstore": 3672,
      "kwarg": 3673,
      "Ġresults": 3674,
      "Ġattributes": 3675,
      ".combine": 3676,
      "apped": 3677,
      "())Ċ": 3678,
      "()`)": 3679,
      "_legs": 3680,
      "Ġproduct": 3681,
      "_numpy": 3682,
      "_numeric": 3683,
      "ĠUnion": 3684,
      "Ġprepare": 3685,
      "Ġ</": 3686,
      ".rename": 3687,
      "Ġheight": 3688,
      "_debug": 3689,
      "(['": 3690,
      "Ġuntil": 3691,
      "redirect": 3692,
      "=responses": 3693,
      "Ġsupp": 3694,
      "ferences": 3695,
      "Exit": 3696,
      "umption": 3697,
      "Ġmodels": 3698,
      "endall": 3699,
      "Ġparentheses": 3700,
      "Ġsubclass": 3701,
      ".concrete": 3702,
      "ached": 3703,
      ".pivot": 3704,
      "=new": 3705,
      "initial": 3706,
      "Ġparts": 3707,
      "corators": 3708,
      ".TRAILING": 3709,
      ".pydata": 3710,
      "Ġtrailing": 3711,
      "_guide": 3712,
      "Ġautouse": 3713,
      "ĠArray": 3714,
      "ĠUnused": 3715,
      "Ġstacklevel": 3716,
      "Ġpairs": 3717,
      "Ġmodify": 3718,
      "Ġparticularly": 3719,
      "Ġimpro": 3720,
      "Ġdeveloper": 3721,
      "Ġprobably": 3722,
      "Ġwhole": 3723,
      "ĠPeriodIndex": 3724,
      "biased": 3725,
      "github": 3726,
      "\"}": 3727,
      "\").": 3728,
      "(by": 3729,
      "(argname": 3730,
      "-callbacks": 3731,
      ".L": 3732,
      ".router": 3733,
      ".AS": 3734,
      "23": 3735,
      "26": 3736,
      "65": 3737,
      "89": 3738,
      "={": 3739,
      "=columns": 3740,
      "CH": 3741,
      "DKs": 3742,
      "HS": 3743,
      "Int": 3744,
      "Implement": 3745,
      "RCE": 3746,
      "[arg": 3747,
      "[key": 3748,
      "[col": 3749,
      "_hooks": 3750,
      "_attrs": 3751,
      "bose": 3752,
      "cert": 3753,
      "eography": 3754,
      "gh": 3755,
      "ob": 3756,
      "sues": 3757,
      "sparse": 3758,
      "Ġke": 3759,
      "Ġaction": 3760,
      "head": 3761,
      "aly": 3762,
      "Ġfilter": 3763,
      "Ġinteger": 3764,
      "Ġbinary": 3765,
      "Ġdiv": 3766,
      "ctest": 3767,
      "Ġsp": 3768,
      "Ġport": 3769,
      "Ġpackage": 3770,
      "Ġpoint": 3771,
      "Ġwell": 3772,
      "ason": 3773,
      "async": 3774,
      "ĠSOU": 3775,
      "ĠSDKs": 3776,
      "kew": 3777,
      "cookies": 3778,
      "ĠIgnore": 3779,
      "ĠFunction": 3780,
      "ĠFILE": 3781,
      "Ġnote": 3782,
      "pending": 3783,
      "_map": 3784,
      "_multi": 3785,
      "_manager": 3786,
      "idden": 3787,
      "ĠCallbacks": 3788,
      "Ġcontrol": 3789,
      "Ġestim": 3790,
      "_fill": 3791,
      "Ġraised": 3792,
      "Ġprodu": 3793,
      "Ġpredict": 3794,
      "ough": 3795,
      "cessing": 3796,
      "ĠExclude": 3797,
      "Ġdoctest": 3798,
      "Ġ------Ċ": 3799,
      "_cookies": 3800,
      ".remote": 3801,
      "([[": 3802,
      "Ġspecial": 3803,
      "mins": 3804,
      "]]]": 3805,
      "ĠNotImplement": 3806,
      "Ġvalidation": 3807,
      "override": 3808,
      "Ġcodes": 3809,
      "ardown": 3810,
      ".addoption": 3811,
      "_collect": 3812,
      ".write": 3813,
      "=summary": 3814,
      "rapper": 3815,
      "=description": 3816,
      "Ġids": 3817,
      "median": 3818,
      "Ġregist": 3819,
      "(indexer": 3820,
      "Ġinterpolation": 3821,
      "ORS": 3822,
      "Ġplugin": 3823,
      "_counts": 3824,
      "ĠCustomize": 3825,
      "Ġdecorators": 3826,
      "Ġzip": 3827,
      "dence": 3828,
      "_labels": 3829,
      "Internal": 3830,
      "Ġswap": 3831,
      "termine": 3832,
      "================================================================================Ċ": 3833,
      "================================================================================ĊĊ": 3834,
      "Ġfollowing": 3835,
      "ĠCompute": 3836,
      "mbed": 3837,
      "Ġchoose": 3838,
      "Classifier": 3839,
      "ĠRaises": 3840,
      "largest": 3841,
      "=operation": 3842,
      "ĠSOURCE": 3843,
      "ĠNotImplemented": 3844,
      "'],Ċ": 3845,
      "(*": 3846,
      "(min": 3847,
      "(list": 3848,
      "(config": 3849,
      "(arrays": 3850,
      ")}Ċ": 3851,
      "-m": 3852,
      "-from": 3853,
      ".un": 3854,
      ".ta": 3855,
      "59": 3856,
      "=copy": 3857,
      "=callbacks": 3858,
      "BC": 3859,
      "EY": 3860,
      "IS": 3861,
      "KEY": 3862,
      "Name": 3863,
      "OK": 3864,
      "VER": 3865,
      "]).": 3866,
      "_X": 3867,
      "_one": 3868,
      "_api": 3869,
      "_NA": 3870,
      "_kwarg": 3871,
      "_KEY": 3872,
      "bar": 3873,
      "ci": 3874,
      "mul": 3875,
      "no": 3876,
      "spath": 3877,
      "sub": 3878,
      "sklearn": 3879,
      "should": 3880,
      "tight": 3881,
      "uvalu": 3882,
      "ybe": 3883,
      "Ġhttp": 3884,
      "Ġerr": 3885,
      "Ġtext": 3886,
      "ero": 3887,
      "Ġaround": 3888,
      "orn": 3889,
      "arr": 3890,
      "Ġrequires": 3891,
      "Ġbel": 3892,
      "ene": 3893,
      "eno": 3894,
      "Ġoper": 3895,
      "Ġsave": 3896,
      "ism": 3897,
      "race": 3898,
      "ĠSub": 3899,
      "ĠDon": 3900,
      "count": 3901,
      "atever": 3902,
      "Ġselection": 3903,
      "idation": 3904,
      "andled": 3905,
      "Ġconcat": 3906,
      "_fit": 3907,
      "Ġ``.": 3908,
      "ĠPro": 3909,
      "Ġwithin": 3910,
      "Ġuses": 3911,
      "tered": 3912,
      "maybe": 3913,
      "ĠMal": 3914,
      "Ġ]ĊĊ": 3915,
      "ĠBe": 3916,
      "ĠSelf": 3917,
      "Ġproxy": 3918,
      "_nan": 3919,
      "_next": 3920,
      "_return": 3921,
      "Ġprepared": 3922,
      "Ġwhatever": 3923,
      "Ġchunk": 3924,
      "_config": 3925,
      "ĠInvalid": 3926,
      "_together": 3927,
      ".isna": 3928,
      "bytes": 3929,
      "ookup": 3930,
      "Ġloaded": 3931,
      "KeyFunc": 3932,
      "rune": 3933,
      "Ġexplicit": 3934,
      "two": 3935,
      ".ensure": 3936,
      "Ġserialize": 3937,
      "(cols": 3938,
      "Ġalignment": 3939,
      "Ġbrackets": 3940,
      "azy": 3941,
      "Ġcombin": 3942,
      "Ġimplementation": 3943,
      "_trailing": 3944,
      "CKING": 3945,
      "Comp": 3946,
      "_intercept": 3947,
      "ĠServer": 3948,
      "_DEF": 3949,
      ".compat": 3950,
      "ĠQuery": 3951,
      "ĠDatetimeIndex": 3952,
      "cisionTree": 3953,
      "Ġcharacters": 3954,
      "requency": 3955,
      "ignature": 3956,
      "uediv": 3957,
      "Ġimprove": 3958,
      "ĠNotImplementedError": 3959,
      "_NAME": 3960,
      "(pre": 3961,
      "(session": 3962,
      "):": 3963,
      ")``": 3964,
      ",)Ċ": 3965,
      "-str": 3966,
      "-valid": 3967,
      "-params": 3968,
      ".func": 3969,
      ".Path": 3970,
      ".format": 3971,
      "/w": 3972,
      "/query": 3973,
      "22": 3974,
      "39": 3975,
      "60": 3976,
      "=request": 3977,
      "AU": 3978,
      "BLE": 3979,
      "Code": 3980,
      "DP": 3981,
      "GN": 3982,
      "IP": 3983,
      "Kind": 3984,
      "NN": 3985,
      "Pl": 3986,
      "SER": 3987,
      "[i": 3988,
      "[index": 3989,
      "[Feature": 3990,
      "[override": 3991,
      "]],": 3992,
      "_,": 3993,
      "_row": 3994,
      "cing": 3995,
      "gative": 3996,
      "hr": 3997,
      "ier": 3998,
      "mas": 3999,
      "nder": 4000,
      "pand": 4001,
      "ten": 4002,
      "ties": 4003,
      "var": 4004,
      "wagger": 4005,
      "hell": 4006,
      "alog": 4007,
      "Ġinvalid": 4008,
      "Ġ\"%": 4009,
      "Ġrep": 4010,
      "Ġretain": 4011,
      "ank": 4012,
      "Ġblock": 4013,
      "Ġbaz": 4014,
      "itCode": 4015,
      "edia": 4016,
      "Ġslice": 4017,
      "Ġwerkzeug": 4018,
      "...": 4019,
      "Ġdense": 4020,
      "Ġtoo": 4021,
      "Ġmy": 4022,
      "clared": 4023,
      "Ġanimal": 4024,
      "core": 4025,
      "thing": 4026,
      "ĠField": 4027,
      "Ġordered": 4028,
      "icks": 4029,
      "Ġ(`": 4030,
      "_msg": 4031,
      "perties": 4032,
      "ured": 4033,
      "Ġlev": 4034,
      "Ġcook": 4035,
      "Ġcovariance": 4036,
      "Ġlater": 4037,
      "Ġlazy": 4038,
      "Ġexam": 4039,
      "Ġexamples": 4040,
      "Ġexpr": 4041,
      "ĠPY": 4042,
      "plugin": 4043,
      "_sh": 4044,
      "_cor": 4045,
      "arest": 4046,
      "Ġonce": 4047,
      "Ġmed": 4048,
      "omie": 4049,
      "Ġstill": 4050,
      "Ġstyle": 4051,
      "serve": 4052,
      "Ġsets": 4053,
      ".node": 4054,
      "Ġ)ĊĊĊ": 4055,
      "ĠUsing": 4056,
      "ĠNaNs": 4057,
      "Ġfixturefunc": 4058,
      "tains": 4059,
      "ĠExitCode": 4060,
      "ĠConstruct": 4061,
      ".reset": 4062,
      "Ġcontra": 4063,
      "Ġunused": 4064,
      "Ġtrans": 4065,
      "Ġspecies": 4066,
      "Ġlinear": 4067,
      "Ġklass": 4068,
      "Ġkurt": 4069,
      "Ġsplitter": 4070,
      ".current": 4071,
      ".inter": 4072,
      "ĠYum": 4073,
      "ĠStatus": 4074,
      "straint": 4075,
      "ĠDependencies": 4076,
      "Ġroperator": 4077,
      "active": 4078,
      "mpler": 4079,
      "Ġweighted": 4080,
      "ĠFixtureFunction": 4081,
      "Ġcert": 4082,
      "ĠValidations": 4083,
      "Ġdecision": 4084,
      "Ġdecimals": 4085,
      "population": 4086,
      "ĠSortKind": 4087,
      "-parameters": 4088,
      "Ġactual": 4089,
      "Ġcomputed": 4090,
      "Ġcombined": 4091,
      "~~~~": 4092,
      "Ġresolve": 4093,
      "SIZ": 4094,
      "SIGN": 4095
    },
    "merges": [
      [
        "Ġ",
        "Ġ"
      ],
      [
        "ĠĠ",
        "ĠĠ"
      ],
      [
        "ĠĠ",
        "Ġ"
      ],
      [
        "ĠĠĠĠ",
        "ĠĠĠ"
      ],
      [
        "ĠĠĠĠ",
        "ĠĠĠĠĠĠĠ"
      ],
      [
        "o",
        "n"
      ],
      [
        "i",
        "n"
      ],
      [
        "r",
        "e"
      ],
      [
        "s",
        "e"
      ],
      [
        "a",
        "t"
      ],
      [
        "d",
        "e"
      ],
      [
        "Ġ",
        "t"
      ],
      [
        "e",
        "r"
      ],
      [
        "Ġ",
        "a"
      ],
      [
        "o",
        "r"
      ],
      [
        "-",
        "-"
      ],
      [
        "h",
        "e"
      ],
      [
        "s",
        "t"
      ],
      [
        "a",
        "l"
      ],
      [
        "ĠĠĠĠ",
        "ĠĠĠĠĠĠĠĠĠĠĠ"
      ],
      [
        ",",
        "Ċ"
      ],
      [
        "Ġ",
        "i"
      ],
      [
        "Ċ",
        "Ċ"
      ],
      [
        "m",
        "e"
      ],
      [
        "l",
        "e"
      ],
      [
        "Ġ",
        "f"
      ],
      [
        "Ġ",
        "c"
      ],
      [
        "Ġ",
        "="
      ],
      [
        "Ġt",
        "he"
      ],
      [
        "i",
        "on"
      ],
      [
        "e",
        "s"
      ],
      [
        "a",
        "r"
      ],
      [
        "Ġ",
        "in"
      ],
      [
        "Ġ",
        "\""
      ],
      [
        "Ġ",
        "re"
      ],
      [
        "a",
        "n"
      ],
      [
        "Ġ",
        "b"
      ],
      [
        "e",
        "n"
      ],
      [
        "Ġ",
        "o"
      ],
      [
        "Ġ",
        "n"
      ],
      [
        "a",
        "me"
      ],
      [
        "--",
        "--"
      ],
      [
        "Ġ",
        "d"
      ],
      [
        "o",
        "l"
      ],
      [
        ":",
        "Ċ"
      ],
      [
        "i",
        "t"
      ],
      [
        "l",
        "f"
      ],
      [
        "se",
        "lf"
      ],
      [
        "=",
        "="
      ],
      [
        "c",
        "t"
      ],
      [
        "e",
        "d"
      ],
      [
        "Ġ",
        "s"
      ],
      [
        "r",
        "o"
      ],
      [
        "in",
        "g"
      ],
      [
        "Ġ",
        "p"
      ],
      [
        ")",
        "Ċ"
      ],
      [
        "u",
        "e"
      ],
      [
        "e",
        "l"
      ],
      [
        "u",
        "r"
      ],
      [
        "i",
        "s"
      ],
      [
        "Ġ",
        "w"
      ],
      [
        "Ġ",
        "N"
      ],
      [
        "u",
        "l"
      ],
      [
        "on",
        "e"
      ],
      [
        ".",
        "."
      ],
      [
        "o",
        "t"
      ],
      [
        "Ġ",
        "de"
      ],
      [
        "p",
        "e"
      ],
      [
        "a",
        "s"
      ],
      [
        "u",
        "t"
      ],
      [
        "Ġt",
        "o"
      ],
      [
        "Ġ",
        "m"
      ],
      [
        ".",
        "ĊĊ"
      ],
      [
        "o",
        "de"
      ],
      [
        "m",
        "p"
      ],
      [
        "u",
        "n"
      ],
      [
        "Ġi",
        "s"
      ],
      [
        "v",
        "al"
      ],
      [
        ".",
        "Ċ"
      ],
      [
        "at",
        "a"
      ],
      [
        "de",
        "x"
      ],
      [
        "Ġ",
        "self"
      ],
      [
        ">",
        ">"
      ],
      [
        "ĠĠĠĠ",
        "ĠĠĠĠ"
      ],
      [
        "Ġ",
        "`"
      ],
      [
        "\"",
        "\""
      ],
      [
        "Ġi",
        "f"
      ],
      [
        "ul",
        "t"
      ],
      [
        "u",
        "m"
      ],
      [
        "c",
        "l"
      ],
      [
        "Ġa",
        "n"
      ],
      [
        "r",
        "a"
      ],
      [
        "c",
        "e"
      ],
      [
        "p",
        "on"
      ],
      [
        "Ġ",
        "S"
      ],
      [
        "ĠN",
        "one"
      ],
      [
        "Ġ",
        "#"
      ],
      [
        "e",
        "x"
      ],
      [
        "ur",
        "n"
      ],
      [
        "t",
        "urn"
      ],
      [
        "Ġf",
        "or"
      ],
      [
        "pon",
        "se"
      ],
      [
        "Ġ",
        "A"
      ],
      [
        "l",
        "i"
      ],
      [
        "(",
        "Ċ"
      ],
      [
        "o",
        "c"
      ],
      [
        "Ġde",
        "f"
      ],
      [
        "i",
        "l"
      ],
      [
        "Ġ",
        "T"
      ],
      [
        "Ġ",
        "D"
      ],
      [
        "at",
        "ion"
      ],
      [
        "Ġ\"",
        "\"\""
      ],
      [
        "f",
        "i"
      ],
      [
        "y",
        "pe"
      ],
      [
        "i",
        "es"
      ],
      [
        "k",
        "e"
      ],
      [
        "re",
        "s"
      ],
      [
        "Ġ",
        ":"
      ],
      [
        "Ġo",
        "f"
      ],
      [
        "==",
        "=="
      ],
      [
        "c",
        "o"
      ],
      [
        "p",
        "t"
      ],
      [
        "n",
        "t"
      ],
      [
        "Ġb",
        "e"
      ],
      [
        "t",
        "h"
      ],
      [
        "Ġ\"\"\"",
        "Ċ"
      ],
      [
        "Ġre",
        "s"
      ],
      [
        "st",
        "r"
      ],
      [
        "Ġ",
        ".."
      ],
      [
        ")",
        "ĊĊ"
      ],
      [
        "a",
        "b"
      ],
      [
        "Ġre",
        "turn"
      ],
      [
        "Ġan",
        "d"
      ],
      [
        "a",
        "d"
      ],
      [
        "a",
        "p"
      ],
      [
        "Ġ",
        "I"
      ],
      [
        "Ġ",
        "F"
      ],
      [
        "Ġt",
        "h"
      ],
      [
        "ĠĠĠĠ",
        "ĠĠĠĠĠĠĠĠĠĠĠĠĠĠĠ"
      ],
      [
        "or",
        "t"
      ],
      [
        "Ġ",
        "R"
      ],
      [
        "r",
        "ame"
      ],
      [
        "g",
        "e"
      ],
      [
        "Ġ",
        "or"
      ],
      [
        "at",
        "e"
      ],
      [
        "Ġ",
        "val"
      ],
      [
        "ode",
        "l"
      ],
      [
        "el",
        "d"
      ],
      [
        "----",
        "----"
      ],
      [
        "Ġn",
        "ot"
      ],
      [
        ".",
        "_"
      ],
      [
        "i",
        "c"
      ],
      [
        "Ġ",
        "*"
      ],
      [
        "at",
        "h"
      ],
      [
        "a",
        "ult"
      ],
      [
        "u",
        "p"
      ],
      [
        "l",
        "y"
      ],
      [
        "Ġ",
        "("
      ],
      [
        "ol",
        "um"
      ],
      [
        "olum",
        "n"
      ],
      [
        "t",
        "er"
      ],
      [
        "p",
        "en"
      ],
      [
        "a",
        "st"
      ],
      [
        "pt",
        "ion"
      ],
      [
        "Ġf",
        "i"
      ],
      [
        "ro",
        "m"
      ],
      [
        "q",
        "ue"
      ],
      [
        "Ġ",
        "-"
      ],
      [
        "er",
        "ies"
      ],
      [
        ")",
        ":Ċ"
      ],
      [
        "F",
        "rame"
      ],
      [
        "l",
        "o"
      ],
      [
        "_",
        "m"
      ],
      [
        "t",
        "ype"
      ],
      [
        "v",
        "er"
      ],
      [
        "at",
        "ed"
      ],
      [
        "o",
        "d"
      ],
      [
        "x",
        "is"
      ],
      [
        "Ġ",
        "["
      ],
      [
        "cl",
        "u"
      ],
      [
        "\"",
        ","
      ],
      [
        ">>",
        ">"
      ],
      [
        "h",
        "t"
      ],
      [
        "ata",
        "Frame"
      ],
      [
        "n",
        "ame"
      ],
      [
        "Ġ..",
        "."
      ],
      [
        "Ġ",
        ">>>"
      ],
      [
        "as",
        "s"
      ],
      [
        "it",
        "h"
      ],
      [
        "ct",
        "ion"
      ],
      [
        "p",
        "er"
      ],
      [
        "clu",
        "de"
      ],
      [
        "u",
        "re"
      ],
      [
        "Ġ",
        "se"
      ],
      [
        "il",
        "l"
      ],
      [
        "r",
        "i"
      ],
      [
        "r",
        "or"
      ],
      [
        "i",
        "d"
      ],
      [
        "Ġ",
        "C"
      ],
      [
        "in",
        "dex"
      ],
      [
        "Ġ",
        "le"
      ],
      [
        "ĠR",
        "e"
      ],
      [
        "o",
        "ol"
      ],
      [
        "u",
        "se"
      ],
      [
        "u",
        "es"
      ],
      [
        "c",
        "k"
      ],
      [
        "an",
        "d"
      ],
      [
        "ĠS",
        "eries"
      ],
      [
        "Ġ",
        "h"
      ],
      [
        "P",
        "I"
      ],
      [
        "Ġ",
        "O"
      ],
      [
        "Ġ",
        "|"
      ],
      [
        "`",
        "`"
      ],
      [
        "Ġi",
        "t"
      ],
      [
        "o",
        "re"
      ],
      [
        "ar",
        "g"
      ],
      [
        "ĠD",
        "ataFrame"
      ],
      [
        "Ġc",
        "o"
      ],
      [
        "p",
        "y"
      ],
      [
        "Ġa",
        "s"
      ],
      [
        "ab",
        "le"
      ],
      [
        "Ġ",
        "l"
      ],
      [
        "Ġc",
        "on"
      ],
      [
        "Ġb",
        "ool"
      ],
      [
        "Ġ",
        "e"
      ],
      [
        "Ġres",
        "ponse"
      ],
      [
        "Ġ",
        "ex"
      ],
      [
        "Ġin",
        "dex"
      ],
      [
        "Ġ",
        ")"
      ],
      [
        "olumn",
        "s"
      ],
      [
        "A",
        "PI"
      ],
      [
        "====",
        "===="
      ],
      [
        "al",
        "se"
      ],
      [
        "mp",
        "le"
      ],
      [
        "_",
        "f"
      ],
      [
        "Ġ`",
        "`"
      ],
      [
        "r",
        "ue"
      ],
      [
        "c",
        "h"
      ],
      [
        "Ġ",
        "P"
      ],
      [
        "me",
        "nt"
      ],
      [
        "(",
        "self"
      ],
      [
        "Ġdef",
        "ault"
      ],
      [
        "t",
        "a"
      ],
      [
        "mp",
        "ort"
      ],
      [
        "Ġw",
        "ith"
      ],
      [
        "que",
        "st"
      ],
      [
        "res",
        "ponse"
      ],
      [
        "ge",
        "t"
      ],
      [
        "x",
        "t"
      ],
      [
        "ke",
        "y"
      ],
      [
        "p",
        "l"
      ],
      [
        "Ġ-",
        ">"
      ],
      [
        "b",
        "j"
      ],
      [
        "_m",
        "odel"
      ],
      [
        "Ġ",
        "_"
      ],
      [
        "Ġ",
        "g"
      ],
      [
        "in",
        "e"
      ],
      [
        "p",
        "ath"
      ],
      [
        "al",
        "l"
      ],
      [
        "Ġ",
        "use"
      ],
      [
        "_",
        "s"
      ],
      [
        "ra",
        "y"
      ],
      [
        "Ġ",
        "'"
      ],
      [
        "Ġw",
        "ill"
      ],
      [
        "s",
        "ion"
      ],
      [
        "_",
        "c"
      ],
      [
        "i",
        "g"
      ],
      [
        "de",
        "r"
      ],
      [
        "ĠA",
        "n"
      ],
      [
        "v",
        "el"
      ],
      [
        "v",
        "e"
      ],
      [
        "e",
        "ct"
      ],
      [
        "a",
        "re"
      ],
      [
        ".",
        "co"
      ],
      [
        "p",
        "ar"
      ],
      [
        "a",
        "mple"
      ],
      [
        "t",
        "e"
      ],
      [
        "Ġa",
        "l"
      ],
      [
        "Ġ",
        "str"
      ],
      [
        "Ġn",
        "ame"
      ],
      [
        "_",
        "d"
      ],
      [
        "en",
        "t"
      ],
      [
        "o",
        "ut"
      ],
      [
        "u",
        "s"
      ],
      [
        "en",
        "er"
      ],
      [
        "]",
        ",Ċ"
      ],
      [
        "per",
        "ation"
      ],
      [
        "Ġi",
        "mport"
      ],
      [
        "Ġ",
        "on"
      ],
      [
        "Ġa",
        "xis"
      ],
      [
        "Ġ",
        "el"
      ],
      [
        "un",
        "ction"
      ],
      [
        "ap",
        "i"
      ],
      [
        "q",
        "u"
      ],
      [
        "m",
        "a"
      ],
      [
        "Ġa",
        "r"
      ],
      [
        "Ġf",
        "rom"
      ],
      [
        "Ġd",
        "ata"
      ],
      [
        "i",
        "se"
      ],
      [
        "Ġval",
        "ues"
      ],
      [
        "de",
        "f"
      ],
      [
        "arg",
        "s"
      ],
      [
        "cl",
        "ass"
      ],
      [
        "oc",
        "s"
      ],
      [
        "Ġd",
        "f"
      ],
      [
        "h",
        "o"
      ],
      [
        "se",
        "t"
      ],
      [
        "n",
        "ot"
      ],
      [
        "Ġ",
        "li"
      ],
      [
        "Ġ",
        "me"
      ],
      [
        "Ġ",
        "M"
      ],
      [
        "bj",
        "ect"
      ],
      [
        "a",
        "se"
      ],
      [
        "i",
        "ct"
      ],
      [
        "t",
        "i"
      ],
      [
        "ĠT",
        "he"
      ],
      [
        "Ġ",
        "{"
      ],
      [
        "i",
        "f"
      ],
      [
        "Ġth",
        "at"
      ],
      [
        "an",
        "ce"
      ],
      [
        "xt",
        "ure"
      ],
      [
        "_",
        "in"
      ],
      [
        "_",
        "ex"
      ],
      [
        "th",
        "er"
      ],
      [
        "Ġfi",
        "eld"
      ],
      [
        "p",
        "s"
      ],
      [
        "Ġ",
        "--------"
      ],
      [
        "Ġth",
        "is"
      ],
      [
        "th",
        "od"
      ],
      [
        "E",
        "r"
      ],
      [
        "ption",
        "al"
      ],
      [
        "Er",
        "ror"
      ],
      [
        "c",
        "on"
      ],
      [
        "p",
        "p"
      ],
      [
        "it",
        "e"
      ],
      [
        "e",
        "w"
      ],
      [
        "a",
        "m"
      ],
      [
        "e",
        "at"
      ],
      [
        "Ġd",
        "type"
      ],
      [
        "ĠF",
        "alse"
      ],
      [
        "v",
        "i"
      ],
      [
        "o",
        "m"
      ],
      [
        "Ġ...",
        ",Ċ"
      ],
      [
        "Ġ",
        "y"
      ],
      [
        "an",
        "g"
      ],
      [
        "ht",
        "t"
      ],
      [
        "Ġb",
        "y"
      ],
      [
        "Ġ",
        ")Ċ"
      ],
      [
        "fi",
        "eld"
      ],
      [
        "]",
        ","
      ],
      [
        "Ġval",
        "ue"
      ],
      [
        "Ġin",
        "t"
      ],
      [
        "_",
        "_"
      ],
      [
        "Ġa",
        "re"
      ],
      [
        "Ġ",
        "st"
      ],
      [
        "a",
        "ck"
      ],
      [
        "er",
        "ror"
      ],
      [
        "f",
        "rom"
      ],
      [
        "Ġ",
        "E"
      ],
      [
        "c",
        "he"
      ],
      [
        "ast",
        "API"
      ],
      [
        "n",
        "c"
      ],
      [
        "de",
        "d"
      ],
      [
        "_",
        "val"
      ],
      [
        "ĠRe",
        "turn"
      ],
      [
        "(",
        "\""
      ],
      [
        "\"",
        "Ċ"
      ],
      [
        "/",
        "/"
      ],
      [
        "\"",
        ",Ċ"
      ],
      [
        "ĠT",
        "rue"
      ],
      [
        ":",
        "//"
      ],
      [
        "t",
        "r"
      ],
      [
        "Ġm",
        "ore"
      ],
      [
        "ĠI",
        "f"
      ],
      [
        "st",
        "ance"
      ],
      [
        "Ġo",
        "bject"
      ],
      [
        "\"",
        ":"
      ],
      [
        "k",
        "w"
      ],
      [
        "Ġ",
        "]"
      ],
      [
        "Ġres",
        "ult"
      ],
      [
        "Ġ",
        "at"
      ],
      [
        "Ġ)",
        ",Ċ"
      ],
      [
        "Ġp",
        "ar"
      ],
      [
        "Ġel",
        "se"
      ],
      [
        "Ġc",
        "olumns"
      ],
      [
        ")",
        ".Ċ"
      ],
      [
        "=",
        "\""
      ],
      [
        "Ġo",
        "peration"
      ],
      [
        "ul",
        "d"
      ],
      [
        "[",
        "Ċ"
      ],
      [
        "ĠD",
        "oc"
      ],
      [
        "htt",
        "ps"
      ],
      [
        "ro",
        "w"
      ],
      [
        "se",
        "r"
      ],
      [
        "i",
        "z"
      ],
      [
        "Ġo",
        "ther"
      ],
      [
        "u",
        "res"
      ],
      [
        "Ġ",
        "B"
      ],
      [
        "ame",
        "ter"
      ],
      [
        "fi",
        "g"
      ],
      [
        "or",
        "m"
      ],
      [
        "not",
        "ated"
      ],
      [
        "ĠAn",
        "notated"
      ],
      [
        "ample",
        "s"
      ],
      [
        "n",
        "dex"
      ],
      [
        "Ġ",
        "ra"
      ],
      [
        "un",
        "c"
      ],
      [
        ".co",
        "m"
      ],
      [
        "kw",
        "args"
      ],
      [
        "ast",
        "api"
      ],
      [
        "a",
        "f"
      ],
      [
        "N",
        "one"
      ],
      [
        "p",
        "re"
      ],
      [
        "Ġ",
        "r"
      ],
      [
        "_ex",
        "clude"
      ],
      [
        "Ġg",
        "ener"
      ],
      [
        "Ġa",
        "b"
      ],
      [
        "Ġ",
        "key"
      ],
      [
        "ĠĠĠĠ",
        "Ġ"
      ],
      [
        "u",
        "st"
      ],
      [
        "Ġli",
        "st"
      ],
      [
        "Ġm",
        "a"
      ],
      [
        "in",
        "t"
      ],
      [
        "Ġa",
        "pp"
      ],
      [
        "ab",
        "el"
      ],
      [
        "i",
        "m"
      ],
      [
        "ĠĠĠĠĠĠĠĠ",
        "ĠĠĠĠĠĠĠĠĠĠĠĠĠĠĠ"
      ],
      [
        "_",
        "name"
      ],
      [
        "li",
        "c"
      ],
      [
        "o",
        "k"
      ],
      [
        "a",
        "g"
      ],
      [
        "a",
        "ce"
      ],
      [
        "Ġra",
        "ise"
      ],
      [
        "]",
        "Ċ"
      ],
      [
        "ap",
        "p"
      ],
      [
        "Ġc",
        "l"
      ],
      [
        "ĠS",
        "e"
      ],
      [
        "========",
        "========"
      ],
      [
        "ar",
        "ray"
      ],
      [
        "Ġ",
        "W"
      ],
      [
        "i",
        "p"
      ],
      [
        "Ġf",
        "unction"
      ],
      [
        "h",
        "is"
      ],
      [
        "Ġ",
        "L"
      ],
      [
        "Ġle",
        "vel"
      ],
      [
        "Ġ",
        "en"
      ],
      [
        "i",
        "b"
      ],
      [
        "Ġre",
        "quest"
      ],
      [
        "d",
        "ing"
      ],
      [
        "un",
        "i"
      ],
      [
        "es",
        "ponse"
      ],
      [
        "Ġse",
        "t"
      ],
      [
        "Ġ",
        "@"
      ],
      [
        "(",
        ")"
      ],
      [
        "Ġc",
        "an"
      ],
      [
        "Ġuse",
        "d"
      ],
      [
        "h",
        "a"
      ],
      [
        "i",
        "al"
      ],
      [
        "ĠRe",
        "ad"
      ],
      [
        "Ġp",
        "d"
      ],
      [
        "ĠT",
        "his"
      ],
      [
        "Ġab",
        "out"
      ],
      [
        ":",
        "`"
      ],
      [
        "[",
        "\""
      ],
      [
        "F",
        "astAPI"
      ],
      [
        "_",
        "b"
      ],
      [
        "uni",
        "que"
      ],
      [
        "_",
        "t"
      ],
      [
        "n",
        "a"
      ],
      [
        "ĠO",
        "ptional"
      ],
      [
        "'",
        ","
      ],
      [
        "in",
        "stance"
      ],
      [
        "_",
        "p"
      ],
      [
        "f",
        "astapi"
      ],
      [
        ".",
        "ti"
      ],
      [
        "_",
        "o"
      ],
      [
        "_",
        "le"
      ],
      [
        "]",
        "("
      ],
      [
        "Ġ",
        "v"
      ],
      [
        "Ġd",
        "ocs"
      ],
      [
        "_",
        "index"
      ],
      [
        "i",
        "re"
      ],
      [
        "Ġp",
        "ro"
      ],
      [
        "_",
        "n"
      ],
      [
        "ol",
        "o"
      ],
      [
        "Ġ*",
        "*"
      ],
      [
        "ang",
        "olo"
      ],
      [
        ".",
        "n"
      ],
      [
        "(",
        ")Ċ"
      ],
      [
        "0",
        "0"
      ],
      [
        "Ġ",
        ")ĊĊ"
      ],
      [
        ".ti",
        "angolo"
      ],
      [
        "i",
        "st"
      ],
      [
        "t",
        "y"
      ],
      [
        "he",
        "n"
      ],
      [
        "Ġw",
        "e"
      ],
      [
        "ite",
        "m"
      ],
      [
        ".",
        "d"
      ],
      [
        "Ġis",
        "instance"
      ],
      [
        "Ġ",
        "error"
      ],
      [
        "pl",
        "it"
      ],
      [
        "te",
        "st"
      ],
      [
        "se",
        "d"
      ],
      [
        "Ġ",
        "U"
      ],
      [
        "ex",
        "t"
      ],
      [
        "_",
        "field"
      ],
      [
        "Ġme",
        "thod"
      ],
      [
        "\"",
        ")Ċ"
      ],
      [
        "ar",
        "y"
      ],
      [
        "o",
        "w"
      ],
      [
        "and",
        "as"
      ],
      [
        "Ġ--------",
        "Ċ"
      ],
      [
        "_",
        "re"
      ],
      [
        "ĠN",
        "a"
      ],
      [
        "Ġar",
        "g"
      ],
      [
        "eat",
        "ures"
      ],
      [
        "Ġ=",
        "="
      ],
      [
        "ut",
        "e"
      ],
      [
        "T",
        "rue"
      ],
      [
        "u",
        "ment"
      ],
      [
        "Ġn",
        "ew"
      ],
      [
        "ur",
        "l"
      ],
      [
        "V",
        "al"
      ],
      [
        "Ġc",
        "ol"
      ],
      [
        "Ġp",
        "re"
      ],
      [
        "c",
        "olumns"
      ],
      [
        "e",
        "f"
      ],
      [
        "o",
        "u"
      ],
      [
        "_",
        "w"
      ],
      [
        "lo",
        "w"
      ],
      [
        "=",
        "None"
      ],
      [
        ".",
        "s"
      ],
      [
        "ĠO",
        "pen"
      ],
      [
        "Ġt",
        "ype"
      ],
      [
        "lo",
        "at"
      ],
      [
        "n",
        "ore"
      ],
      [
        "Ġs",
        "ho"
      ],
      [
        "pl",
        "ace"
      ],
      [
        "[",
        "str"
      ],
      [
        "Ġn",
        "um"
      ],
      [
        "ĠOpen",
        "API"
      ],
      [
        "pen",
        "d"
      ],
      [
        "a",
        "xis"
      ],
      [
        "F",
        "alse"
      ],
      [
        "ver",
        "sion"
      ],
      [
        "Ġn",
        "ode"
      ],
      [
        "Ġp",
        "ath"
      ],
      [
        "a",
        "ve"
      ],
      [
        "an",
        "t"
      ],
      [
        "ig",
        "ht"
      ],
      [
        "at",
        "or"
      ],
      [
        "def",
        "ault"
      ],
      [
        "_val",
        "ue"
      ],
      [
        "ib",
        "le"
      ],
      [
        "it",
        "er"
      ],
      [
        "in",
        "al"
      ],
      [
        "are",
        "nt"
      ],
      [
        "c",
        "es"
      ],
      [
        "he",
        "ck"
      ],
      [
        "ĠNa",
        "N"
      ],
      [
        "all",
        "able"
      ],
      [
        "Ġ",
        "<"
      ],
      [
        "ot",
        "h"
      ],
      [
        "Ġfi",
        "xture"
      ],
      [
        "ta",
        "in"
      ],
      [
        "Ġ",
        "get"
      ],
      [
        "Ġle",
        "n"
      ],
      [
        ".",
        "g"
      ],
      [
        "6",
        "4"
      ],
      [
        "ĠE",
        "x"
      ],
      [
        "s",
        "o"
      ],
      [
        "u",
        "b"
      ],
      [
        "Ġw",
        "h"
      ],
      [
        "ĠC",
        "on"
      ],
      [
        "par",
        "am"
      ],
      [
        "Ġc",
        "olumn"
      ],
      [
        "Ġd",
        "o"
      ],
      [
        "--------",
        "--------"
      ],
      [
        "_",
        "class"
      ],
      [
        "Ġa",
        "d"
      ],
      [
        "i",
        "v"
      ],
      [
        "pe",
        "c"
      ],
      [
        "pen",
        "de"
      ],
      [
        "O",
        "N"
      ],
      [
        "Ġ",
        "----"
      ],
      [
        "ke",
        "t"
      ],
      [
        "Ġal",
        "l"
      ],
      [
        "Ġn",
        "p"
      ],
      [
        "re",
        "nt"
      ],
      [
        "\"",
        "]"
      ],
      [
        "d",
        "ata"
      ],
      [
        "ire",
        "ct"
      ],
      [
        "p",
        "ut"
      ],
      [
        "c",
        "ol"
      ],
      [
        "_",
        "id"
      ],
      [
        "Ġ",
        "Val"
      ],
      [
        "pende",
        "nc"
      ],
      [
        "_",
        "co"
      ],
      [
        "u",
        "g"
      ],
      [
        "c",
        "or"
      ],
      [
        "o",
        "s"
      ],
      [
        "-",
        "Ċ"
      ],
      [
        "it",
        "ion"
      ],
      [
        "Ġ",
        "(Ċ"
      ],
      [
        "Ġh",
        "ave"
      ],
      [
        "fig",
        "ur"
      ],
      [
        "Ġ",
        "H"
      ],
      [
        "Ġl",
        "abel"
      ],
      [
        "ĠP",
        "ar"
      ],
      [
        "figur",
        "ation"
      ],
      [
        "S",
        "eries"
      ],
      [
        "l",
        "oc"
      ],
      [
        "/",
        "t"
      ],
      [
        "f",
        "orm"
      ],
      [
        "iz",
        "e"
      ],
      [
        "co",
        "pe"
      ],
      [
        "up",
        "le"
      ],
      [
        "Ġfield",
        "s"
      ],
      [
        "ameter",
        "s"
      ],
      [
        "g",
        "ht"
      ],
      [
        "g",
        "nore"
      ],
      [
        ")",
        ","
      ],
      [
        "Ġ",
        "version"
      ],
      [
        "at",
        "us"
      ],
      [
        "il",
        "d"
      ],
      [
        "ro",
        "p"
      ],
      [
        "=",
        "False"
      ],
      [
        "Ġar",
        "ray"
      ],
      [
        "ĠSe",
        "e"
      ],
      [
        "_",
        "on"
      ],
      [
        "at",
        "tr"
      ],
      [
        "ĠI",
        "t"
      ],
      [
        "ĠĠĠĠ",
        "ĠĠ"
      ],
      [
        "Ġw",
        "hen"
      ],
      [
        "us",
        "ing"
      ],
      [
        ".",
        "re"
      ],
      [
        "ut",
        "or"
      ],
      [
        "li",
        "ke"
      ],
      [
        "c",
        "ri"
      ],
      [
        "Ġ",
        "he"
      ],
      [
        "/t",
        "utor"
      ],
      [
        "/tutor",
        "ial"
      ],
      [
        "_",
        "de"
      ],
      [
        "a",
        "ge"
      ],
      [
        "Ġ",
        "row"
      ],
      [
        "ri",
        "ght"
      ],
      [
        "Ġgener",
        "ated"
      ],
      [
        "R",
        "e"
      ],
      [
        "._",
        "_"
      ],
      [
        "I",
        "ndex"
      ],
      [
        "at",
        "ch"
      ],
      [
        "--",
        "Ċ"
      ],
      [
        "_field",
        "s"
      ],
      [
        "r",
        "st"
      ],
      [
        "Ġh",
        "as"
      ],
      [
        "(",
        "["
      ],
      [
        ".",
        "index"
      ],
      [
        "k",
        "ip"
      ],
      [
        "Ġcon",
        "t"
      ],
      [
        "Ġon",
        "ly"
      ],
      [
        "ar",
        "n"
      ],
      [
        "=",
        "True"
      ],
      [
        "ce",
        "pt"
      ],
      [
        "2",
        "0"
      ],
      [
        "D",
        "ataFrame"
      ],
      [
        "it",
        "y"
      ],
      [
        ":",
        ":"
      ],
      [
        "s",
        "ing"
      ],
      [
        "Ġd",
        "ict"
      ],
      [
        "lo",
        "ad"
      ],
      [
        "i",
        "fi"
      ],
      [
        "Ġi",
        "gnore"
      ],
      [
        "ĠR",
        "esponse"
      ],
      [
        "f",
        "unc"
      ],
      [
        "Ġ",
        "X"
      ],
      [
        "al",
        "ly"
      ],
      [
        "/",
        "#"
      ],
      [
        "e",
        "p"
      ],
      [
        "se",
        "s"
      ],
      [
        "as",
        "sed"
      ],
      [
        "_",
        "default"
      ],
      [
        "g",
        "r"
      ],
      [
        ")",
        ",Ċ"
      ],
      [
        "Ġf",
        "loat"
      ],
      [
        "ha",
        "pe"
      ],
      [
        "w",
        "or"
      ],
      [
        "Ġc",
        "h"
      ],
      [
        "pendenc",
        "ies"
      ],
      [
        "b",
        "er"
      ],
      [
        "Ġ",
        "un"
      ],
      [
        "ce",
        "ption"
      ],
      [
        "eat",
        "ure"
      ],
      [
        "ĠReturn",
        "s"
      ],
      [
        "d",
        "ocs"
      ],
      [
        "er",
        "ic"
      ],
      [
        "is",
        "ible"
      ],
      [
        "ĠAn",
        "y"
      ],
      [
        "Ġ",
        "G"
      ],
      [
        "Ġt",
        "r"
      ],
      [
        "Ġc",
        "heck"
      ],
      [
        "Ġp",
        "assed"
      ],
      [
        "un",
        "d"
      ],
      [
        ".",
        "get"
      ],
      [
        "Ġo",
        "ver"
      ],
      [
        "l",
        "ine"
      ],
      [
        "ĠĠĠĠĠĠĠĠ",
        "Ġ"
      ],
      [
        "b",
        "ack"
      ],
      [
        "i",
        "ve"
      ],
      [
        "re",
        "d"
      ],
      [
        "u",
        "ct"
      ],
      [
        "Ġco",
        "mp"
      ],
      [
        "Ġsho",
        "uld"
      ],
      [
        ")",
        ".ĊĊ"
      ],
      [
        "Ġp",
        "andas"
      ],
      [
        "ult",
        "i"
      ],
      [
        "ĠA",
        "l"
      ],
      [
        "p",
        "o"
      ],
      [
        "Ġco",
        "py"
      ],
      [
        "(",
        "n"
      ],
      [
        "=",
        "response"
      ],
      [
        "a",
        "v"
      ],
      [
        "Ġ",
        "one"
      ],
      [
        "Ġs",
        "pec"
      ],
      [
        "ĠĠĠĠĠĠĠĠ",
        "ĠĠ"
      ],
      [
        "Ġs",
        "up"
      ],
      [
        "Ġm",
        "in"
      ],
      [
        "f",
        "t"
      ],
      [
        "m",
        "odel"
      ],
      [
        "ro",
        "ut"
      ],
      [
        "ic",
        "h"
      ],
      [
        "ust",
        "om"
      ],
      [
        "t",
        "ri"
      ],
      [
        "ĠI",
        "ndex"
      ],
      [
        "'",
        "t"
      ],
      [
        "m",
        "in"
      ],
      [
        "s",
        "cri"
      ],
      [
        "Ġn",
        "e"
      ],
      [
        "ĠT",
        "ype"
      ],
      [
        "od",
        "y"
      ],
      [
        "up",
        "lic"
      ],
      [
        "Ġcl",
        "ass"
      ],
      [
        "re",
        "e"
      ],
      [
        "Ġin",
        "clude"
      ],
      [
        "Ġse",
        "r"
      ],
      [
        "Ġy",
        "ou"
      ],
      [
        "oth",
        "er"
      ],
      [
        "wor",
        "d"
      ],
      [
        "me",
        "thod"
      ],
      [
        "_on",
        "ly"
      ],
      [
        "i",
        "r"
      ],
      [
        "Ġc",
        "all"
      ],
      [
        "f",
        "e"
      ],
      [
        "p",
        "es"
      ],
      [
        "ro",
        "up"
      ],
      [
        "Ġ`",
        "/"
      ],
      [
        "ĠA",
        "xis"
      ],
      [
        "Ġf",
        "ill"
      ],
      [
        ")",
        ")Ċ"
      ],
      [
        "c",
        "ket"
      ],
      [
        "as",
        "k"
      ],
      [
        "Ġl",
        "ine"
      ],
      [
        "ma",
        "x"
      ],
      [
        "Ġma",
        "x"
      ],
      [
        "ĠPar",
        "ameters"
      ],
      [
        "e",
        "st"
      ],
      [
        "Ġcon",
        "tain"
      ],
      [
        "str",
        "ing"
      ],
      [
        "ĠP",
        "y"
      ],
      [
        "ser",
        "t"
      ],
      [
        "Ġwh",
        "ich"
      ],
      [
        "scri",
        "ption"
      ],
      [
        "a",
        "der"
      ],
      [
        "Ġfi",
        "le"
      ],
      [
        "Ġ",
        "using"
      ],
      [
        "or",
        "y"
      ],
      [
        "me",
        "ta"
      ],
      [
        "ra",
        "cket"
      ],
      [
        "ĠVal",
        "ue"
      ],
      [
        "u",
        "le"
      ],
      [
        "_f",
        "eatures"
      ],
      [
        ".",
        "t"
      ],
      [
        "le",
        "vel"
      ],
      [
        "Ġ*",
        ",Ċ"
      ],
      [
        "ener",
        "ate"
      ],
      [
        "kip",
        "na"
      ],
      [
        ":",
        "ĊĊ"
      ],
      [
        "f",
        "f"
      ],
      [
        "i",
        "de"
      ],
      [
        "i",
        "eld"
      ],
      [
        "an",
        "s"
      ],
      [
        "Ġan",
        "y"
      ],
      [
        "che",
        "ma"
      ],
      [
        "pre",
        "c"
      ],
      [
        "le",
        "ction"
      ],
      [
        "val",
        "ue"
      ],
      [
        "s",
        "s"
      ],
      [
        "ig",
        "n"
      ],
      [
        "m",
        "o"
      ],
      [
        "--",
        "-Ċ"
      ],
      [
        "fi",
        "xture"
      ],
      [
        ".",
        "DataFrame"
      ],
      [
        "_",
        "st"
      ],
      [
        "er",
        "s"
      ],
      [
        "Ġa",
        "ut"
      ],
      [
        "le",
        "d"
      ],
      [
        "fi",
        "x"
      ],
      [
        "c",
        "ed"
      ],
      [
        "Ġ----",
        "---Ċ"
      ],
      [
        "le",
        "ct"
      ],
      [
        "ur",
        "rent"
      ],
      [
        "Ġel",
        "if"
      ],
      [
        "Ġ--------",
        "--Ċ"
      ],
      [
        "ces",
        "s"
      ],
      [
        "E",
        "x"
      ],
      [
        "qu",
        "en"
      ],
      [
        "a",
        "ch"
      ],
      [
        "u",
        "mp"
      ],
      [
        "up",
        "d"
      ],
      [
        "'",
        "s"
      ],
      [
        ")",
        "."
      ],
      [
        "}",
        "Ċ"
      ],
      [
        "Ġal",
        "low"
      ],
      [
        "ĠAl",
        "so"
      ],
      [
        "]",
        "]"
      ],
      [
        "p",
        "ort"
      ],
      [
        "Ġ",
        "j"
      ],
      [
        "th",
        "on"
      ],
      [
        "================",
        "================"
      ],
      [
        "Ġarg",
        "ument"
      ],
      [
        "f",
        "o"
      ],
      [
        "val",
        "ues"
      ],
      [
        "pen",
        "api"
      ],
      [
        ".",
        "Series"
      ],
      [
        "Ġs",
        "o"
      ],
      [
        "Ġm",
        "odel"
      ],
      [
        "ation",
        "s"
      ],
      [
        "_",
        "un"
      ],
      [
        "`",
        ","
      ],
      [
        "if",
        "y"
      ],
      [
        "ĠEx",
        "amples"
      ],
      [
        "re",
        "n"
      ],
      [
        "Ġs",
        "ame"
      ],
      [
        "ĠN",
        "ot"
      ],
      [
        "_c",
        "on"
      ],
      [
        "Ġv",
        "isible"
      ],
      [
        "d",
        "array"
      ],
      [
        "-",
        "like"
      ],
      [
        "Ġerror",
        "s"
      ],
      [
        "Ġlabel",
        "s"
      ],
      [
        "Ġval",
        "id"
      ],
      [
        "p",
        "r"
      ],
      [
        "Ġco",
        "m"
      ],
      [
        "_s",
        "amples"
      ],
      [
        "le",
        "ment"
      ],
      [
        "ĠI",
        "n"
      ],
      [
        "m",
        "s"
      ],
      [
        "Ġe",
        "ach"
      ],
      [
        ".",
        "columns"
      ],
      [
        "at",
        "es"
      ],
      [
        "str",
        "uct"
      ],
      [
        "av",
        "es"
      ],
      [
        "=",
        "self"
      ],
      [
        "_",
        "unique"
      ],
      [
        "ĠCon",
        "figuration"
      ],
      [
        "ĠValue",
        "Error"
      ],
      [
        "*",
        ".ĊĊ"
      ],
      [
        "c",
        "al"
      ],
      [
        "back",
        "s"
      ],
      [
        "ar",
        "k"
      ],
      [
        "Ġ\"",
        "Ċ"
      ],
      [
        "1",
        "0"
      ],
      [
        "=",
        "[\""
      ],
      [
        "Ġ",
        "+"
      ],
      [
        "Ġin",
        "place"
      ],
      [
        "py",
        "test"
      ],
      [
        "Ġ_",
        "_"
      ],
      [
        "__",
        "("
      ],
      [
        "Ġt",
        "uple"
      ],
      [
        "R",
        "esponse"
      ],
      [
        "t",
        "ing"
      ],
      [
        "item",
        "s"
      ],
      [
        "(",
        "s"
      ],
      [
        ".",
        "name"
      ],
      [
        "Ġad",
        "ded"
      ],
      [
        "i",
        "me"
      ],
      [
        "Ġ",
        "k"
      ],
      [
        "at",
        "ic"
      ],
      [
        "an",
        "ced"
      ],
      [
        "Ġe",
        "lement"
      ],
      [
        "Ġex",
        "clude"
      ],
      [
        "Ġb",
        "ut"
      ],
      [
        "ef",
        "ault"
      ],
      [
        "n",
        "s"
      ],
      [
        "Ġs",
        "ort"
      ],
      [
        "Ġm",
        "ode"
      ],
      [
        "in",
        "d"
      ],
      [
        "Ġc",
        "li"
      ],
      [
        "res",
        "ult"
      ],
      [
        "_t",
        "o"
      ],
      [
        "i",
        "od"
      ],
      [
        "r",
        "ite"
      ],
      [
        "E",
        "R"
      ],
      [
        "e",
        "ight"
      ],
      [
        "en",
        "d"
      ],
      [
        "li",
        "st"
      ],
      [
        "ap",
        "pend"
      ],
      [
        "g",
        "s"
      ],
      [
        "o",
        "ver"
      ],
      [
        "v",
        "anced"
      ],
      [
        "od",
        "ule"
      ],
      [
        "Ġn",
        "o"
      ],
      [
        "ption",
        "s"
      ],
      [
        "d",
        "o"
      ],
      [
        "Ġ",
        "right"
      ],
      [
        "Ġp",
        "arent"
      ],
      [
        "un",
        "t"
      ],
      [
        "ant",
        "ic"
      ],
      [
        "-",
        "o"
      ],
      [
        "Ġm",
        "ust"
      ],
      [
        "Ġname",
        "s"
      ],
      [
        "quen",
        "ce"
      ],
      [
        "_un",
        "set"
      ],
      [
        "ĠF",
        "or"
      ],
      [
        "as",
        "h"
      ],
      [
        "_val",
        "ues"
      ],
      [
        "J",
        "S"
      ],
      [
        "a",
        "il"
      ],
      [
        "g",
        "th"
      ],
      [
        "Ġs",
        "kipna"
      ],
      [
        "ty",
        "pes"
      ],
      [
        "JS",
        "ON"
      ],
      [
        "ĠF",
        "i"
      ],
      [
        "prec",
        "ated"
      ],
      [
        "d",
        "antic"
      ],
      [
        "Ġ",
        "):Ċ"
      ],
      [
        "Ġb",
        "ase"
      ],
      [
        "Ġor",
        "der"
      ],
      [
        "are",
        "d"
      ],
      [
        "t",
        "ra"
      ],
      [
        "Ġc",
        "or"
      ],
      [
        "Ġc",
        "ase"
      ],
      [
        "Ġex",
        "cept"
      ],
      [
        "]",
        ":Ċ"
      ],
      [
        "g",
        "enerate"
      ],
      [
        "}",
        ","
      ],
      [
        "Ġs",
        "plit"
      ],
      [
        "_w",
        "eight"
      ],
      [
        "Ġnum",
        "eric"
      ],
      [
        "upd",
        "ate"
      ],
      [
        "I",
        "N"
      ],
      [
        "g",
        "er"
      ],
      [
        "y",
        "nc"
      ],
      [
        "an",
        "ge"
      ],
      [
        "ter",
        "n"
      ],
      [
        "par",
        "se"
      ],
      [
        "Ġstr",
        "ing"
      ],
      [
        "Re",
        "quest"
      ],
      [
        "ump",
        "y"
      ],
      [
        ".",
        "c"
      ],
      [
        "]",
        ")Ċ"
      ],
      [
        "p",
        "ro"
      ],
      [
        "Ġ",
        "url"
      ],
      [
        "Ġnum",
        "ber"
      ],
      [
        "Ġs",
        "ub"
      ],
      [
        "ĠA",
        "d"
      ],
      [
        "(",
        ")ĊĊ"
      ],
      [
        "is",
        "sing"
      ],
      [
        "o",
        "und"
      ],
      [
        "w",
        "ise"
      ],
      [
        "ke",
        "ep"
      ],
      [
        "_f",
        "unction"
      ],
      [
        "ĠM",
        "odel"
      ],
      [
        ".",
        "m"
      ],
      [
        "t",
        "ed"
      ],
      [
        "Ġc",
        "urrent"
      ],
      [
        "arn",
        "ing"
      ],
      [
        "R",
        "L"
      ],
      [
        "Ġc",
        "ode"
      ],
      [
        "Ġo",
        "ptional"
      ],
      [
        "ĠF",
        "eature"
      ],
      [
        "tri",
        "b"
      ],
      [
        ".",
        "in"
      ],
      [
        "o",
        "o"
      ],
      [
        "Ġt",
        "w"
      ],
      [
        "ad",
        "vanced"
      ],
      [
        "ti",
        "me"
      ],
      [
        "Ġtr",
        "y"
      ],
      [
        "(",
        "f"
      ],
      [
        ".",
        "is"
      ],
      [
        ".",
        "con"
      ],
      [
        "_",
        "al"
      ],
      [
        "a",
        "che"
      ],
      [
        "ar",
        "i"
      ],
      [
        "Ġp",
        "er"
      ],
      [
        "_default",
        "s"
      ],
      [
        "\"",
        ")ĊĊ"
      ],
      [
        "i",
        "mport"
      ],
      [
        "ĊĊ",
        "Ċ"
      ],
      [
        "A",
        "r"
      ],
      [
        "and",
        "l"
      ],
      [
        "Ġcl",
        "s"
      ],
      [
        "rout",
        "er"
      ],
      [
        "ĠPy",
        "dantic"
      ],
      [
        "D",
        "e"
      ],
      [
        "[",
        "L"
      ],
      [
        "_",
        "type"
      ],
      [
        "a",
        "y"
      ],
      [
        "in",
        "ed"
      ],
      [
        "ĠF",
        "astAPI"
      ],
      [
        "if",
        "fe"
      ],
      [
        "(",
        "d"
      ],
      [
        "/",
        "response"
      ],
      [
        "_",
        "path"
      ],
      [
        "Ġ",
        "qu"
      ],
      [
        "b",
        "y"
      ],
      [
        "Ġ",
        "Y"
      ],
      [
        "or",
        "der"
      ],
      [
        "Ġf",
        "unc"
      ],
      [
        "Ġle",
        "ft"
      ],
      [
        "ader",
        "s"
      ],
      [
        "over",
        "load"
      ],
      [
        "(",
        "data"
      ],
      [
        "ĠS",
        "t"
      ],
      [
        "Ġ..",
        ".ĊĊ"
      ],
      [
        "ent",
        "s"
      ],
      [
        "Ġkey",
        "word"
      ],
      [
        "im",
        "al"
      ],
      [
        "_le",
        "af"
      ],
      [
        ".",
        "append"
      ],
      [
        "4",
        "0"
      ],
      [
        "A",
        "n"
      ],
      [
        "o",
        "ur"
      ],
      [
        "Ġd",
        "oc"
      ],
      [
        ".",
        "p"
      ],
      [
        "/",
        ").Ċ"
      ],
      [
        "`",
        ".Ċ"
      ],
      [
        "o",
        "p"
      ],
      [
        "o",
        "ok"
      ],
      [
        "re",
        "quest"
      ],
      [
        "Ġreturn",
        "ed"
      ],
      [
        "Ġy",
        "ield"
      ],
      [
        "ulti",
        "Index"
      ],
      [
        "#",
        "#"
      ],
      [
        "a",
        "ut"
      ],
      [
        "d",
        "ict"
      ],
      [
        "e",
        "t"
      ],
      [
        "st",
        "e"
      ],
      [
        "Ġpar",
        "ameter"
      ],
      [
        "Ġdo",
        "es"
      ],
      [
        "st",
        "ra"
      ],
      [
        "cl",
        "s"
      ],
      [
        "=",
        "n"
      ],
      [
        "o",
        "se"
      ],
      [
        "and",
        "om"
      ],
      [
        "Ġit",
        "e"
      ],
      [
        "_c",
        "ode"
      ],
      [
        "Ġspec",
        "ifi"
      ],
      [
        "1",
        "1"
      ],
      [
        "m",
        "ary"
      ],
      [
        "Ġ",
        "lo"
      ],
      [
        "ĠĠĠĠĠĠĠĠ",
        "ĠĠĠĠĠĠĠĠĠĠĠĠĠĠĠĠĠĠĠ"
      ],
      [
        "Ġpro",
        "vi"
      ],
      [
        "cal",
        "ar"
      ],
      [
        ">",
        "`"
      ],
      [
        "m",
        "on"
      ],
      [
        "s",
        "on"
      ],
      [
        "co",
        "py"
      ],
      [
        "Ġfi",
        "rst"
      ],
      [
        "im",
        "um"
      ],
      [
        "ar",
        "d"
      ],
      [
        "ar",
        "t"
      ],
      [
        "ĠC",
        "allable"
      ],
      [
        "ĠP",
        "ath"
      ],
      [
        "ĠU",
        "RL"
      ],
      [
        "]",
        "ĊĊ"
      ],
      [
        "`",
        ").ĊĊ"
      ],
      [
        "v",
        "ed"
      ],
      [
        "Ġ",
        "unique"
      ],
      [
        "Ġo",
        "ut"
      ],
      [
        "ĠD",
        "e"
      ],
      [
        "Ġle",
        "af"
      ],
      [
        "_in",
        "clude"
      ],
      [
        "-",
        "response"
      ],
      [
        "/",
        "advanced"
      ],
      [
        "Ġrow",
        "s"
      ],
      [
        "d",
        "ition"
      ],
      [
        "l",
        "ask"
      ],
      [
        "t",
        "ext"
      ],
      [
        "val",
        "id"
      ],
      [
        "ĠĠĠĠĠĠĠĠ",
        "ĠĠĠĠ"
      ],
      [
        "Ġl",
        "oc"
      ],
      [
        "_b",
        "y"
      ],
      [
        "Ġst",
        "atus"
      ],
      [
        "Ġgener",
        "ate"
      ],
      [
        "Ġma",
        "y"
      ],
      [
        "_name",
        "s"
      ],
      [
        "K",
        "e"
      ],
      [
        "R",
        "E"
      ],
      [
        "m",
        "l"
      ],
      [
        "o",
        "uld"
      ],
      [
        "x",
        "es"
      ],
      [
        "Ġfor",
        "m"
      ],
      [
        "ĠD",
        "efault"
      ],
      [
        "Ġ[",
        "\""
      ],
      [
        "_b",
        "racket"
      ],
      [
        "-",
        "model"
      ],
      [
        ".",
        "ad"
      ],
      [
        "Ġd",
        "irect"
      ],
      [
        "Ġd",
        "iffe"
      ],
      [
        "ch",
        "ild"
      ],
      [
        "_d",
        "ata"
      ],
      [
        "app",
        "ing"
      ],
      [
        "_",
        "l"
      ],
      [
        "res",
        "sion"
      ],
      [
        "``",
        ","
      ],
      [
        "Ġg",
        "iv"
      ],
      [
        "_c",
        "ol"
      ],
      [
        ".t",
        "o"
      ],
      [
        "=",
        "f"
      ],
      [
        "Ġ",
        "ro"
      ],
      [
        "ĠW",
        "e"
      ],
      [
        "ste",
        "ad"
      ],
      [
        "\"",
        "],Ċ"
      ],
      [
        "R",
        "out"
      ],
      [
        "Ġ",
        "x"
      ],
      [
        "Ġw",
        "ould"
      ],
      [
        "Ġde",
        "precated"
      ],
      [
        "ĠA",
        "PI"
      ],
      [
        "Ġth",
        "an"
      ],
      [
        "_co",
        "m"
      ],
      [
        "(",
        "key"
      ],
      [
        "k",
        "s"
      ],
      [
        "Ġs",
        "y"
      ],
      [
        ".",
        "o"
      ],
      [
        ".",
        "de"
      ],
      [
        "0",
        "1"
      ],
      [
        "a",
        "ct"
      ],
      [
        "n",
        "d"
      ],
      [
        "Ġf",
        "eatures"
      ],
      [
        "Ġthe",
        "n"
      ],
      [
        "Ġd",
        "uplic"
      ],
      [
        "\"\"",
        "\"Ċ"
      ],
      [
        "co",
        "mp"
      ],
      [
        "Ġli",
        "b"
      ],
      [
        "con",
        "struct"
      ],
      [
        "ag",
        "s"
      ],
      [
        "iter",
        "al"
      ],
      [
        "ash",
        "able"
      ],
      [
        "(",
        "le"
      ],
      [
        "1",
        "2"
      ],
      [
        "_",
        "C"
      ],
      [
        "{",
        "\""
      ],
      [
        "Ġp",
        "ass"
      ],
      [
        "Ġw",
        "he"
      ],
      [
        "as",
        "ses"
      ],
      [
        "Ġm",
        "issing"
      ],
      [
        "fi",
        "le"
      ],
      [
        "(",
        "other"
      ],
      [
        ".",
        "w"
      ],
      [
        "=",
        "s"
      ],
      [
        "C",
        "allable"
      ],
      [
        "`",
        ".ĊĊ"
      ],
      [
        "o",
        "in"
      ],
      [
        "Ġc",
        "re"
      ],
      [
        "_d",
        "oc"
      ],
      [
        "vi",
        "ew"
      ],
      [
        "ow",
        "n"
      ],
      [
        "Ġargument",
        "s"
      ],
      [
        "IN",
        "G"
      ],
      [
        "b",
        "ase"
      ],
      [
        "c",
        "en"
      ],
      [
        "c",
        "ode"
      ],
      [
        "m",
        "it"
      ],
      [
        "ad",
        "ded"
      ],
      [
        "Ġco",
        "uld"
      ],
      [
        "py",
        "thon"
      ],
      [
        "param",
        "s"
      ],
      [
        "ĠH",
        "T"
      ],
      [
        "Ġtw",
        "o"
      ],
      [
        "3",
        "0"
      ],
      [
        "b",
        "ug"
      ],
      [
        "Ġ",
        "%"
      ],
      [
        "Ġ",
        ">"
      ],
      [
        "er",
        "y"
      ],
      [
        "Ġa",
        "c"
      ],
      [
        "pe",
        "ct"
      ],
      [
        "_s",
        "chema"
      ],
      [
        "Ġsho",
        "w"
      ],
      [
        "Ġversion",
        "added"
      ],
      [
        "Ġgiv",
        "en"
      ],
      [
        "\"",
        ")"
      ],
      [
        ".",
        "f"
      ],
      [
        "=",
        "axis"
      ],
      [
        "u",
        "f"
      ],
      [
        "Ġin",
        "stead"
      ],
      [
        "Ġb",
        "ody"
      ],
      [
        "Ġm",
        "atch"
      ],
      [
        "co",
        "ding"
      ],
      [
        "``",
        "Ċ"
      ],
      [
        "Ġg",
        "roup"
      ],
      [
        "ĠM",
        "ultiIndex"
      ],
      [
        "Ġrequest",
        "ed"
      ],
      [
        "-o",
        "peration"
      ],
      [
        "trib",
        "ute"
      ],
      [
        "An",
        "y"
      ],
      [
        "d",
        "irect"
      ],
      [
        "le",
        "an"
      ],
      [
        "is",
        "it"
      ],
      [
        "_n",
        "one"
      ],
      [
        "`",
        "Ċ"
      ],
      [
        "d",
        "oc"
      ],
      [
        "Ġa",
        "li"
      ],
      [
        "Ġs",
        "um"
      ],
      [
        "mp",
        "ty"
      ],
      [
        "Ġcon",
        "s"
      ],
      [
        "_s",
        "plit"
      ],
      [
        "\"]",
        ")Ċ"
      ],
      [
        "_",
        "arg"
      ],
      [
        "an",
        "ag"
      ],
      [
        "ing",
        "le"
      ],
      [
        "fi",
        "rst"
      ],
      [
        "ri",
        "de"
      ],
      [
        "xt",
        "ures"
      ],
      [
        "in",
        "it"
      ],
      [
        "re",
        "l"
      ],
      [
        "at",
        "ing"
      ],
      [
        "Ġt",
        "ags"
      ],
      [
        "Ġa",
        "v"
      ],
      [
        "Ġn",
        "darray"
      ],
      [
        "ĠN",
        "A"
      ],
      [
        "_",
        "axis"
      ],
      [
        "d",
        "ic"
      ],
      [
        "Ġt",
        "est"
      ],
      [
        "Ġre",
        "mo"
      ],
      [
        "en",
        "v"
      ],
      [
        "Ġm",
        "at"
      ],
      [
        "ra",
        "p"
      ],
      [
        ".co",
        "re"
      ],
      [
        "_d",
        "ict"
      ],
      [
        "ho",
        "ok"
      ],
      [
        ".n",
        "an"
      ],
      [
        "Ar",
        "ray"
      ],
      [
        "(",
        "):Ċ"
      ],
      [
        ">",
        "Ċ"
      ],
      [
        "[",
        "["
      ],
      [
        "ul",
        "l"
      ],
      [
        "Ġde",
        "pendencies"
      ],
      [
        "ĠI",
        "ter"
      ],
      [
        "os",
        "ition"
      ],
      [
        ".",
        "st"
      ],
      [
        "r",
        "on"
      ],
      [
        "Ġin",
        "stance"
      ],
      [
        "Ġh",
        "ow"
      ],
      [
        "ang",
        "ed"
      ],
      [
        "ĠW",
        "hen"
      ],
      [
        "cen",
        "ding"
      ],
      [
        "=",
        "de"
      ],
      [
        "Ġ",
        "keep"
      ],
      [
        "Ġi",
        "d"
      ],
      [
        "Ġin",
        "put"
      ],
      [
        "ĠĠĠĠĠĠĠĠ",
        "ĠĠĠĠĠ"
      ],
      [
        "Ġpar",
        "am"
      ],
      [
        "----------------",
        "----------------"
      ],
      [
        "Ġsup",
        "er"
      ],
      [
        "Ġsup",
        "port"
      ],
      [
        "n",
        "ion"
      ],
      [
        "r",
        "iter"
      ],
      [
        "le",
        "x"
      ],
      [
        "an",
        "y"
      ],
      [
        "Ġde",
        "scription"
      ],
      [
        "D",
        "E"
      ],
      [
        "_",
        "h"
      ],
      [
        "_",
        "app"
      ],
      [
        "_",
        "line"
      ],
      [
        "Ġp",
        "y"
      ],
      [
        "Ġch",
        "ild"
      ],
      [
        "*",
        "*"
      ],
      [
        "c",
        "re"
      ],
      [
        "f",
        "inal"
      ],
      [
        "Ġ",
        "JSON"
      ],
      [
        "me",
        "d"
      ],
      [
        "Ġn",
        "on"
      ],
      [
        "Ġs",
        "hape"
      ],
      [
        "Ġ#",
        ":"
      ],
      [
        "ate",
        "time"
      ],
      [
        "Ġ[",
        "]Ċ"
      ],
      [
        "om",
        "atic"
      ],
      [
        "Ġoperation",
        "s"
      ],
      [
        "int",
        "s"
      ],
      [
        "_le",
        "aves"
      ],
      [
        "m",
        "gr"
      ],
      [
        "are",
        "ns"
      ],
      [
        "iz",
        "ed"
      ],
      [
        "orm",
        "al"
      ],
      [
        "lic",
        "ation"
      ],
      [
        ".d",
        "type"
      ],
      [
        "Ġcol",
        "lection"
      ],
      [
        "(n",
        "ode"
      ],
      [
        "ĠY",
        "ou"
      ],
      [
        "construct",
        "or"
      ],
      [
        ".",
        "\"Ċ"
      ],
      [
        "Ġ",
        "."
      ],
      [
        "re",
        "f"
      ],
      [
        "mp",
        "l"
      ],
      [
        "ĠĠĠĠĠĠĠĠ",
        "ĠĠĠĠĠĠĠĠ"
      ],
      [
        "ta",
        "gs"
      ],
      [
        "ĠL",
        "iteral"
      ],
      [
        "Ġcall",
        "backs"
      ],
      [
        ".",
        "N"
      ],
      [
        "i",
        "ction"
      ],
      [
        "t",
        "ent"
      ],
      [
        "li",
        "ed"
      ],
      [
        "ig",
        "inal"
      ],
      [
        "che",
        "ck"
      ],
      [
        "ren",
        "ce"
      ],
      [
        "Ke",
        "y"
      ],
      [
        "S",
        "T"
      ],
      [
        "Ġd",
        "rop"
      ],
      [
        "ult",
        "ip"
      ],
      [
        "Ġbe",
        "ha"
      ],
      [
        "Ġaut",
        "omatic"
      ],
      [
        "iod",
        "s"
      ],
      [
        "Ġspecifi",
        "ed"
      ],
      [
        "Ġdiffe",
        "rent"
      ],
      [
        "!",
        "="
      ],
      [
        "D",
        "ict"
      ],
      [
        "_",
        "url"
      ],
      [
        "f",
        "rame"
      ],
      [
        "n",
        "e"
      ],
      [
        "s",
        "ure"
      ],
      [
        "Ġ",
        "!="
      ],
      [
        "Ġre",
        "g"
      ],
      [
        "Ġs",
        "calar"
      ],
      [
        "``",
        ".ĊĊ"
      ],
      [
        "Ġal",
        "so"
      ],
      [
        "anag",
        "er"
      ],
      [
        "_",
        "method"
      ],
      [
        "Ġt",
        "ime"
      ],
      [
        "Ġpar",
        "t"
      ],
      [
        "Ġfixture",
        "def"
      ],
      [
        "Ġarray",
        "s"
      ],
      [
        "(",
        "index"
      ],
      [
        ".",
        "e"
      ],
      [
        "T",
        "ype"
      ],
      [
        "]",
        "],Ċ"
      ],
      [
        "l",
        "ass"
      ],
      [
        "r",
        "un"
      ],
      [
        "Ġin",
        "ter"
      ],
      [
        "Ġs",
        "cope"
      ],
      [
        "Ġ\"\"\"",
        "ĊĊ"
      ],
      [
        "pt",
        "h"
      ],
      [
        "_m",
        "gr"
      ],
      [
        "Ġkey",
        "s"
      ],
      [
        "Ġlen",
        "gth"
      ],
      [
        "cor",
        "ated"
      ],
      [
        "P",
        "A"
      ],
      [
        "_",
        "cl"
      ],
      [
        "c",
        "ustom"
      ],
      [
        "m",
        "ory"
      ],
      [
        "n",
        "er"
      ],
      [
        "at",
        "ive"
      ],
      [
        "Ġthe",
        "y"
      ],
      [
        "_d",
        "type"
      ],
      [
        "Ġ{",
        "Ċ"
      ],
      [
        "cor",
        "ator"
      ],
      [
        "Ġcont",
        "ext"
      ],
      [
        "\"",
        "ĊĊ"
      ],
      [
        "i",
        "as"
      ],
      [
        "n",
        "um"
      ],
      [
        "o",
        "st"
      ],
      [
        "s",
        "sion"
      ],
      [
        "Ġt",
        "y"
      ],
      [
        "per",
        "ty"
      ],
      [
        "Ġse",
        "ssion"
      ],
      [
        "ri",
        "x"
      ],
      [
        "Ġ{",
        "\""
      ],
      [
        "_",
        "set"
      ],
      [
        "d",
        "le"
      ],
      [
        "g",
        "ine"
      ],
      [
        "o",
        "us"
      ],
      [
        "Ġwe",
        "ight"
      ],
      [
        "_al",
        "ias"
      ],
      [
        "Ġbeha",
        "vi"
      ],
      [
        "]",
        "."
      ],
      [
        "i",
        "ke"
      ],
      [
        "Ġw",
        "as"
      ],
      [
        "nt",
        "er"
      ],
      [
        "id",
        "dle"
      ],
      [
        "vi",
        "ron"
      ],
      [
        "_p",
        "ro"
      ],
      [
        "_w",
        "ith"
      ],
      [
        "ĠFi",
        "xture"
      ],
      [
        "(",
        "value"
      ],
      [
        ".",
        "or"
      ],
      [
        ".",
        "ex"
      ],
      [
        ".",
        "type"
      ],
      [
        "=",
        "'"
      ],
      [
        "a",
        "k"
      ],
      [
        "}",
        ")Ċ"
      ],
      [
        "Ġc",
        "al"
      ],
      [
        "ĠN",
        "ame"
      ],
      [
        "ot",
        "e"
      ],
      [
        "per",
        "ator"
      ],
      [
        "Ġresponse",
        "s"
      ],
      [
        ".co",
        "py"
      ],
      [
        "qu",
        "i"
      ],
      [
        "ma",
        "in"
      ],
      [
        "Ġprovi",
        "ded"
      ],
      [
        "Ġdirect",
        "ly"
      ],
      [
        "M",
        "A"
      ],
      [
        "i",
        "le"
      ],
      [
        "il",
        "s"
      ],
      [
        "ĠI",
        "D"
      ],
      [
        "ic",
        "al"
      ],
      [
        "name",
        "s"
      ],
      [
        "Ġcon",
        "ver"
      ],
      [
        "_f",
        "or"
      ],
      [
        "row",
        "s"
      ],
      [
        "ĠB",
        "y"
      ],
      [
        "ans",
        "form"
      ],
      [
        "fixture",
        "def"
      ],
      [
        "tern",
        "al"
      ],
      [
        ".ad",
        "d"
      ],
      [
        "Ġwhe",
        "re"
      ],
      [
        "Ġautomatic",
        "ally"
      ],
      [
        ".",
        "T"
      ],
      [
        ".",
        "b"
      ],
      [
        "L",
        "ike"
      ],
      [
        "T",
        "P"
      ],
      [
        "Ġin",
        "dic"
      ],
      [
        "Ġs",
        "ample"
      ],
      [
        "ro",
        "ute"
      ],
      [
        "Ġv",
        "ari"
      ],
      [
        "_re",
        "quest"
      ],
      [
        "Ġform",
        "at"
      ],
      [
        "L",
        "E"
      ],
      [
        "_",
        "error"
      ],
      [
        "h",
        "s"
      ],
      [
        "m",
        "t"
      ],
      [
        "m",
        "and"
      ],
      [
        "t",
        "es"
      ],
      [
        "Ġ",
        "kwargs"
      ],
      [
        "al",
        "con"
      ],
      [
        "ar",
        "get"
      ],
      [
        "ht",
        "ml"
      ],
      [
        "_f",
        "rom"
      ],
      [
        "Ġint",
        "o"
      ],
      [
        "ĠL",
        "e"
      ],
      [
        "iction",
        "ary"
      ],
      [
        "corated",
        "Callable"
      ],
      [
        "\"",
        "],"
      ],
      [
        "(",
        "result"
      ],
      [
        "f",
        "er"
      ],
      [
        "i",
        "ent"
      ],
      [
        "k",
        "le"
      ],
      [
        "er",
        "ge"
      ],
      [
        "Ġm",
        "odule"
      ],
      [
        "oc",
        "ket"
      ],
      [
        "Ġor",
        "iginal"
      ],
      [
        "ĠE",
        "xt"
      ],
      [
        "loc",
        "k"
      ],
      [
        "child",
        "ren"
      ],
      [
        "'",
        "Ċ"
      ],
      [
        "-",
        "con"
      ],
      [
        ".",
        "C"
      ],
      [
        ".",
        "v"
      ],
      [
        ".",
        "py"
      ],
      [
        ".",
        "path"
      ],
      [
        ".",
        "\"\"\"Ċ"
      ],
      [
        "de",
        "nt"
      ],
      [
        "Ġas",
        "s"
      ],
      [
        "all",
        "backs"
      ],
      [
        "Ġite",
        "m"
      ],
      [
        "f",
        "ul"
      ],
      [
        "n",
        "ode"
      ],
      [
        "mple",
        "ment"
      ],
      [
        "Ġat",
        "tribute"
      ],
      [
        "ok",
        "ies"
      ],
      [
        "ĠSe",
        "quence"
      ],
      [
        "Ġmethod",
        "s"
      ],
      [
        "pend",
        "s"
      ],
      [
        "Ġser",
        "ies"
      ],
      [
        "andl",
        "er"
      ],
      [
        "dition",
        "al"
      ],
      [
        "(",
        "de"
      ],
      [
        "-",
        "t"
      ],
      [
        "/",
        "path"
      ],
      [
        "2",
        "5"
      ],
      [
        "M",
        "E"
      ],
      [
        "U",
        "nion"
      ],
      [
        "c",
        "cess"
      ],
      [
        "Ġt",
        "ra"
      ],
      [
        "Ġas",
        "sert"
      ],
      [
        "ch",
        "anged"
      ],
      [
        "Ġapp",
        "lied"
      ],
      [
        "Ġpre",
        "fix"
      ],
      [
        "N",
        "T"
      ],
      [
        "_",
        "g"
      ],
      [
        "b",
        "ool"
      ],
      [
        "f",
        "unction"
      ],
      [
        "w",
        "ith"
      ],
      [
        "Ġf",
        "rame"
      ],
      [
        "Ġn",
        "umpy"
      ],
      [
        "ĠO",
        "peration"
      ],
      [
        "Ġe",
        "v"
      ],
      [
        "Ġex",
        "ample"
      ],
      [
        "_le",
        "n"
      ],
      [
        "Ġ----",
        "-Ċ"
      ],
      [
        "Ġne",
        "ed"
      ],
      [
        "Ġfile",
        "s"
      ],
      [
        "Ġbehavi",
        "or"
      ],
      [
        "'",
        ":"
      ],
      [
        ".",
        "children"
      ],
      [
        "a",
        "x"
      ],
      [
        "b",
        "e"
      ],
      [
        "f",
        "or"
      ],
      [
        "Ġb",
        "oth"
      ],
      [
        "Ġn",
        "a"
      ],
      [
        "Ġs",
        "amples"
      ],
      [
        "pe",
        "ed"
      ],
      [
        "Ġex",
        "p"
      ],
      [
        "qu",
        "al"
      ],
      [
        "ma",
        "ke"
      ],
      [
        "ses",
        "sion"
      ],
      [
        "ĠNot",
        "es"
      ],
      [
        "Ġsum",
        "mary"
      ],
      [
        "-con",
        "figuration"
      ],
      [
        "5",
        "0"
      ],
      [
        "L",
        "abel"
      ],
      [
        "_",
        "array"
      ],
      [
        "_",
        "string"
      ],
      [
        "a",
        "use"
      ],
      [
        "e",
        "b"
      ],
      [
        "o",
        "bject"
      ],
      [
        "s",
        "g"
      ],
      [
        "se",
        "nt"
      ],
      [
        "st",
        "atus"
      ],
      [
        "Ġf",
        "astapi"
      ],
      [
        "Ġdef",
        "ine"
      ],
      [
        "Ġl",
        "ast"
      ],
      [
        "ment",
        "s"
      ],
      [
        "po",
        "int"
      ],
      [
        "Ġcli",
        "ent"
      ],
      [
        "final",
        "ize"
      ],
      [
        ".or",
        "g"
      ],
      [
        "O",
        "R"
      ],
      [
        "_",
        "args"
      ],
      [
        "d",
        "s"
      ],
      [
        "d",
        "u"
      ],
      [
        "p",
        "andas"
      ],
      [
        "Ġc",
        "er"
      ],
      [
        "co",
        "m"
      ],
      [
        "Ġex",
        "ist"
      ],
      [
        "field",
        "s"
      ],
      [
        "ser",
        "ies"
      ],
      [
        "()",
        "."
      ],
      [
        "ĠIndex",
        "Label"
      ],
      [
        "\"",
        "):Ċ"
      ],
      [
        "(",
        "X"
      ],
      [
        "c",
        "ur"
      ],
      [
        "g",
        "re"
      ],
      [
        "g",
        "or"
      ],
      [
        "m",
        "al"
      ],
      [
        "t",
        "w"
      ],
      [
        "on",
        "ic"
      ],
      [
        "Ġp",
        "l"
      ],
      [
        "ot",
        "onic"
      ],
      [
        "Ġm",
        "ultip"
      ],
      [
        "ex",
        "clude"
      ],
      [
        "Ġlevel",
        "s"
      ],
      [
        "_p",
        "arent"
      ],
      [
        "ĠVal",
        "id"
      ],
      [
        "_de",
        "scription"
      ],
      [
        "ĠType",
        "Error"
      ],
      [
        "Ġallow",
        "ed"
      ],
      [
        "_",
        "response"
      ],
      [
        "_",
        "par"
      ],
      [
        "d",
        "type"
      ],
      [
        "i",
        "x"
      ],
      [
        "re",
        "am"
      ],
      [
        "_ex",
        "tra"
      ],
      [
        "htt",
        "p"
      ],
      [
        "ument",
        "ation"
      ],
      [
        "uplic",
        "ates"
      ],
      [
        "Rout",
        "e"
      ],
      [
        "kle",
        "arn"
      ],
      [
        ".",
        "en"
      ],
      [
        "N",
        "A"
      ],
      [
        "i",
        "e"
      ],
      [
        "o",
        "g"
      ],
      [
        "ar",
        "ge"
      ],
      [
        "Ġre",
        "l"
      ],
      [
        "an",
        "ti"
      ],
      [
        "Ġde",
        "c"
      ],
      [
        "il",
        "ity"
      ],
      [
        "and",
        "le"
      ],
      [
        "ig",
        "nore"
      ],
      [
        "Ġapp",
        "lication"
      ],
      [
        ".s",
        "hape"
      ],
      [
        "Ġnode",
        "s"
      ],
      [
        "ĠHT",
        "TP"
      ],
      [
        "(",
        "{\""
      ],
      [
        ".",
        "at"
      ],
      [
        "I",
        "ON"
      ],
      [
        "_",
        "or"
      ],
      [
        "Ġa",
        "g"
      ],
      [
        "Ġd",
        "is"
      ],
      [
        "Ġs",
        "ingle"
      ],
      [
        "res",
        "pon"
      ],
      [
        "ad",
        "ata"
      ],
      [
        "pre",
        "fix"
      ],
      [
        "ĠL",
        "ist"
      ],
      [
        "Ġpro",
        "b"
      ],
      [
        "Ġget",
        "attr"
      ],
      [
        "ĠG",
        "H"
      ],
      [
        "Ġcomp",
        "at"
      ],
      [
        "riter",
        "ion"
      ],
      [
        ".",
        "value"
      ],
      [
        "`",
        "."
      ],
      [
        "g",
        "n"
      ],
      [
        "i",
        "der"
      ],
      [
        "Ġo",
        "bj"
      ],
      [
        "il",
        "ter"
      ],
      [
        "ĠF",
        "lask"
      ],
      [
        "Ġth",
        "ose"
      ],
      [
        "Ġ[",
        "Ċ"
      ],
      [
        "ri",
        "al"
      ],
      [
        "Ġe",
        "mpty"
      ],
      [
        "us",
        "age"
      ],
      [
        "Ġli",
        "ke"
      ],
      [
        "orm",
        "at"
      ],
      [
        "Ġr",
        "un"
      ],
      [
        "_co",
        "unt"
      ],
      [
        "ff",
        "ect"
      ],
      [
        "Ġcal",
        "led"
      ],
      [
        ".",
        "he"
      ],
      [
        "T",
        "E"
      ],
      [
        "_",
        "result"
      ],
      [
        "r",
        "t"
      ],
      [
        "u",
        "ch"
      ],
      [
        "}",
        "ĊĊ"
      ],
      [
        "on",
        "g"
      ],
      [
        "in",
        "ue"
      ],
      [
        "Ġc",
        "lo"
      ],
      [
        "ĠC",
        "o"
      ],
      [
        "ĠC",
        "ustom"
      ],
      [
        "_o",
        "ff"
      ],
      [
        "iv",
        "ot"
      ],
      [
        "Ġcor",
        "respon"
      ],
      [
        "pro",
        "perty"
      ],
      [
        "Ġmat",
        "rix"
      ],
      [
        "(",
        "m"
      ],
      [
        ".",
        "set"
      ],
      [
        "=",
        "level"
      ],
      [
        "N",
        "D"
      ],
      [
        "[",
        "int"
      ],
      [
        "_",
        "e"
      ],
      [
        "a",
        "pt"
      ],
      [
        "m",
        "an"
      ],
      [
        "in",
        "place"
      ],
      [
        "or",
        "age"
      ],
      [
        "Ġi",
        "ter"
      ],
      [
        "Ġo",
        "penapi"
      ],
      [
        "Ġw",
        "ant"
      ],
      [
        "Ġreturn",
        "ing"
      ],
      [
        "pen",
        "ing"
      ],
      [
        "Ġex",
        "tra"
      ],
      [
        "out",
        "put"
      ],
      [
        "Ġma",
        "ke"
      ],
      [
        "Ġversion",
        "changed"
      ],
      [
        "Ġhe",
        "aders"
      ],
      [
        "po",
        "p"
      ],
      [
        "Ex",
        "ception"
      ],
      [
        "aut",
        "h"
      ],
      [
        "Ġvari",
        "able"
      ],
      [
        "(",
        "o"
      ],
      [
        "F",
        "i"
      ],
      [
        "P",
        "ath"
      ],
      [
        "s",
        "ide"
      ],
      [
        "Ġa",
        "xes"
      ],
      [
        "clu",
        "ding"
      ],
      [
        "Ġex",
        "ception"
      ],
      [
        "iz",
        "ation"
      ],
      [
        ".n",
        "darray"
      ],
      [
        "\"",
        "{"
      ],
      [
        "\"",
        ":Ċ"
      ],
      [
        "(",
        "axis"
      ],
      [
        ".",
        "app"
      ],
      [
        ".",
        "array"
      ],
      [
        "_",
        "kwargs"
      ],
      [
        "a",
        "ke"
      ],
      [
        "j",
        "ang"
      ],
      [
        "Ġa",
        "p"
      ],
      [
        "le",
        "ft"
      ],
      [
        "en",
        "sion"
      ],
      [
        "Ġo",
        "mit"
      ],
      [
        "ame",
        "tri"
      ],
      [
        "Ġp",
        "a"
      ],
      [
        "ut",
        "ure"
      ],
      [
        "Ġm",
        "on"
      ],
      [
        "um",
        "ber"
      ],
      [
        "Ġdef",
        "ined"
      ],
      [
        "ith",
        "er"
      ],
      [
        "_c",
        "olumns"
      ],
      [
        "te",
        "m"
      ],
      [
        "Ġen",
        "coding"
      ],
      [
        "Ġcont",
        "inue"
      ],
      [
        "Ġmin",
        "imum"
      ],
      [
        ".con",
        "fig"
      ],
      [
        "##",
        "##"
      ],
      [
        "_col",
        "s"
      ],
      [
        "jang",
        "o"
      ],
      [
        "ametri",
        "z"
      ],
      [
        "3",
        "1"
      ],
      [
        "[",
        "Union"
      ],
      [
        "_",
        "per"
      ],
      [
        "_",
        "rows"
      ],
      [
        "c",
        "olumn"
      ],
      [
        "d",
        "im"
      ],
      [
        "e",
        "ded"
      ],
      [
        "s",
        "h"
      ],
      [
        "u",
        "ff"
      ],
      [
        "Ġ",
        "K"
      ],
      [
        "Ġc",
        "ustom"
      ],
      [
        "ul",
        "ar"
      ],
      [
        "mp",
        "ur"
      ],
      [
        "um",
        "eric"
      ],
      [
        "ĠS",
        "tr"
      ],
      [
        "Ġse",
        "rial"
      ],
      [
        "arg",
        "name"
      ],
      [
        "Ġcon",
        "fig"
      ],
      [
        "_d",
        "uplicates"
      ],
      [
        "Ġ{",
        "'"
      ],
      [
        "Ġen",
        "d"
      ],
      [
        "Ġen",
        "gine"
      ],
      [
        "ĠH",
        "ashable"
      ],
      [
        "Ġcont",
        "ent"
      ],
      [
        "Ġser",
        "ver"
      ],
      [
        "Ġaut",
        "o"
      ],
      [
        "do",
        "f"
      ],
      [
        ".m",
        "ode"
      ],
      [
        "stra",
        "ints"
      ],
      [
        "mpl",
        "ate"
      ],
      [
        "(",
        "r"
      ],
      [
        "-",
        "and"
      ],
      [
        "O",
        "M"
      ],
      [
        "_",
        "key"
      ],
      [
        "f",
        "ore"
      ],
      [
        "l",
        "p"
      ],
      [
        "u",
        "ide"
      ],
      [
        "Ġf",
        "oo"
      ],
      [
        "Ġc",
        "allable"
      ],
      [
        "an",
        "not"
      ],
      [
        "ol",
        "ation"
      ],
      [
        "Ġs",
        "parse"
      ],
      [
        "val",
        "ent"
      ],
      [
        "Ġbe",
        "fore"
      ],
      [
        "_le",
        "vel"
      ],
      [
        "Ġvalid",
        "ate"
      ],
      [
        "qui",
        "valent"
      ],
      [
        "B",
        "ase"
      ],
      [
        "D",
        "ef"
      ],
      [
        "R",
        "A"
      ],
      [
        "S",
        "e"
      ],
      [
        "T",
        "he"
      ],
      [
        "[",
        ":"
      ],
      [
        "l",
        "ast"
      ],
      [
        "p",
        "ared"
      ],
      [
        "Ġ",
        "ver"
      ],
      [
        "in",
        "es"
      ],
      [
        "re",
        "ad"
      ],
      [
        "ar",
        "ch"
      ],
      [
        "Ġo",
        "perator"
      ],
      [
        "Ġde",
        "corator"
      ],
      [
        "ĠA",
        "r"
      ],
      [
        "li",
        "b"
      ],
      [
        "ĠT",
        "o"
      ],
      [
        "Ġreturn",
        "s"
      ],
      [
        "ic",
        "k"
      ],
      [
        "Ġfi",
        "xtures"
      ],
      [
        "id",
        "x"
      ],
      [
        "Ġuse",
        "r"
      ],
      [
        "Ġr",
        "andom"
      ],
      [
        "ĠU",
        "n"
      ],
      [
        "Ġso",
        "me"
      ],
      [
        "ail",
        "able"
      ],
      [
        "Ġdoc",
        "string"
      ],
      [
        "mpur",
        "ity"
      ],
      [
        "(",
        "col"
      ],
      [
        "2",
        "4"
      ],
      [
        "S",
        "E"
      ],
      [
        "k",
        "en"
      ],
      [
        "n",
        "ly"
      ],
      [
        "re",
        "q"
      ],
      [
        "Ġf",
        "eature"
      ],
      [
        "Ġw",
        "or"
      ],
      [
        "ĠS",
        "ort"
      ],
      [
        "Ġ(",
        "\""
      ],
      [
        "Ġse",
        "nd"
      ],
      [
        "qu",
        "ire"
      ],
      [
        "_re",
        "direct"
      ],
      [
        "Ġj",
        "oin"
      ],
      [
        "ĠNot",
        "e"
      ],
      [
        "Ġelement",
        "s"
      ],
      [
        "Ġcli",
        "ck"
      ],
      [
        "Ġcor",
        "rel"
      ],
      [
        "oo",
        "lean"
      ],
      [
        "[L",
        "ist"
      ],
      [
        "Ġsupport",
        "ed"
      ],
      [
        "iddle",
        "w"
      ],
      [
        "_off",
        "set"
      ],
      [
        "-",
        "par"
      ],
      [
        ".",
        "response"
      ],
      [
        "3",
        "2"
      ],
      [
        "4",
        "3"
      ],
      [
        "I",
        "n"
      ],
      [
        "[",
        "Dict"
      ],
      [
        "_",
        "v"
      ],
      [
        "_",
        "list"
      ],
      [
        "l",
        "l"
      ],
      [
        "t",
        "name"
      ],
      [
        "w",
        "ay"
      ],
      [
        "Ġ",
        "/"
      ],
      [
        "Ġ",
        "update"
      ],
      [
        "Ġt",
        "e"
      ],
      [
        "Ġthe",
        "re"
      ],
      [
        "Ġo",
        "p"
      ],
      [
        "Ġn",
        "ormal"
      ],
      [
        ")ĊĊ",
        "Ċ"
      ],
      [
        "Ġse",
        "e"
      ],
      [
        "use",
        "r"
      ],
      [
        "Ġme",
        "ta"
      ],
      [
        "error",
        "s"
      ],
      [
        "ĠSe",
        "t"
      ],
      [
        ".s",
        "ort"
      ],
      [
        "Ġad",
        "d"
      ],
      [
        "ifi",
        "er"
      ],
      [
        "De",
        "pends"
      ],
      [
        "comp",
        "at"
      ],
      [
        ".v",
        "isit"
      ],
      [
        "Ġcorrespon",
        "ding"
      ],
      [
        "Fi",
        "xture"
      ],
      [
        ".",
        "se"
      ],
      [
        "/",
        "de"
      ],
      [
        "=",
        "["
      ],
      [
        "H",
        "E"
      ],
      [
        "M",
        "L"
      ],
      [
        "W",
        "arning"
      ],
      [
        "_",
        "F"
      ],
      [
        "_",
        "item"
      ],
      [
        "d",
        "own"
      ],
      [
        "e",
        "en"
      ],
      [
        "t",
        "adata"
      ],
      [
        "}",
        ",Ċ"
      ],
      [
        "ing",
        "s"
      ],
      [
        "Ġto",
        "ken"
      ],
      [
        "ĠĠĠĠĠĠĠĠ",
        "ĠĠĠĠĠĠĠĠĠĠĠĠĠĠĠĠĠĠĠĠĠĠĠ"
      ],
      [
        "--------",
        "----"
      ],
      [
        "ver",
        "t"
      ],
      [
        "_c",
        "ache"
      ],
      [
        "ĠM",
        "ark"
      ],
      [
        "Ġst",
        "ack"
      ],
      [
        "Ġapp",
        "ly"
      ],
      [
        "ib",
        "ility"
      ],
      [
        "(n",
        "ew"
      ],
      [
        "Ġali",
        "gn"
      ],
      [
        "Ġav",
        "ailable"
      ],
      [
        "ĠIter",
        "ator"
      ],
      [
        ".",
        "items"
      ],
      [
        "`",
        ").Ċ"
      ],
      [
        "x",
        "y"
      ],
      [
        "Ġ",
        "router"
      ],
      [
        "Ġb",
        "racket"
      ],
      [
        "ro",
        "und"
      ],
      [
        "Ġw",
        "arning"
      ],
      [
        "Ġ`",
        "``"
      ],
      [
        "ra",
        "ction"
      ],
      [
        "ĠRe",
        "quest"
      ],
      [
        "Ġwith",
        "out"
      ],
      [
        "Ġfunction",
        "s"
      ],
      [
        "ĠL",
        "ine"
      ],
      [
        "Ġrequest",
        "s"
      ],
      [
        "rout",
        "ing"
      ],
      [
        "Ġne",
        "eded"
      ],
      [
        "_st",
        "ate"
      ],
      [
        "Ġindic",
        "es"
      ],
      [
        "(",
        "field"
      ],
      [
        "(",
        "cls"
      ],
      [
        ".",
        ","
      ],
      [
        ".",
        "from"
      ],
      [
        "A",
        "p"
      ],
      [
        "`",
        ")"
      ],
      [
        "a",
        "z"
      ],
      [
        "a",
        "ise"
      ],
      [
        "c",
        "at"
      ],
      [
        "o",
        "penapi"
      ],
      [
        "p",
        "are"
      ],
      [
        "p",
        "ace"
      ],
      [
        "Ġ",
        "z"
      ],
      [
        "de",
        "n"
      ],
      [
        "Ġf",
        "ound"
      ],
      [
        "Ġd",
        "ictionary"
      ],
      [
        "ol",
        "der"
      ],
      [
        "pe",
        "ar"
      ],
      [
        "cl",
        "i"
      ],
      [
        "que",
        "t"
      ],
      [
        "ĠO",
        "nly"
      ],
      [
        "Ġas",
        "cending"
      ],
      [
        "Ġar",
        "r"
      ],
      [
        "ho",
        "w"
      ],
      [
        "Ġme",
        "an"
      ],
      [
        "ĠW",
        "he"
      ],
      [
        "_b",
        "ody"
      ],
      [
        "_o",
        "ptions"
      ],
      [
        "Ġhas",
        "attr"
      ],
      [
        "Ġcheck",
        "s"
      ],
      [
        "Ġinclude",
        "d"
      ],
      [
        "_con",
        "text"
      ],
      [
        "ĠAd",
        "ditional"
      ],
      [
        "aut",
        "o"
      ],
      [
        "Ġdoes",
        "n"
      ],
      [
        "Ġlo",
        "ok"
      ],
      [
        "hook",
        "s"
      ],
      [
        "Ġmultip",
        "le"
      ],
      [
        "\"",
        "))Ċ"
      ],
      [
        ")",
        "):Ċ"
      ],
      [
        "C",
        "E"
      ],
      [
        "[",
        "Any"
      ],
      [
        "p",
        "d"
      ],
      [
        "de",
        "red"
      ],
      [
        "Ġt",
        "ree"
      ],
      [
        "Ġa",
        "ct"
      ],
      [
        "Ġf",
        "uture"
      ],
      [
        "Ġb",
        "ack"
      ],
      [
        "val",
        "u"
      ],
      [
        "_in",
        "sert"
      ],
      [
        "Ġcomp",
        "ut"
      ],
      [
        "Ġcontain",
        "s"
      ],
      [
        "Ġcom",
        "b"
      ],
      [
        "Ġout",
        "put"
      ],
      [
        "(le",
        "af"
      ],
      [
        "Ġparam",
        "s"
      ],
      [
        "anti",
        "le"
      ],
      [
        ".at",
        "tname"
      ],
      [
        "uff",
        "er"
      ],
      [
        "iddlew",
        "are"
      ],
      [
        ".",
        "I"
      ],
      [
        ".",
        "loc"
      ],
      [
        "a",
        "it"
      ],
      [
        "c",
        "ause"
      ],
      [
        "Ġ",
        "],Ċ"
      ],
      [
        "is",
        "ion"
      ],
      [
        "pen",
        "der"
      ],
      [
        "Ġh",
        "ook"
      ],
      [
        "Ġr",
        "v"
      ],
      [
        "ag",
        "g"
      ],
      [
        ".n",
        "o"
      ],
      [
        "model",
        "s"
      ],
      [
        "lect",
        "or"
      ],
      [
        "ĠFi",
        "le"
      ],
      [
        "Ġsub",
        "set"
      ],
      [
        "ĠDe",
        "coratedCallable"
      ],
      [
        "Ġduplic",
        "ate"
      ],
      [
        "Ġcre",
        "ate"
      ],
      [
        "Ġremo",
        "ve"
      ],
      [
        "Ġpa",
        "ir"
      ],
      [
        "way",
        "s"
      ],
      [
        ".",
        "E"
      ],
      [
        ".",
        "F"
      ],
      [
        "A",
        "pp"
      ],
      [
        "_",
        "str"
      ],
      [
        "n",
        "ull"
      ],
      [
        "o",
        "id"
      ],
      [
        "Ġd",
        "types"
      ],
      [
        "ĠĠĠĠĠĠĠĠ",
        "ĠĠĠĠĠĠ"
      ],
      [
        "ĠC",
        "ol"
      ],
      [
        "Ġme",
        "mory"
      ],
      [
        "vi",
        "ous"
      ],
      [
        "nc",
        "Ex"
      ],
      [
        "Ġat",
        "tr"
      ],
      [
        "Ġen",
        "sure"
      ],
      [
        ".d",
        "rop"
      ],
      [
        "pend",
        "ant"
      ],
      [
        "]]",
        "],Ċ"
      ],
      [
        "ĠAd",
        "d"
      ],
      [
        "=f",
        "ill"
      ],
      [
        "Ġmatch",
        "ing"
      ],
      [
        "ĠStr",
        "ing"
      ],
      [
        "'",
        "},"
      ],
      [
        "-",
        "de"
      ],
      [
        ".",
        "\",Ċ"
      ],
      [
        "=",
        "_"
      ],
      [
        "[",
        "bool"
      ],
      [
        "c",
        "cur"
      ],
      [
        "Ġ",
        "}Ċ"
      ],
      [
        "Ġ",
        "view"
      ],
      [
        "Ġi",
        "mplement"
      ],
      [
        "le",
        "t"
      ],
      [
        "es",
        "sion"
      ],
      [
        "Ġo",
        "ccur"
      ],
      [
        "Ġd",
        "jango"
      ],
      [
        "ul",
        "ation"
      ],
      [
        "Ġm",
        "ulti"
      ],
      [
        "fi",
        "c"
      ],
      [
        "lo",
        "g"
      ],
      [
        "Ġit",
        "s"
      ],
      [
        "ĠP",
        "er"
      ],
      [
        "Ġ--------",
        "--------------------------------"
      ],
      [
        "Ġresult",
        "ing"
      ],
      [
        "Ġspec",
        "ify"
      ],
      [
        "ign",
        "ment"
      ],
      [
        "Ġdoc",
        "umentation"
      ],
      [
        "Ġite",
        "ms"
      ],
      [
        "pect",
        "ed"
      ],
      [
        "_arg",
        "ument"
      ],
      [
        "Ġcompat",
        "ibility"
      ],
      [
        "Ap",
        "pender"
      ],
      [
        "Ġ----------------------------------------",
        "----------------"
      ],
      [
        "(",
        "[\""
      ],
      [
        ".",
        "max"
      ],
      [
        "3",
        "3"
      ],
      [
        "=",
        "m"
      ],
      [
        "A",
        "S"
      ],
      [
        "I",
        "ncEx"
      ],
      [
        "[",
        "IncEx"
      ],
      [
        "]",
        "})Ċ"
      ],
      [
        "_",
        "is"
      ],
      [
        "m",
        "all"
      ],
      [
        "o",
        "ptional"
      ],
      [
        "r",
        "andom"
      ],
      [
        "in",
        "clude"
      ],
      [
        "Ġin",
        "cluding"
      ],
      [
        "Ġde",
        "bug"
      ],
      [
        "Ġ`",
        "``Ċ"
      ],
      [
        "ĠS",
        "cope"
      ],
      [
        "Ġfor",
        "ce"
      ],
      [
        "Ġbe",
        "tw"
      ],
      [
        "Ġh",
        "ost"
      ],
      [
        "Ġr",
        "hs"
      ],
      [
        "_o",
        "p"
      ],
      [
        "Ġhe",
        "re"
      ],
      [
        "ĠPy",
        "thon"
      ],
      [
        "================================",
        "================================"
      ],
      [
        "ark",
        "er"
      ],
      [
        "_l",
        "abel"
      ],
      [
        "Ġsy",
        "ms"
      ],
      [
        "uf",
        "fix"
      ],
      [
        "Ġty",
        "pes"
      ],
      [
        "ix",
        "in"
      ],
      [
        "Ġ--------------------------------------------------------",
        "------------"
      ],
      [
        "Ġbetw",
        "een"
      ],
      [
        "-",
        "wise"
      ],
      [
        "D",
        "O"
      ],
      [
        "I",
        "nter"
      ],
      [
        "_",
        "output"
      ],
      [
        "f",
        "lex"
      ],
      [
        "Ġ",
        "load"
      ],
      [
        "re",
        "nc"
      ],
      [
        "le",
        "ss"
      ],
      [
        "it",
        "ial"
      ],
      [
        "Ġs",
        "h"
      ],
      [
        "Ġs",
        "chema"
      ],
      [
        "ur",
        "ing"
      ],
      [
        "ĠS",
        "o"
      ],
      [
        "_c",
        "st"
      ],
      [
        "ho",
        "uld"
      ],
      [
        "Ġby",
        "tes"
      ],
      [
        "__",
        "(Ċ"
      ],
      [
        "Ġst",
        "ate"
      ],
      [
        "_n",
        "on"
      ],
      [
        "os",
        "s"
      ],
      [
        "(d",
        "f"
      ],
      [
        "Ġremo",
        "ved"
      ],
      [
        "cre",
        "ase"
      ],
      [
        "(",
        "b"
      ],
      [
        "(",
        "right"
      ],
      [
        "_",
        "i"
      ],
      [
        "_",
        "as"
      ],
      [
        "l",
        "d"
      ],
      [
        "l",
        "ing"
      ],
      [
        "m",
        "odule"
      ],
      [
        "p",
        "an"
      ],
      [
        "q",
        "rt"
      ],
      [
        "t",
        "x"
      ],
      [
        "t",
        "uple"
      ],
      [
        "w",
        "ait"
      ],
      [
        "x",
        "ies"
      ],
      [
        "Ġt",
        "able"
      ],
      [
        "Ġc",
        "tx"
      ],
      [
        "Ġin",
        "form"
      ],
      [
        "Ġm",
        "od"
      ],
      [
        "Ġh",
        "andle"
      ],
      [
        "Ġobject",
        "s"
      ],
      [
        "_p",
        "arens"
      ],
      [
        "_o",
        "bj"
      ],
      [
        "_index",
        "er"
      ],
      [
        "Ġhe",
        "lp"
      ],
      [
        "=n",
        "p"
      ],
      [
        "Ġav",
        "oid"
      ],
      [
        "Ġev",
        "en"
      ],
      [
        "(",
        "l"
      ],
      [
        ".",
        "ext"
      ],
      [
        ".",
        "Any"
      ],
      [
        "0",
        "5"
      ],
      [
        "1",
        "9"
      ],
      [
        "D",
        "efault"
      ],
      [
        "N",
        "a"
      ],
      [
        "f",
        "ter"
      ],
      [
        "p",
        "ass"
      ],
      [
        "p",
        "ha"
      ],
      [
        "u",
        "il"
      ],
      [
        "Ġ",
        "up"
      ],
      [
        "al",
        "low"
      ],
      [
        "me",
        "th"
      ],
      [
        "le",
        "n"
      ],
      [
        "Ġf",
        "it"
      ],
      [
        "Ġthe",
        "ir"
      ],
      [
        "Ġre",
        "pre"
      ],
      [
        "Ġs",
        "klearn"
      ],
      [
        "ro",
        "t"
      ],
      [
        "ro",
        "ot"
      ],
      [
        "Ġde",
        "ta"
      ],
      [
        "Ġbe",
        "cause"
      ],
      [
        "use",
        "d"
      ],
      [
        "Ġas",
        "ync"
      ],
      [
        "Ġe",
        "ither"
      ],
      [
        "par",
        "t"
      ],
      [
        "Ġal",
        "ways"
      ],
      [
        "_t",
        "ra"
      ],
      [
        "_p",
        "osition"
      ],
      [
        ".d",
        "types"
      ],
      [
        "Ġarg",
        "name"
      ],
      [
        ".re",
        "index"
      ],
      [
        "Re",
        "turn"
      ],
      [
        "atch",
        "ing"
      ],
      [
        "ĠIn",
        "clude"
      ],
      [
        "ER",
        "S"
      ],
      [
        "[L",
        "ine"
      ],
      [
        "Ġali",
        "as"
      ],
      [
        "ĠValid",
        "ation"
      ],
      [
        "Ġinform",
        "ation"
      ],
      [
        "Ġrepre",
        "sent"
      ],
      [
        ".",
        "url"
      ],
      [
        ".",
        "html"
      ],
      [
        "C",
        "K"
      ],
      [
        "I",
        "T"
      ],
      [
        "M",
        "ixin"
      ],
      [
        "P",
        "ar"
      ],
      [
        "]",
        ")"
      ],
      [
        "c",
        "allbacks"
      ],
      [
        "i",
        "an"
      ],
      [
        "i",
        "led"
      ],
      [
        "j",
        "oin"
      ],
      [
        "t",
        "o"
      ],
      [
        "Ġ",
        "ent"
      ],
      [
        "Ġ\"",
        "--"
      ],
      [
        "Ġre",
        "ad"
      ],
      [
        "Ġre",
        "quire"
      ],
      [
        "Ġs",
        "w"
      ],
      [
        "ro",
        "ug"
      ],
      [
        "ut",
        "able"
      ],
      [
        "cl",
        "asses"
      ],
      [
        "Ġse",
        "nt"
      ],
      [
        "qu",
        "ery"
      ],
      [
        "_n",
        "ode"
      ],
      [
        "ist",
        "ory"
      ],
      [
        "ug",
        "in"
      ],
      [
        "Ġcontain",
        "ing"
      ],
      [
        "Ġj",
        "son"
      ],
      [
        "Ġqu",
        "ery"
      ],
      [
        "imal",
        "s"
      ],
      [
        "gre",
        "g"
      ],
      [
        ".app",
        "ly"
      ],
      [
        "!",
        "r"
      ],
      [
        "(",
        "'"
      ],
      [
        "(",
        "path"
      ],
      [
        "-",
        "unique"
      ],
      [
        ".",
        "me"
      ],
      [
        "1",
        "8"
      ],
      [
        "C",
        "on"
      ],
      [
        "E",
        "T"
      ],
      [
        "T",
        "ION"
      ],
      [
        "_",
        "like"
      ],
      [
        "a",
        "xes"
      ],
      [
        "n",
        "p"
      ],
      [
        "~",
        "~"
      ],
      [
        "in",
        "fo"
      ],
      [
        "Ġc",
        "at"
      ],
      [
        "es",
        "pan"
      ],
      [
        "ar",
        "let"
      ],
      [
        "Ġo",
        "s"
      ],
      [
        "Ġd",
        "dof"
      ],
      [
        "Ġd",
        "uring"
      ],
      [
        "Ġp",
        "arens"
      ],
      [
        "ot",
        "env"
      ],
      [
        "il",
        "ing"
      ],
      [
        "Ġres",
        "ol"
      ],
      [
        "ab",
        "c"
      ],
      [
        "ter",
        "m"
      ],
      [
        "ĠC",
        "li"
      ],
      [
        "and",
        "ard"
      ],
      [
        "mple",
        "x"
      ],
      [
        "_f",
        "unc"
      ],
      [
        "ho",
        "st"
      ],
      [
        "_in",
        "put"
      ],
      [
        "che",
        "me"
      ],
      [
        "ĠW",
        "rite"
      ],
      [
        "Ġcan",
        "not"
      ],
      [
        "Ġarg",
        "s"
      ],
      [
        "pendenc",
        "y"
      ],
      [
        "form",
        "at"
      ],
      [
        "_de",
        "pth"
      ],
      [
        "ĠG",
        "enerate"
      ],
      [
        "roup",
        "by"
      ],
      [
        "Ġper",
        "form"
      ],
      [
        "(d",
        "type"
      ],
      [
        "stra",
        "ct"
      ],
      [
        "Ġprovi",
        "de"
      ],
      [
        "Ġcollection",
        "s"
      ],
      [
        "Se",
        "quence"
      ],
      [
        "arlet",
        "te"
      ],
      [
        "(",
        "request"
      ],
      [
        ".",
        "test"
      ],
      [
        ".",
        "line"
      ],
      [
        ".",
        "update"
      ],
      [
        ".",
        "make"
      ],
      [
        "C",
        "o"
      ],
      [
        "P",
        "y"
      ],
      [
        "S",
        "I"
      ],
      [
        "S",
        "plit"
      ],
      [
        "_",
        "r"
      ],
      [
        "a",
        "mp"
      ],
      [
        "p",
        "olation"
      ],
      [
        "s",
        "um"
      ],
      [
        "s",
        "ocket"
      ],
      [
        "st",
        "ack"
      ],
      [
        "Ġre",
        "direct"
      ],
      [
        "Ġb",
        "l"
      ],
      [
        "Ġb",
        "re"
      ],
      [
        "ro",
        "ss"
      ],
      [
        "el",
        "l"
      ],
      [
        "ur",
        "t"
      ],
      [
        "il",
        "oc"
      ],
      [
        "ver",
        "ride"
      ],
      [
        "_ex",
        "ception"
      ],
      [
        "Ġy",
        "our"
      ],
      [
        "Val",
        "ue"
      ],
      [
        "Ġwh",
        "ile"
      ],
      [
        "ir",
        "d"
      ],
      [
        "our",
        "ce"
      ],
      [
        ".p",
        "arent"
      ],
      [
        "_bracket",
        "s"
      ],
      [
        "Rout",
        "er"
      ],
      [
        ".N",
        "o"
      ],
      [
        "ĠExt",
        "ension"
      ],
      [
        "(de",
        "ep"
      ],
      [
        "Ġmon",
        "otonic"
      ],
      [
        "OM",
        "MA"
      ],
      [
        "Ġcorrel",
        "ation"
      ],
      [
        "ĠWhe",
        "ther"
      ],
      [
        "================================================================",
        "================"
      ],
      [
        "Ġdeta",
        "ils"
      ],
      [
        "(",
        "func"
      ],
      [
        "-",
        "function"
      ],
      [
        ".",
        "le"
      ],
      [
        ".",
        "ut"
      ],
      [
        "1",
        "5"
      ],
      [
        "3",
        "8"
      ],
      [
        "d",
        "iv"
      ],
      [
        "h",
        "er"
      ],
      [
        "n",
        "se"
      ],
      [
        "p",
        "arent"
      ],
      [
        "u",
        "ally"
      ],
      [
        "v",
        "isible"
      ],
      [
        "z",
        "e"
      ],
      [
        "Ġ",
        "J"
      ],
      [
        "Ġf",
        "inal"
      ],
      [
        "Ġthe",
        "m"
      ],
      [
        "Ġo",
        "ption"
      ],
      [
        "ol",
        "low"
      ],
      [
        "ĠN",
        "ode"
      ],
      [
        "ĠD",
        "rop"
      ],
      [
        "fi",
        "xtures"
      ],
      [
        "ĠF",
        "inal"
      ],
      [
        "lo",
        "b"
      ],
      [
        "Ġl",
        "arge"
      ],
      [
        "_c",
        "heck"
      ],
      [
        "_in",
        "ter"
      ],
      [
        "Ġpar",
        "ametriz"
      ],
      [
        "Ġset",
        "ting"
      ],
      [
        "Ġch",
        "ange"
      ],
      [
        "Ġover",
        "ride"
      ],
      [
        "Ġro",
        "ot"
      ],
      [
        "viron",
        "ment"
      ],
      [
        "Ġcer",
        "tain"
      ],
      [
        "_parent",
        "s"
      ],
      [
        "renc",
        "es"
      ],
      [
        ".No",
        "Default"
      ],
      [
        ".",
        "values"
      ],
      [
        "<",
        "/"
      ],
      [
        "=",
        "index"
      ],
      [
        "[",
        "-"
      ],
      [
        "Ġ",
        "Q"
      ],
      [
        "Ġ",
        "Key"
      ],
      [
        "Ġt",
        "re"
      ],
      [
        "Ġa",
        "fter"
      ],
      [
        "Ġc",
        "ache"
      ],
      [
        "Ġo",
        "b"
      ],
      [
        "li",
        "ce"
      ],
      [
        "ĠD",
        "ict"
      ],
      [
        "ate",
        "gor"
      ],
      [
        "Ġh",
        "andler"
      ],
      [
        "Ġ{",
        "}Ċ"
      ],
      [
        "Ġst",
        "art"
      ],
      [
        "ack",
        "age"
      ],
      [
        "ĠB",
        "ase"
      ],
      [
        "Ġpre",
        "vious"
      ],
      [
        "Ġdo",
        "g"
      ],
      [
        "cess",
        "ary"
      ],
      [
        "_com",
        "ma"
      ],
      [
        "Ġduplic",
        "ates"
      ],
      [
        "**",
        "ĊĊ"
      ],
      [
        "fixturedef",
        "s"
      ],
      [
        "Ġomit",
        "ted"
      ],
      [
        "[:",
        ","
      ],
      [
        ".ext",
        "end"
      ],
      [
        "roug",
        "h"
      ],
      [
        ")",
        ")"
      ],
      [
        "-",
        "cli"
      ],
      [
        ".",
        "as"
      ],
      [
        ".",
        "pop"
      ],
      [
        "A",
        "L"
      ],
      [
        "G",
        "I"
      ],
      [
        "M",
        "apping"
      ],
      [
        "_",
        "file"
      ],
      [
        "_",
        "params"
      ],
      [
        "a",
        "iled"
      ],
      [
        "e",
        "ar"
      ],
      [
        "Ġc",
        "ast"
      ],
      [
        "ar",
        "row"
      ],
      [
        "Ġb",
        "uf"
      ],
      [
        "Ġs",
        "uch"
      ],
      [
        "Ġm",
        "sg"
      ],
      [
        "ĠS",
        "er"
      ],
      [
        "res",
        "s"
      ],
      [
        "Ġbe",
        "en"
      ],
      [
        "Ġe",
        "ffect"
      ],
      [
        "Ġon",
        "es"
      ],
      [
        "Ġdata",
        "frame"
      ],
      [
        "ti",
        "al"
      ],
      [
        "Ġr",
        "ange"
      ],
      [
        "ag",
        "ger"
      ],
      [
        "_b",
        "ool"
      ],
      [
        "Ġhe",
        "ader"
      ],
      [
        "Ġun",
        "der"
      ],
      [
        "Ġtr",
        "ansform"
      ],
      [
        "Ġmax",
        "imum"
      ],
      [
        "Ġj",
        "ust"
      ],
      [
        "Ġcons",
        "ider"
      ],
      [
        "Ġdrop",
        "na"
      ],
      [
        "ccess",
        "or"
      ],
      [
        ".he",
        "aders"
      ],
      [
        "apt",
        "er"
      ],
      [
        "sh",
        "ared"
      ],
      [
        "read",
        "y"
      ],
      [
        "Ġwor",
        "k"
      ],
      [
        "compat",
        "ible"
      ],
      [
        "Ġ--------------------------------------------------------------------",
        "--Ċ"
      ],
      [
        "(",
        "name"
      ],
      [
        "-",
        "id"
      ],
      [
        "-",
        "generate"
      ],
      [
        "/",
        "generate"
      ],
      [
        "=",
        "name"
      ],
      [
        "F",
        "unc"
      ],
      [
        "c",
        "ut"
      ],
      [
        "d",
        "a"
      ],
      [
        "d",
        "f"
      ],
      [
        "i",
        "o"
      ],
      [
        "k",
        "ze"
      ],
      [
        "p",
        "ing"
      ],
      [
        "r",
        "ary"
      ],
      [
        "u",
        "ild"
      ],
      [
        "re",
        "turn"
      ],
      [
        "er",
        "kze"
      ],
      [
        "he",
        "ses"
      ],
      [
        "st",
        "amp"
      ],
      [
        "Ġf",
        "ollow"
      ],
      [
        "el",
        "y"
      ],
      [
        "Ġm",
        "erge"
      ],
      [
        "\"\"",
        "\"ĊĊ"
      ],
      [
        "ĠA",
        "pp"
      ],
      [
        "Ġbe",
        "st"
      ],
      [
        "Ġ[",
        "'"
      ],
      [
        "ri",
        "or"
      ],
      [
        "ĠDataFrame",
        "s"
      ],
      [
        "Ġco",
        "unt"
      ],
      [
        "Ġindex",
        "er"
      ],
      [
        "key",
        "word"
      ],
      [
        "Ġal",
        "ready"
      ],
      [
        "Ġ]",
        "Ċ"
      ],
      [
        "ĠU",
        "se"
      ],
      [
        "ĠCon",
        "vert"
      ],
      [
        "ans",
        "po"
      ],
      [
        "Ġcom",
        "mand"
      ],
      [
        "Ġloc",
        "ation"
      ],
      [
        "(le",
        "n"
      ],
      [
        "=s",
        "kipna"
      ],
      [
        "ĠHT",
        "ML"
      ],
      [
        "-t",
        "he"
      ],
      [
        "_len",
        "gth"
      ],
      [
        "ĠCo",
        "mp"
      ],
      [
        "_output",
        "s"
      ],
      [
        "Na",
        "N"
      ],
      [
        "ĠCli",
        "ents"
      ],
      [
        "-cli",
        "ents"
      ],
      [
        "erkze",
        "ug"
      ],
      [
        "\"",
        "),"
      ],
      [
        ".",
        "h"
      ],
      [
        ".",
        "iloc"
      ],
      [
        "H",
        "ashable"
      ],
      [
        "P",
        "E"
      ],
      [
        "S",
        "GI"
      ],
      [
        "[",
        "Sequence"
      ],
      [
        "\\",
        "*"
      ],
      [
        "_",
        "he"
      ],
      [
        "_",
        "DE"
      ],
      [
        "_",
        "route"
      ],
      [
        "f",
        "lask"
      ],
      [
        "n",
        "umpy"
      ],
      [
        "s",
        "ort"
      ],
      [
        "y",
        "le"
      ],
      [
        "Ġ",
        "upd"
      ],
      [
        "re",
        "ate"
      ],
      [
        "de",
        "l"
      ],
      [
        "Ġt",
        "ake"
      ],
      [
        "st",
        "ate"
      ],
      [
        "ar",
        "s"
      ],
      [
        "Ġo",
        "ptions"
      ],
      [
        "Ġd",
        "on"
      ],
      [
        "ue",
        "pr"
      ],
      [
        "Ġw",
        "rap"
      ],
      [
        "ĠN",
        "D"
      ],
      [
        "il",
        "ar"
      ],
      [
        "up",
        "port"
      ],
      [
        "_f",
        "rame"
      ],
      [
        "_f",
        "lex"
      ],
      [
        "pl",
        "ode"
      ],
      [
        ".co",
        "mp"
      ],
      [
        "te",
        "ger"
      ],
      [
        "af",
        "e"
      ],
      [
        "im",
        "ilar"
      ],
      [
        "_re",
        "l"
      ],
      [
        "::",
        "ĊĊ"
      ],
      [
        "func",
        "item"
      ],
      [
        "Ġtuple",
        "s"
      ],
      [
        "-o",
        "penapi"
      ],
      [
        "Ġsy",
        "s"
      ],
      [
        "ĠLe",
        "vel"
      ],
      [
        "ĠExt",
        "ra"
      ],
      [
        "ME",
        "NT"
      ],
      [
        "Ġexist",
        "ing"
      ],
      [
        "Ġextra",
        "ct"
      ],
      [
        "(o",
        "ps"
      ],
      [
        "Ġver",
        "ify"
      ],
      [
        "Ġnormal",
        "ize"
      ],
      [
        "/de",
        "pendencies"
      ],
      [
        ")",
        ".__"
      ],
      [
        ".",
        "fields"
      ],
      [
        "T",
        "ree"
      ],
      [
        "[",
        "Response"
      ],
      [
        "_",
        "se"
      ],
      [
        "_",
        "tags"
      ],
      [
        "a",
        "ded"
      ],
      [
        "c",
        "p"
      ],
      [
        "r",
        "int"
      ],
      [
        "t",
        "c"
      ],
      [
        "u",
        "al"
      ],
      [
        "}",
        "\"Ċ"
      ],
      [
        "Ġ",
        "vi"
      ],
      [
        "Ġt",
        "ak"
      ],
      [
        "le",
        "te"
      ],
      [
        "Ġc",
        "riterion"
      ],
      [
        "Ġin",
        "itial"
      ],
      [
        "Ġre",
        "du"
      ],
      [
        "Ġb",
        "oolean"
      ],
      [
        "val",
        "s"
      ],
      [
        "Ġbe",
        "ing"
      ],
      [
        "ic",
        "ular"
      ],
      [
        "Ġh",
        "andl"
      ],
      [
        "Ġuse",
        "ful"
      ],
      [
        "_c",
        "olumn"
      ],
      [
        "_o",
        "bject"
      ],
      [
        "Ġch",
        "ar"
      ],
      [
        "_st",
        "mt"
      ],
      [
        "Ġmay",
        "be"
      ],
      [
        "Ġpy",
        "test"
      ],
      [
        "Ġpart",
        "icular"
      ],
      [
        "PA",
        "R"
      ],
      [
        "Ġag",
        "greg"
      ],
      [
        "-par",
        "ameter"
      ],
      [
        ".le",
        "aves"
      ],
      [
        "-",
        "path"
      ],
      [
        "1",
        "4"
      ],
      [
        "1",
        "7"
      ],
      [
        "=",
        "d"
      ],
      [
        "=",
        "{\""
      ],
      [
        "A",
        "R"
      ],
      [
[...]
