{
  "version": "1.0",
  "truncation": null,
  "padding": null,
  "added_tokens": [
    {
      "id": 0,
      "content": "<|bos|>",
      "single_word": false,
      "lstrip": false,
      "rstrip": false,
      "normalized": false,
      "special": true
    },
    {
      "id": 1,
      "content": "<|user_start|>",
      "single_word": false,
      "lstrip": false,
      "rstrip": false,
      "normalized": false,
      "special": true
    },
    {
      "id": 2,
      "content": "<|user_end|>",
      "single_word": false,
      "lstrip": false,
      "rstrip": false,
      "normalized": false,
      "special": true
    },
    {
      "id": 3,
      "content": "<|assistant_start|>",
      "single_word": false,
      "lstrip": false,
      "rstrip": false,
      "normalized": false,
      "special": true
    },
    {
      "id": 4,
      "content": "<|assistant_end|>",
      "single_word": false,
      "lstrip": false,
      "rstrip": false,
      "normalized": false,
      "special": true
    },
    {
      "id": 5,
      "content": "<|python_start|>",
      "single_word": false,
      "lstrip": false,
      "rstrip": false,
      "normalized": false,
      "special": true
    },
    {
      "id": 6,
      "content": "<|python_end|>",
      "single_word": false,
      "lstrip": false,
      "rstrip": false,
      "normalized": false,
      "special": true
    },
    {
      "id": 7,
      "content": "<|output_start|>",
      "single_word": false,
      "lstrip": false,
      "rstrip": false,
      "normalized": false,
      "special": true
    },
    {
      "id": 8,
      "content": "<|output_end|>",
      "single_word": false,
      "lstrip": false,
      "rstrip": false,
      "normalized": false,
      "special": true
    }
  ],
  "normalizer": null,
  "pre_tokenizer": {
    "type": "Sequence",
    "pretokenizers": [
      {
        "type": "Split",
        "pattern": {
          "Regex": "'(?i:[sdmt]|ll|ve|re)|[^\\r\\n\\p{L}\\p{N}]?+\\p{L}+|\\p{N}{1,2}| ?[^\\s\\p{L}\\p{N}]++[\\r\\n]*|\\s*[\\r\\n]|\\s+(?!\\S)|\\s+"
        },
        "behavior": "Isolated",
        "invert": false
      },
      {
        "type": "ByteLevel",
        "add_prefix_space": false,
        "trim_offsets": true,
        "use_regex": false
      }
    ]
  },
  "post_processor": null,
  "decoder": {
    "type": "ByteLevel",
    "add_prefix_space": true,
    "trim_offsets": true,
    "use_regex": true
  },
  "model": {
    "type": "BPE",
    "dropout": null,
    "unk_token": null,
    "continuing_subword_prefix": null,
    "end_of_word_suffix": null,
    "fuse_unk": false,
    "byte_fallback": true,
    "ignore_merges": false,
    "vocab": {
      "<|bos|>": 0,
      "<|user_start|>": 1,
      "<|user_end|>": 2,
      "<|assistant_start|>": 3,
      "<|assistant_end|>": 4,
      "<|python_start|>": 5,
      "<|python_end|>": 6,
      "<|output_start|>": 7,
      "<|output_end|>": 8,
      "!": 9,
      "\"": 10,
      "#": 11,
      "$": 12,
      "%": 13,
      "&": 14,
      "'": 15,
      "(": 16,
      ")": 17,
      "*": 18,
      "+": 19,
      ",": 20,
      "-": 21,
      ".": 22,
      "/": 23,
      "0": 24,
      "1": 25,
      "2": 26,
      "3": 27,
      "4": 28,
      "5": 29,
      "6": 30,
      "7": 31,
      "8": 32,
      "9": 33,
      ":": 34,
      ";": 35,
      "<": 36,
      "=": 37,
      ">": 38,
      "?": 39,
      "@": 40,
      "A": 41,
      "B": 42,
      "C": 43,
      "D": 44,
      "E": 45,
      "F": 46,
      "G": 47,
      "H": 48,
      "I": 49,
      "J": 50,
      "K": 51,
      "L": 52,
      "M": 53,
      "N": 54,
      "O": 55,
      "P": 56,
      "Q": 57,
      "R": 58,
      "S": 59,
      "T": 60,
      "U": 61,
      "V": 62,
      "W": 63,
      "X": 64,
      "Y": 65,
      "Z": 66,
      "[": 67,
      "\\": 68,
      "]": 69,
      "^": 70,
      "_": 71,
      "`": 72,
      "a": 73,
      "b": 74,
      "c": 75,
      "d": 76,
      "e": 77,
      "f": 78,
      "g": 79,
      "h": 80,
      "i": 81,
      "j": 82,
      "k": 83,
      "l": 84,
      "m": 85,
      "n": 86,
      "o": 87,
      "p": 88,
      "q": 89,
      "r": 90,
      "s": 91,
      "t": 92,
      "u": 93,
      "v": 94,
      "w": 95,
      "x": 96,
      "y": 97,
      "z": 98,
      "{": 99,
      "|": 100,
      "}": 101,
      "~": 102,
      "¡": 103,
      "¢": 104,
      "£": 105,
      "¤": 106,
      "¥": 107,
      "¦": 108,
      "§": 109,
      "¨": 110,
      "©": 111,
      "ª": 112,
      "«": 113,
      "¬": 114,
      "®": 115,
      "¯": 116,
      "°": 117,
      "±": 118,
      "²": 119,
      "³": 120,
      "´": 121,
      "µ": 122,
      "¶": 123,
      "·": 124,
      "¸": 125,
      "¹": 126,
      "º": 127,
      "»": 128,
      "¼": 129,
      "½": 130,
      "¾": 131,
      "¿": 132,
      "À": 133,
      "Á": 134,
      "Â": 135,
      "Ã": 136,
      "Ä": 137,
      "Å": 138,
      "Æ": 139,
      "Ç": 140,
      "È": 141,
      "É": 142,
      "Ê": 143,
      "Ë": 144,
      "Ì": 145,
      "Í": 146,
      "Î": 147,
      "Ï": 148,
      "Ð": 149,
      "Ñ": 150,
      "Ò": 151,
      "Ó": 152,
      "Ô": 153,
      "Õ": 154,
      "Ö": 155,
      "×": 156,
      "Ø": 157,
      "Ù": 158,
      "Ú": 159,
      "Û": 160,
      "Ü": 161,
      "Ý": 162,
      "Þ": 163,
      "ß": 164,
      "à": 165,
      "á": 166,
      "â": 167,
      "ã": 168,
      "ä": 169,
      "å": 170,
      "æ": 171,
      "ç": 172,
      "è": 173,
      "é": 174,
      "ê": 175,
      "ë": 176,
      "ì": 177,
      "í": 178,
      "î": 179,
      "ï": 180,
      "ð": 181,
      "ñ": 182,
      "ò": 183,
      "ó": 184,
      "ô": 185,
      "õ": 186,
      "ö": 187,
      "÷": 188,
      "ø": 189,
      "ù": 190,
      "ú": 191,
      "û": 192,
      "ü": 193,
      "ý": 194,
      "þ": 195,
      "ÿ": 196,
      "Ā": 197,
      "ā": 198,
      "Ă": 199,
      "ă": 200,
      "Ą": 201,
      "ą": 202,
      "Ć": 203,
      "ć": 204,
      "Ĉ": 205,
      "ĉ": 206,
      "Ċ": 207,
      "ċ": 208,
      "Č": 209,
      "č": 210,
      "Ď": 211,
      "ď": 212,
      "Đ": 213,
      "đ": 214,
      "Ē": 215,
      "ē": 216,
      "Ĕ": 217,
      "ĕ": 218,
      "Ė": 219,
      "ė": 220,
      "Ę": 221,
      "ę": 222,
      "Ě": 223,
      "ě": 224,
      "Ĝ": 225,
      "ĝ": 226,
      "Ğ": 227,
      "ğ": 228,
      "Ġ": 229,
      "ġ": 230,
      "Ģ": 231,
      "ģ": 232,
      "Ĥ": 233,
      "ĥ": 234,
      "Ħ": 235,
      "ħ": 236,
      "Ĩ": 237,
      "ĩ": 238,
      "Ī": 239,
      "ī": 240,
      "Ĭ": 241,
      "ĭ": 242,
      "Į": 243,
      "į": 244,
      "İ": 245,
      "ı": 246,
      "Ĳ": 247,
      "ĳ": 248,
      "Ĵ": 249,
      "ĵ": 250,
      "Ķ": 251,
      "ķ": 252,
      "ĸ": 253,
      "Ĺ": 254,
      "ĺ": 255,
      "Ļ": 256,
      "ļ": 257,
      "Ľ": 258,
      "ľ": 259,
      "Ŀ": 260,
      "ŀ": 261,
      "Ł": 262,
      "ł": 263,
      "Ń": 264,
      "ĠĠ": 265,
      "ĠĠĠĠ": 266,
      "ĠĠĠĠĠĠĠĠ": 267,
      "ĠĠĠĠĠĠĠĠĠĠĠĠĠĠĠĠ": 268,
      "Ġt": 269,
      "he": 270,
      "Ġa": 271,
      "in": 272,
      "ĊĊ": 273,
      "Ġthe": 274,
      "Ġs": 275,
      "ou": 276,
      "re": 277,
      "Ġw": 278,
      ".ĊĊ": 279,
      "Ġo": 280,
      "er": 281,
      "ĠĠĠĠĠĠĠĠĠ": 282,
      "is": 283,
      "nd": 284,
      "Ġb": 285,
      "Ġh": 286,
      "ing": 287,
      "Ġc": 288,
      "es": 289,
      "it": 290,
      "Ġf": 291,
      "at": 292,
      "Ġd": 293,
      "ĠĠĠĠĠĠĠĠĠĠĠĠĠĠĠĠĠĠĠĠĠĠĠĠ": 294,
      "ll": 295,
      "on": 296,
      "ĉĉ": 297,
      "Ġto": 298,
      "Ġm": 299,
      "Ġl": 300,
      "ĠI": 301,
      "en": 302,
      "or": 303,
      "an": 304,
      "ĠT": 305,
      "Ġp": 306,
      "ar": 307,
      "ĠĊ": 308,
      "Ġg": 309,
      "ĠC": 310,
      "ĠĠĠĠĠĠĠĠĠĠĠĠĠĠĠĠĠĠĠĠĠĠĠĠĠĠĠĠĠĠĠĠ": 311,
      "Ġin": 312,
      "ĠĠĠĠĠĠ": 313,
      "ed": 314,
      "ĠĠĠĠĠĠĠĠĠĠ": 315,
      "Ġy": 316,
      ".Ċ": 317,
      "om": 318,
      "Ġof": 319,
      "Ġand": 320,
      "ĠS": 321,
      "Ġyou": 322,
      "ck": 323,
      "Ġth": 324,
      "ow": 325,
      "et": 326,
      "ĠĠĠĠĠĠĠĠĠĠĠĠĠĠĠĠĠĠ": 327,
      "ĠM": 328,
      "Ġhe": 329,
      "st": 330,
      "oo": 331,
      "ĠB": 332,
      "'s": 333,
      "IN": 334,
      "ĠH": 335,
      "Ġn": 336,
      "ĠA": 337,
      "le": 338,
      "Ġ(": 339,
      "Ġst": 340,
      "..": 341,
      "as": 342,
      "ER": 343,
      "ot": 344,
      "Ġon": 345,
      "ĠĠĠĠĠĠĠĠĠĠĠĠĠĠ": 346,
      "ĠĠĠĠĠĠĠĠĠĠĠĠĠĠĠĠĠĠĠĠĠĠĠĠĠ": 347,
      "Ġis": 348,
      "ve": 349,
      "al": 350,
      "ĠD": 351,
      "gh": 352,
      "Ġu": 353,
      "im": 354,
      "ĠW": 355,
      "Ġhis": 356,
      "ĠF": 357,
      "ON": 358,
      "Ġit": 359,
      "ĠJ": 360,
      "ĠThe": 361,
      "ad": 362,
      "ay": 363,
      "Ġbe": 364,
      "Ġe": 365,
      "out": 366,
      "Ġr": 367,
      "ĠĠĠĠĠĠĠĠĠĠĠĠĠĠĠĠĠĠĠ": 368,
      ")Ċ": 369,
      "--": 370,
      "id": 371,
      "ĠĠĠĠĠĠĠĠĠĠĊ": 372,
      "ce": 373,
      "ld": 374,
      "ver": 375,
      "ly": 376,
      "ack": 377,
      "ut": 378,
      "ĠĠĠĠĠĠĠĠĠĠĠĠĠĠĠĠĠĠĠĠĠĠĠĠĠĊ": 379,
      "ook": 380,
      "and": 381,
      "Ġat": 382,
      "ch": 383,
      "se": 384,
      "ur": 385,
      "ĠĠĠĠĠĠĠĠĠĠĠĠĠĠĠĠĠĠĠĠĠĠĠĠĠĠĠĠ": 386,
      "ĠĠĠĠĠĠĠĠĠĠĠĠĠĠĠĠĠĠĠĠĠĠĠĠĠĠĠĠĠĠĠĠĠĠĠĠ": 387,
      "Ġre": 388,
      "EN": 389,
      "ent": 390,
      "AN": 391,
      "'t": 392,
      "ke": 393,
      "ĠHe": 394,
      "ght": 395,
      "hat": 396,
      "ith": 397,
      "Ġdo": 398,
      "ĠL": 399,
      "ĠN": 400,
      "ĠCO": 401,
      "ir": 402,
      "ĠY": 403,
      "am": 404,
      "ĠĠĠĠĠĠĠĠĠĠĠĠĠĠĠĠĠĠĠĠĠĠ": 405,
      "ES": 406,
      "LL": 407,
      "ill": 408,
      "ĠR": 409,
      "?ĊĊ": 410,
      "Ġout": 411,
      "Ġwith": 412,
      "ight": 413,
      "all": 414,
      "ĉĉĉ": 415,
      "==": 416,
      "Ġwe": 417,
      "Ġup": 418,
      "Ġsh": 419,
      "Ġlook": 420,
      "Ġk": 421,
      "Ġas": 422,
      "ro": 423,
      "her": 424,
      "Ġhim": 425,
      "ĠP": 426,
      "Ġfor": 427,
      "ers": 428,
      "Ġfr": 429,
      "Ġthat": 430,
      "to": 431,
      "Ġan": 432,
      "Ġme": 433,
      "Ġse": 434,
      "AR": 435,
      "un": 436,
      "ion": 437,
      "ĠE": 438,
      "OR": 439,
      "rou": 440,
      "ra": 441,
      "if": 442,
      "ic": 443,
      "Ġ--": 444,
      "ĠĊĊ": 445,
      "us": 446,
      "CK": 447,
      "il": 448,
      "ĠG": 449,
      "ĠYou": 450,
      "one": 451,
      "ak": 452,
      "...": 453,
      "op": 454,
      "Ġha": 455,
      "Ġare": 456,
      "ct": 457,
      "ĉT": 458,
      "Ġ-": 459,
      "ĠO": 460,
      "ri": 461,
      "ind": 462,
      "ONT": 463,
      "AY": 464,
      "own": 465,
      "ant": 466,
      "ard": 467,
      "Ġgo": 468,
      "Ġj": 469,
      "ED": 470,
      "Ġkn": 471,
      "US": 472,
      "ie": 473,
      "OM": 474,
      "ome": 475,
      "Ġlooks": 476,
      "Ġne": 477,
      "ain": 478,
      "Ġher": 479,
      "ust": 480,
      "Ġfrom": 481,
      "Ġli": 482,
      "CH": 483,
      "ter": 484,
      "Ġthis": 485,
      "ĠV": 486,
      "ob": 487,
      "Ġwas": 488,
      "Ġinto": 489,
      "ĠIN": 490,
      "ge": 491,
      "AT": 492,
      "Ġwh": 493,
      "Ġback": 494,
      "ap": 495,
      "'re": 496,
      "hing": 497,
      "ING": 498,
      "Ġnot": 499,
      "ide": 500,
      "lo": 501,
      "Ġyour": 502,
      "ould": 503,
      "ĠK": 504,
      "Ġcan": 505,
      "Ġdown": 506,
      "IT": 507,
      "alk": 508,
      "ep": 509,
      ",Ċ": 510,
      "ell": 511,
      "Ġmo": 512,
      "art": 513,
      "EL": 514,
      "Ġhave": 515,
      "====": 516,
      "el": 517,
      "Ġget": 518,
      "ick": 519,
      "um": 520,
      "hes": 521,
      "ACK": 522,
      "INT": 523,
      "ab": 524,
      "ILL": 525,
      "Ġknow": 526,
      "od": 527,
      "ĠDAY": 528,
      "ig": 529,
      "Ġle": 530,
      "ss": 531,
      "per": 532,
      "XT": 533,
      "ET": 534,
      "ĠINT": 535,
      "rest": 536,
      "ĠIt": 537,
      "ĉĉĉĉ": 538,
      "ves": 539,
      "ĠFor": 540,
      "'m": 541,
      "Ġab": 542,
      "ull": 543,
      "CONT": 544,
      "pp": 545,
      "ace": 546,
      "ry": 547,
      "...ĊĊ": 548,
      "uck": 549,
      "Ġsp": 550,
      "IG": 551,
      "Ġhand": 552,
      "Ġpl": 553,
      "ĉM": 554,
      "Ġwhat": 555,
      "ol": 556,
      "Ġall": 557,
      "Ġmy": 558,
      "urn": 559,
      "LE": 560,
      "ood": 561,
      ".)Ċ": 562,
      "Ġoff": 563,
      "ist": 564,
      "are": 565,
      "ĉH": 566,
      "Ġlike": 567,
      "EST": 568,
      "ĠĠĠĠĠĠĠĠĠĠĠĠĠĠĠĠĠĠĠĠĠĠĠĠĠĠĠĠĠ": 569,
      "way": 570,
      "ENT": 571,
      ".O": 572,
      "Ġch": 573,
      "Ġthey": 574,
      "ess": 575,
      "ont": 576,
      "ars": 577,
      "ink": 578,
      "Ġdon": 579,
      "ĠForrest": 580,
      "Ġbl": 581,
      "Ġover": 582,
      "ake": 583,
      "ong": 584,
      "ĠĠĠĠĠ": 585,
      "ST": 586,
      "au": 587,
      "ast": 588,
      "ĠWe": 589,
      "Ġro": 590,
      "qu": 591,
      "Ġman": 592,
      "Ġwor": 593,
      "ĠĠĠĠĠĠĠĠĠĠĠĠĠĠĠĠĠĠĠĠĠĠĠĠĠĠ": 594,
      "Ġone": 595,
      "Ġthem": 596,
      "round": 597,
      "RI": 598,
      "ĠJack": 599,
      "Ġcom": 600,
      "INU": 601,
      "Ġdoor": 602,
      "ĠĠĠĠĠĠĠĠĠĠĠĠĠĠĠ": 603,
      "ĠJACK": 604,
      "CE": 605,
      "em": 606,
      "pen": 607,
      "ive": 608,
      "Ġsu": 609,
      "ĠAnd": 610,
      "ac": 611,
      "ĉt": 612,
      "very": 613,
      "our": 614,
      "AL": 615,
      "ĉA": 616,
      "ice": 617,
      "ĠWhat": 618,
      "AM": 619,
      "Ġsm": 620,
      "ul": 621,
      "akes": 622,
      "UN": 623,
      "?Ċ": 624,
      "Ġwhe": 625,
      "AD": 626,
      "Ġde": 627,
      "'S": 628,
      "!ĊĊ": 629,
      "Ġby": 630,
      "Ġbut": 631,
      "Ġal": 632,
      "ĉThe": 633,
      "Ġjust": 634,
      "rough": 635,
      "IGH": 636,
      "obb": 637,
      "ous": 638,
      "Ġabout": 639,
      "----": 640,
      "ine": 641,
      "Ġso": 642,
      "ĠSom": 643,
      "UR": 644,
      "ĉN": 645,
      "ooper": 646,
      "ne": 647,
      "Ġopen": 648,
      "red": 649,
      "Ġwalk": 650,
      "BB": 651,
      "OUS": 652,
      "ag": 653,
      "ĠCooper": 654,
      "OP": 655,
      "Ġwat": 656,
      "IGHT": 657,
      "Ġho": 658,
      "ĉI": 659,
      "its": 660,
      "ass": 661,
      "HE": 662,
      "ip": 663,
      "Ġv": 664,
      "Ġex": 665,
      "Ġturn": 666,
      "Ġhere": 667,
      "Ġthrough": 668,
      "ĠCOL": 669,
      "Ġwant": 670,
      "ting": 671,
      "ĠThey": 672,
      "OL": 673,
      "ation": 674,
      "Ġus": 675,
      "ĉS": 676,
      "ate": 677,
      "Ġshe": 678,
      "Ġco": 679,
      "erset": 680,
      "ĠSomerset": 681,
      "ther": 682,
      "Ġfe": 683,
      "ELL": 684,
      "Ġthen": 685,
      "ills": 686,
      "OT": 687,
      "ĠBut": 688,
      "Ġag": 689,
      "Ġthere": 690,
      "ĠTh": 691,
      "ĠEXT": 692,
      "Ġhead": 693,
      "'ll": 694,
      "Ġstand": 695,
      "UT": 696,
      "Ġ\"": 697,
      "ally": 698,
      "Ġaround": 699,
      "th": 700,
      "ĠNIGHT": 701,
      "AS": 702,
      "ĠFOR": 703,
      "Ġbo": 704,
      "est": 705,
      "19": 706,
      "ity": 707,
      "AND": 708,
      "ĠCOLIN": 709,
      "ame": 710,
      "Ġwho": 711,
      "Ġsee": 712,
      "ĠCOBB": 713,
      "ĉINT": 714,
      "ore": 715,
      "Ġno": 716,
      "Ġgu": 717,
      "ts": 718,
      "Ġcar": 719,
      "Ġor": 720,
      "ERS": 721,
      "Ġgot": 722,
      "RO": 723,
      "Ġother": 724,
      "Ġany": 725,
      "sel": 726,
      "ĠShe": 727,
      "Ġsome": 728,
      "ĠMills": 729,
      "ĠBILL": 730,
      "Ġun": 731,
      "ase": 732,
      "ure": 733,
      "Ġpull": 734,
      "ward": 735,
      "nder": 736,
      "Ġey": 737,
      "Ġright": 738,
      "REST": 739,
      "Ġsc": 740,
      "Ġthink": 741,
      "ime": 742,
      "ect": 743,
      "ĠFORREST": 744,
      "Ġsl": 745,
      "========": 746,
      "ĠBILLY": 747,
      "ĠST": 748,
      "Ġpo": 749,
      "Ġhas": 750,
      "Ġdid": 751,
      "able": 752,
      "RE": 753,
      "ach": 754,
      "ff": 755,
      "Ġif": 756,
      "Ġtw": 757,
      "ny": 758,
      "Ġturns": 759,
      "CHA": 760,
      "Ġfuck": 761,
      "Ġcl": 762,
      "ICHA": 763,
      "ICHAEL": 764,
      "ty": 765,
      "Ġaway": 766,
      "ĠĠĠĠĠĠĠĠĠĠĊĠĠĠĠĠĠĠĠĠĠĊ": 767,
      "ches": 768,
      "ler": 769,
      "side": 770,
      "'D": 771,
      "les": 772,
      "Ġlo": 773,
      "Ġagain": 774,
      "ĉR": 775,
      "ank": 776,
      "Ġpro": 777,
      "ĠRO": 778,
      "'ve": 779,
      "ows": 780,
      "ire": 781,
      "INUED": 782,
      "ĠCONT": 783,
      "Ġgoing": 784,
      "LO": 785,
      "ait": 786,
      "Ġroom": 787,
      "ĉW": 788,
      "eat": 789,
      "Ġsay": 790,
      "other": 791,
      "Ġtheir": 792,
      "ĠTy": 793,
      "self": 794,
      "ĠDo": 795,
      "Ġwalks": 796,
      "ĠTyler": 797,
      "ving": 798,
      "ĉC": 799,
      "Ġbeen": 800,
      "ody": 801,
      "ings": 802,
      "ĠNo": 803,
      "Ġtr": 804,
      "ven": 805,
      "Ġar": 806,
      "ound": 807,
      "ĠThat": 808,
      "ort": 809,
      "Ġnow": 810,
      "air": 811,
      "ies": 812,
      "Ġtakes": 813,
      "Ġfl": 814,
      "Ġen": 815,
      "Ġcon": 816,
      "Ġface": 817,
      "eps": 818,
      "Ġtime": 819,
      "Ġph": 820,
      "ree": 821,
      "Ġrun": 822,
      "ELLO": 823,
      "Ġgun": 824,
      "Ġeyes": 825,
      "Ġsa": 826,
      "ĉHe": 827,
      "be": 828,
      "ud": 829,
      "ps": 830,
      "Ġcr": 831,
      "ans": 832,
      "Ġqu": 833,
      "ild": 834,
      "ĠSOM": 835,
      "omet": 836,
      ")ĊĊ": 837,
      "Ġway": 838,
      "Ġwind": 839,
      "Ġcont": 840,
      "Ġac": 841,
      "EXT": 842,
      "ark": 843,
      "NE": 844,
      "te": 845,
      "ĠĠĠĠĠĠĠĠĠĠĠĠĠĠĠĠĠĠĠĠĠĠĠĠĠĠĠ": 846,
      "AG": 847,
      "ile": 848,
      "NY": 849,
      "Ġhold": 850,
      "ĠWh": 851,
      "ERSET": 852,
      "ĠSOMERSET": 853,
      "LER": 854,
      "eo": 855,
      "Ġclo": 856,
      "ble": 857,
      "tle": 858,
      "ang": 859,
      "Ġgl": 860,
      "ins": 861,
      "Ġlight": 862,
      "Ġstart": 863,
      "ĠMILL": 864,
      ":ĊĊ": 865,
      "Ġwould": 866,
      "ĠBr": 867,
      "ĠThis": 868,
      "Ġhad": 869,
      "OPER": 870,
      "ĠMILLS": 871,
      "ĠCOOPER": 872,
      "ICE": 873,
      "ĠTY": 874,
      "ross": 875,
      "IL": 876,
      "ĠĠĠĠĠĠĠĠĠĠĠĠĠĠĠĠĠĠĠĠĠĠĠĠĠĠĠĠĠĠĠĠĠ": 877,
      "age": 878,
      "Ġsomet": 879,
      "ub": 880,
      "Ġwill": 881,
      "ĉw": 882,
      "Ġpe": 883,
      "ĠTYLER": 884,
      "Ġte": 885,
      "Ġcould": 886,
      "ys": 887,
      "ets": 888,
      "Ġunder": 889,
      "Ġtwo": 890,
      "ife": 891,
      "ress": 892,
      "Ġbr": 893,
      "INC": 894,
      "ONE": 895,
      "here": 896,
      "ĉMICHAEL": 897,
      "ĉD": 898,
      ".ĊĊĊ": 899,
      "ĉs": 900,
      "ite": 901,
      "ance": 902,
      "Ġevery": 903,
      "Ġwork": 904,
      "hind": 905,
      "ious": 906,
      "oll": 907,
      "ĠOF": 908,
      "ment": 909,
      "ĠTHE": 910,
      "ĠAN": 911,
      "Ġdoes": 912,
      "iz": 913,
      "Ġtoward": 914,
      "ause": 915,
      "OUSE": 916,
      "Ġwhen": 917,
      "-ĊĊ": 918,
      "UM": 919,
      "Ġsits": 920,
      "Ġhands": 921,
      "reat": 922,
      "Ġwere": 923,
      "Ġpulls": 924,
      "Ġneed": 925,
      "ĉthe": 926,
      "imp": 927,
      "thing": 928,
      "Ġgr": 929,
      "ave": 930,
      "ĠCobb": 931,
      "Ġstands": 932,
      "ĠĠĠĠĠĠĠĠĠĠĠĠĠ": 933,
      "Ġsomething": 934,
      "ĉY": 935,
      "ops": 936,
      "UL": 937,
      "Ġke": 938,
      "RA": 939,
      "co": 940,
      "ather": 941,
      "STELLO": 942,
      "IE": 943,
      "Ġnever": 944,
      "IS": 945,
      "Ġput": 946,
      "orn": 947,
      "ĠCOSTELLO": 948,
      "'d": 949,
      "CONTINUED": 950,
      "ue": 951,
      "Ġmore": 952,
      "Ġent": 953,
      "rying": 954,
      "Ġsw": 955,
      "Ġche": 956,
      "Ġem": 957,
      "ĉRED": 958,
      "Ġtalk": 959,
      "Ġwall": 960,
      "ĠMar": 961,
      "ĠROOM": 962,
      "ĉB": 963,
      "ĉf": 964,
      "Ġfind": 965,
      "Ġstill": 966,
      "Ġlooking": 967,
      "ople": 968,
      "ber": 969,
      "iss": 970,
      "INCENT": 971,
      "hen": 972,
      "Ġspe": 973,
      "Ġblack": 974,
      "pl": 975,
      "ĠDO": 976,
      "ĠVINCENT": 977,
      "ost": 978,
      "Ġwatch": 979,
      "ĠCONTINU": 980,
      "Ġsteps": 981,
      "IR": 982,
      "YN": 983,
      "Ġtell": 984,
      "Ġlong": 985,
      "Ġbeg": 986,
      "Ġbehind": 987,
      "Ġlit": 988,
      "Ġbel": 989,
      "ces": 990,
      "ft": 991,
      "oun": 992,
      "ĠCONTINUOUS": 993,
      "ĠCAR": 994,
      "--------": 995,
      "ears": 996,
      "fter": 997,
      "Ġflo": 998,
      "iles": 999,
      "na": 1000,
      "ph": 1001,
      "ren": 1002,
      "Ġgood": 1003,
      "Ġfront": 1004,
      "ĊĠĠĠĠĠĠĠĠĠĠĠĠĠĠĠĠĠĠĠĠĠĠĠĠĠĊ": 1005,
      "Ġtoo": 1006,
      "ĠSo": 1007,
      "ĠMr": 1008,
      "ĠBR": 1009,
      "Ġbu": 1010,
      "Ġmake": 1011,
      "ĠTO": 1012,
      "AB": 1013,
      "pt": 1014,
      "Ġold": 1015,
      "OLYN": 1016,
      "ĉh": 1017,
      "ĠThere": 1018,
      "ane": 1019,
      "os": 1020,
      "Ġcome": 1021,
      "orm": 1022,
      "la": 1023,
      "Ġopens": 1024,
      "ĉc": 1025,
      "ouse": 1026,
      "cent": 1027,
      "Ġtake": 1028,
      "ĠBO": 1029,
      "Cobb": 1030,
      "ream": 1031,
      "ĠHOUSE": 1032,
      "Ġtable": 1033,
      "ich": 1034,
      "enny": 1035,
      "Ġshould": 1036,
      "bs": 1037,
      "oth": 1038,
      "irst": 1039,
      "aring": 1040,
      "Ġbed": 1041,
      "Ġgra": 1042,
      "ĠJenny": 1043,
      "Ġphone": 1044,
      "isc": 1045,
      "ump": 1046,
      "Ġlet": 1047,
      "ĠIn": 1048,
      "Ġpr": 1049,
      "ĉb": 1050,
      "Ġtra": 1051,
      "Ġcall": 1052,
      "Ġgets": 1053,
      "Ġwhere": 1054,
      "LA": 1055,
      "ĠSt": 1056,
      "cks": 1057,
      "ALL": 1058,
      "fore": 1059,
      "ug": 1060,
      "Ġside": 1061,
      "act": 1062,
      "sh": 1063,
      "ITY": 1064,
      "ign": 1065,
      "Ġlittle": 1066,
      "Ġhow": 1067,
      "ash": 1068,
      "Ġmoves": 1069,
      "ee": 1070,
      "Ġmen": 1071,
      "Ġwindow": 1072,
      "ĠĠĠĠĠĠĠĠĠĠĠĠĠĠĠĠĠĠĠĠĠĠĠĠĠĠĠĠĠĠ": 1073,
      ".S": 1074,
      "ĠU": 1075,
      "ester": 1076,
      "ons": 1077,
      "ĠSH": 1078,
      "ERB": 1079,
      "TH": 1080,
      "eaton": 1081,
      "Ġdr": 1082,
      "Ġdes": 1083,
      "Ġreal": 1084,
      "EO": 1085,
      "ens": 1086,
      "ooks": 1087,
      "¿½": 1088,
      "ï¿½": 1089,
      "ĠQ": 1090,
      "Ġï¿½": 1091,
      "ARD": 1092,
      "Ġpeople": 1093,
      "xt": 1094,
      "ĉm": 1095,
      "Ġsit": 1096,
      "Ġstre": 1097,
      "VE": 1098,
      "wn": 1099,
      "Ġour": 1100,
      "hed": 1101,
      "ĠCh": 1102,
      "Ġfloor": 1103,
      "ough": 1104,
      "ĠMAR": 1105,
      "up": 1106,
      "Ġbus": 1107,
      "ĠMAN": 1108,
      "================": 1109,
      "den": 1110,
      "ULES": 1111,
      "ICK": 1112,
      "ily": 1113,
      "Ġonly": 1114,
      "ĠJULES": 1115,
      "aking": 1116,
      "Ġgoes": 1117,
      ".\"": 1118,
      "IC": 1119,
      "ESTER": 1120,
      "ah": 1121,
      "igh": 1122,
      "ĊĠĠĠĠĠĠĠĠĠĠĊ": 1123,
      "Ġhel": 1124,
      "Ġhapp": 1125,
      "sp": 1126,
      "Ġdis": 1127,
      "...Ċ": 1128,
      "ĠAndy": 1129,
      "Ġfoll": 1130,
      "ated": 1131,
      "ĠLESTER": 1132,
      "ATER": 1133,
      "Ġclos": 1134,
      "ĉd": 1135,
      "Ġapp": 1136,
      "ĠIf": 1137,
      "Ġpre": 1138,
      "Ġtri": 1139,
      "Ġbet": 1140,
      "Ġfirst": 1141,
      "Ġsur": 1142,
      "Ġmom": 1143,
      "Ġread": 1144,
      "Ġacross": 1145,
      "ĉYou": 1146,
      "ĉF": 1147,
      "ĉEXT": 1148,
      "Ġbefore": 1149,
      "Ġrem": 1150,
      "Ġpick": 1151,
      "OUN": 1152,
      ".)": 1153,
      "ling": 1154,
      "rth": 1155,
      "Ġdri": 1156,
      "onna": 1157,
      "ĠOFF": 1158,
      "rthur": 1159,
      "Ġam": 1160,
      "ĊĊĊ": 1161,
      "Ġstarts": 1162,
      "ath": 1163,
      "Ġinside": 1164,
      "ĠHow": 1165,
      "ĠBrand": 1166,
      "ence": 1167,
      "ĠĠĠĠĠĠĠĠĠĠĠĠĠĠĠĠĠĠĠĠĠĠĠĠĠĠĠĠĠĠĠĠĠĠ": 1168,
      "ĠMc": 1169,
      "ĠCOR": 1170,
      "Ġdidn": 1171,
      "cause": 1172,
      "Ġwr": 1173,
      "Ġwait": 1174,
      "ĠĠĠĠĠĠĠĠĠĠĠĠĠĠĠĠĠĠĠĠĠĠĠĠĠĠĠĠĠĠĠĠĠĠĠĠĠĠĠĠĠĠĠĠĠĠĠĠ": 1175,
      "ĠAn": 1176,
      "ĠKeaton": 1177,
      "ischer": 1178,
      ":Ċ": 1179,
      "ION": 1180,
      "Ġcomes": 1181,
      "Ġagainst": 1182,
      "ew": 1183,
      "ike": 1184,
      "ger": 1185,
      "Ġday": 1186,
      "ĠCH": 1187,
      "ĠThen": 1188,
      "Ġanother": 1189,
      "ope": 1190,
      "CT": 1191,
      "ls": 1192,
      "oot": 1193,
      "Ġsees": 1194,
      "Ġarm": 1195,
      "aches": 1196,
      "Ġdead": 1197,
      "HER": 1198,
      "orp": 1199,
      "Ġgonna": 1200,
      "Ġstare": 1201,
      "ĠNeo": 1202,
      "Ġwatches": 1203,
      "The": 1204,
      "Ġstr": 1205,
      "ods": 1206,
      "ĠHis": 1207,
      "ANDY": 1208,
      "ĠBRAND": 1209,
      "ear": 1210,
      "eah": 1211,
      "get": 1212,
      "ock": 1213,
      "Ġvery": 1214,
      "ish": 1215,
      "11": 1216,
      "ail": 1217,
      "Ġhimself": 1218,
      "ĉNEO": 1219,
      "ĠButch": 1220,
      "ning": 1221,
      "Ġhouse": 1222,
      "oney": 1223,
      "ĉp": 1224,
      "ĉANDY": 1225,
      "Ġfall": 1226,
      "ames": 1227,
      "Ġshit": 1228,
      "Ġmoment": 1229,
      "ator": 1230,
      "Ġthan": 1231,
      "ĠVin": 1232,
      "RIAD": 1233,
      "ĠMcM": 1234,
      "Ġplace": 1235,
      "Ġsaid": 1236,
      "Ġbegins": 1237,
      "-Ċ": 1238,
      "Ġlife": 1239,
      "ĠAR": 1240,
      "ĠARIAD": 1241,
      "ĉĉĉĠ": 1242,
      "AGEN": 1243,
      "ĠARIADNE": 1244,
      "ia": 1245,
      "ASH": 1246,
      "AIN": 1247,
      "av": 1248,
      "ines": 1249,
      "Ġhear": 1250,
      "ĠBU": 1251,
      "AP": 1252,
      "erb": 1253,
      "ool": 1254,
      "ĠWell": 1255,
      "Ġeach": 1256,
      "ĠLATER": 1257,
      "ID": 1258,
      "ĠNot": 1259,
      "ions": 1260,
      "Ġcomp": 1261,
      "Ġruns": 1262,
      "Ġfin": 1263,
      "ade": 1264,
      "Ġholds": 1265,
      "MENT": 1266,
      "UE": 1267,
      "cy": 1268,
      "we": 1269,
      "Ġthing": 1270,
      "ORP": 1271,
      "Ġnew": 1272,
      "ied": 1273,
      "uch": 1274,
      "ought": 1275,
      "Ġsmiles": 1276,
      "OD": 1277,
      "kay": 1278,
      "ĉAnd": 1279,
      "fe": 1280,
      "ĉG": 1281,
      "Ġpart": 1282,
      "ĠBUT": 1283,
      "ĠDon": 1284,
      "ONNY": 1285,
      "Ġtrying": 1286,
      "nds": 1287,
      "Ġyears": 1288,
      "Ġnext": 1289,
      "Ġlau": 1290,
      "ĉMORP": 1291,
      "HEUS": 1292,
      "ĉMORPHEUS": 1293,
      "VER": 1294,
      "tain": 1295,
      "Ġnods": 1296,
      "outh": 1297,
      "ART": 1298,
      "WN": 1299,
      "aw": 1300,
      "ise": 1301,
      "Ġpass": 1302,
      "Ġgi": 1303,
      "ĠHO": 1304,
      "Ġeven": 1305,
      "ĠNow": 1306,
      "Ġfeel": 1307,
      "ose": 1308,
      "Ġdark": 1309,
      "Ġpoin": 1310,
      "Ġbig": 1311,
      "ĠCUT": 1312,
      "ĠMI": 1313,
      "ĠAs": 1314,
      "ek": 1315,
      "Ġafter": 1316,
      "Ġstops": 1317,
      "Ġonto": 1318,
      "ĠRed": 1319,
      "riad": 1320,
      "aito": 1321,
      "erbal": 1322,
      "EAT": 1323,
      "__": 1324,
      "Ġbody": 1325,
      "IM": 1326,
      "reen": 1327,
      "Ġcle": 1328,
      "ates": 1329,
      "Ġkill": 1330,
      "STER": 1331,
      "ERBAL": 1332,
      "ĠVincent": 1333,
      "Ġad": 1334,
      "Ġnight": 1335,
      "ĠDON": 1336,
      "ĠFR": 1337,
      "ĠĠĠĠĠĠĠĠĠĠĠĠĠĠĠĠĠĠĠĠĠĠĠ": 1338,
      "ĠVERBAL": 1339,
      "denly": 1340,
      "riadne": 1341,
      "led": 1342,
      "Ġ'": 1343,
      "heus": 1344,
      "Ġhu": 1345,
      "Ġplay": 1346,
      "aces": 1347,
      "Ġsmall": 1348,
      "ĠOFFICE": 1349,
      "orpheus": 1350,
      "ĠTra": 1351,
      "ary": 1352,
      "LEONE": 1353,
      "ĠWhy": 1354,
      "ĠCORLEONE": 1355,
      "ial": 1356,
      "Ġdra": 1357,
      "Ġass": 1358,
      "Ġseem": 1359,
      "icky": 1360,
      "Ġfeet": 1361,
      "Ġfuckin": 1362,
      "Ġstreet": 1363,
      "ness": 1364,
      "ANE": 1365,
      "rin": 1366,
      "Ġmuch": 1367,
      "ange": 1368,
      "ĠMAD": 1369,
      "airs": 1370,
      "ible": 1371,
      "ng": 1372,
      "ove": 1373,
      "ĉy": 1374,
      "Ġthr": 1375,
      "Ġguy": 1376,
      "ĠDoe": 1377,
      "94": 1378,
      "Ġsk": 1379,
      "Ġfight": 1380,
      "Ġlist": 1381,
      "Ġname": 1382,
      "ict": 1383,
      "Ġdoesn": 1384,
      "THUR": 1385,
      "ICKY": 1386,
      "ĠARTHUR": 1387,
      "ĠMADOLYN": 1388,
      "ord": 1389,
      "ĠBL": 1390,
      "ĠRICKY": 1391,
      "ĠMARLA": 1392,
      "Ġstares": 1393,
      "body": 1394,
      "aybe": 1395,
      "Ġdoing": 1396,
      "Ġalong": 1397,
      "Ġanything": 1398,
      "ĠBUTCH": 1399,
      "ĠSM": 1400,
      "ENNY": 1401,
      "room": 1402,
      "ORN": 1403,
      "ĉNeo": 1404,
      "Ġcontin": 1405,
      "Ġbuild": 1406,
      "oly": 1407,
      "ĠJENNY": 1408,
      "Ġblood": 1409,
      "gent": 1410,
      "iet": 1411,
      "Ġ...": 1412,
      "Ġever": 1413,
      "ĠLO": 1414,
      "Ġputs": 1415,
      "RIN": 1416,
      "Ġbre": 1417,
      "ved": 1418,
      "Ġhome": 1419,
      "Ġpap": 1420,
      "stand": 1421,
      "ĠMarla": 1422,
      "ix": 1423,
      "Ġimp": 1424,
      "ating": 1425,
      "Ġdream": 1426,
      "Ġlast": 1427,
      "Ġgive": 1428,
      "ster": 1429,
      "orry": 1430,
      "ĠBe": 1431,
      "Ġship": 1432,
      "Ġask": 1433,
      "ieve": 1434,
      "ho": 1435,
      "ze": 1436,
      "Ġbar": 1437,
      "UMP": 1438,
      "Ġkeep": 1439,
      "ZZ": 1440,
      "Ġown": 1441,
      "Ġhard": 1442,
      "Ġthings": 1443,
      "ĠFischer": 1444,
      "ĠVerbal": 1445,
      "Ġmove": 1446,
      "Ġleft": 1447,
      "ĉDON": 1448,
      "head": 1449,
      "atch": 1450,
      "Ġdist": 1451,
      "ened": 1452,
      "Ġpain": 1453,
      "Ġsure": 1454,
      "ASE": 1455,
      "ĠANG": 1456,
      "ĠTracy": 1457,
      "45": 1458,
      "lev": 1459,
      "Ġits": 1460,
      "ĠLester": 1461,
      "Ġmean": 1462,
      "ELA": 1463,
      "Ġemp": 1464,
      "gs": 1465,
      "mer": 1466,
      "ĠĠĠĠĠĠĠĠĠĠĠĠĠĠĠĠĠĠĠĠ": 1467,
      "Ġcoun": 1468,
      "ĠCol": 1469,
      "ĠOh": 1470,
      "EATON": 1471,
      "aves": 1472,
      "ject": 1473,
      "ues": 1474,
      "Ġdro": 1475,
      "ĠSP": 1476,
      "vel": 1477,
      "ĠGod": 1478,
      "ĉTRIN": 1479,
      "app": 1480,
      "ĠKEATON": 1481,
      "ĉTRINITY": 1482,
      "Ġmoney": 1483,
      "ĠTRA": 1484,
      "ĠSC": 1485,
      "ĠDan": 1486,
      "ful": 1487,
      "Ġ#": 1488,
      "Ġsn": 1489,
      "Ġfing": 1490,
      "Ġmouth": 1491,
      "ides": 1492,
      "Ġfrie": 1493,
      "Ġlaugh": 1494,
      "Ġap": 1495,
      "owing": 1496,
      "umb": 1497,
      "Ġglass": 1498,
      "Ġtowards": 1499,
      "iness": 1500,
      "Ġthree": 1501,
      "Ġthought": 1502,
      "ĠAP": 1503,
      "Ġstop": 1504,
      "Ġatt": 1505,
      "ANCE": 1506,
      "Ġjob": 1507,
      "Ġwhich": 1508,
      "Ġbox": 1509,
      "ROOM": 1510,
      "Ġhelp": 1511,
      "olyn": 1512,
      "LY": 1513,
      "iv": 1514,
      "ĠTH": 1515,
      "ANT": 1516,
      "ESS": 1517,
      "rom": 1518,
      "uff": 1519,
      "Ġpol": 1520,
      "ORT": 1521,
      "ĠSTRE": 1522,
      "UJ": 1523,
      "itc": 1524,
      "arge": 1525,
      "Ġexp": 1526,
      "ĠCONTINUED": 1527,
      "ĠWho": 1528,
      "ĉl": 1529,
      "Ġrest": 1530,
      "Ġnothing": 1531,
      "ĉHAGEN": 1532,
      "ips": 1533,
      "ĉO": 1534,
      "Ġsame": 1535,
      "Ġreaches": 1536,
      "ENZ": 1537,
      "ung": 1538,
      "Ġ--ĊĊ": 1539,
      "Ġplan": 1540,
      "ways": 1541,
      "Ġfew": 1542,
      "the": 1543,
      "Ġfar": 1544,
      "Ġpie": 1545,
      "omm": 1546,
      "ĠYeah": 1547,
      "Ġwhy": 1548,
      "aps": 1549,
      "Ġworld": 1550,
      "ĠSTREET": 1551,
      "KS": 1552,
      "read": 1553,
      "ĠSA": 1554,
      "ĉAndy": 1555,
      "UJAN": 1556,
      "ĉL": 1557,
      "ĉg": 1558,
      "ĠZ": 1559,
      "Ġsil": 1560,
      "Ġreally": 1561,
      "Ġhole": 1562,
      "Ġenters": 1563,
      "iver": 1564,
      "ted": 1565,
      "Ġpast": 1566,
      "Ġend": 1567,
      "irt": 1568,
      "ĠKUJAN": 1569,
      "Ġpicks": 1570,
      "rinity": 1571,
      "Ġwom": 1572,
      "ENAN": 1573,
      "ĠOne": 1574,
      "ITE": 1575,
      "Ġwater": 1576,
      "ĉSONNY": 1577,
      "Ġbelieve": 1578,
      "Ġdesk": 1579,
      "ĠQUE": 1580,
      "ĠQUEENAN": 1581,
      "EY": 1582,
      "his": 1583,
      "Ġhang": 1584,
      "Ġper": 1585,
      "ower": 1586,
      "ĉWhat": 1587,
      "SE": 1588,
      "ner": 1589,
      "Ġmind": 1590,
      "ork": 1591,
      "ances": 1592,
      "ĠJANE": 1593,
      "ILD": 1594,
      "Ġgrabs": 1595,
      "06": 1596,
      "ĉand": 1597,
      "Ġim": 1598,
      "Ġser": 1599,
      "Ġsorry": 1600,
      "Ġmade": 1601,
      "anus": 1602,
      "Ġpus": 1603,
      "ĠYes": 1604,
      "Ġoutside": 1605,
      "OTEL": 1606,
      "10": 1607,
      "FT": 1608,
      "MAT": 1609,
      "der": 1610,
      "oh": 1611,
      "Ġice": 1612,
      "Ġwon": 1613,
      "ises": 1614,
      "Ġcare": 1615,
      "Ġwell": 1616,
      "ĠEvery": 1617,
      "Ġguys": 1618,
      "ier": 1619,
      "old": 1620,
      "Ġcop": 1621,
      "Ġfather": 1622,
      "Ġempty": 1623,
      "DER": 1624,
      "OW": 1625,
      "WO": 1626,
      "Ġfam": 1627,
      "ors": 1628,
      "iling": 1629,
      "artment": 1630,
      "RIX": 1631,
      "Ġclose": 1632,
      "GENT": 1633,
      "IVE": 1634,
      "ever": 1635,
      "yle": 1636,
      "Ġair": 1637,
      "ĠSh": 1638,
      "ĠHE": 1639,
      "ĠAll": 1640,
      "leep": 1641,
      "ĠRicky": 1642,
      "ĠGet": 1643,
      "MATRIX": 1644,
      "OV": 1645,
      "OICE": 1646,
      "ANK": 1647,
      "ĠHey": 1648,
      "ARTMENT": 1649,
      "IO": 1650,
      "com": 1651,
      "ib": 1652,
      "less": 1653,
      "sw": 1654,
      "Ġthese": 1655,
      "Ġtold": 1656,
      "ĠMICHAEL": 1657,
      "OUNG": 1658,
      "Ġact": 1659,
      "Ġsound": 1660,
      "Ġbull": 1661,
      "Ġbag": 1662,
      "Ġhigh": 1663,
      "igare": 1664,
      "Ġchair": 1665,
      "AMES": 1666,
      "Ġstanding": 1667,
      ".\"ĊĊ": 1668,
      "igaret": 1669,
      "Ġcur": 1670,
      "Ġcorn": 1671,
      "Ġfire": 1672,
      "ater": 1673,
      "Ġlot": 1674,
      "ĠSE": 1675,
      "ĠArthur": 1676,
      "Ġste": 1677,
      "imes": 1678,
      "ĠWhere": 1679,
      "Ġshot": 1680,
      "ATION": 1681,
      "Ġslow": 1682,
      "Ġenough": 1683,
      "ĉP": 1684,
      "ĠON": 1685,
      "ening": 1686,
      "ĠJane": 1687,
      "Ġel": 1688,
      "amn": 1689,
      "Ġcoming": 1690,
      "Ġfucking": 1691,
      "Ġbusiness": 1692,
      "form": 1693,
      "of": 1694,
      "Ġmet": 1695,
      "ĠSaito": 1696,
      "ĠMy": 1697,
      "ĠFAB": 1698,
      "ĠYOUNG": 1699,
      "illy": 1700,
      "unk": 1701,
      "Ġwhite": 1702,
      "ĉThey": 1703,
      "ĠĠĠ": 1704,
      "Ġbit": 1705,
      "Ġhur": 1706,
      "Ġfree": 1707,
      "ĠCase": 1708,
      "ĠWhen": 1709,
      "ĠJust": 1710,
      "amp": 1711,
      "ressed": 1712,
      "aut": 1713,
      "ying": 1714,
      "arolyn": 1715,
      "ĠĠĠĠĠĠĠĠĠĠĠĠĠĠĠĠĠĠĠĠĠĠĠĠĠĠĠĠĠĠĠĠĠĠĠĠĠĠĠĠĠĠĠĠĠĠĠĠĠĠĠĠĠĠĠĠĠĠĠ": 1716,
      "Ġbeat": 1717,
      "Ġkid": 1718,
      "Ġseco": 1719,
      "ules": 1720,
      "ĉWe": 1721,
      "Ġseems": 1722,
      "ohn": 1723,
      "az": 1724,
      "ian": 1725,
      "oc": 1726,
      "Ġsign": 1727,
      "Ġwar": 1728,
      "Ġbook": 1729,
      "Ġmakes": 1730,
      "lease": 1731,
      "Ġseat": 1732,
      "Ġlead": 1733,
      "ĉIt": 1734,
      "Ġspeak": 1735,
      "ĠCAROLYN": 1736,
      "Ġbetter": 1737,
      "Ġpaper": 1738,
      "13": 1739,
      "WAY": 1740,
      "ĉin": 1741,
      "ĠHOTEL": 1742,
      "ĠDE": 1743,
      "Ġbecause": 1744,
      "ĠLet": 1745,
      "pped": 1746,
      "Ġboat": 1747,
      "Ġcontro": 1748,
      "Ġeverything": 1749,
      "Ġtries": 1750,
      "ENZA": 1751,
      "MENZA": 1752,
      "til": 1753,
      "wo": 1754,
      "ĉto": 1755,
      "Ġbot": 1756,
      "atter": 1757,
      "Ġmin": 1758,
      "ĠSm": 1759,
      "ĠMORN": 1760,
      "ĠBAR": 1761,
      "ENCH": 1762,
      "ards": 1763,
      "LEMENZA": 1764,
      "URN": 1765,
      "ĠMORNING": 1766,
      "OLL": 1767,
      "over": 1768,
      "ru": 1769,
      "Ġset": 1770,
      "Ġcase": 1771,
      "ĠMur": 1772,
      "ching": 1773,
      "ices": 1774,
      "ĠOn": 1775,
      "ield": 1776,
      "ITH": 1777,
      "ember": 1778,
      "Ġsays": 1779,
      "Ġcrow": 1780,
      "Ġholding": 1781,
      "Ġunderstand": 1782,
      "Ġdrink": 1783,
      "Ġbreak": 1784,
      "io": 1785,
      "res": 1786,
      "Ġhal": 1787,
      "Ġcell": 1788,
      "Ġstra": 1789,
      "veal": 1790,
      "ident": 1791,
      "cept": 1792,
      "Ġred": 1793,
      "ĠPR": 1794,
      "ĠEAMES": 1795,
      "ello": 1796,
      "Ġfollow": 1797,
      "ĠMcManus": 1798,
      "ĠAPARTMENT": 1799,
      "ĠMurph": 1800,
      "IP": 1801,
      "IEN": 1802,
      "ok": 1803,
      "Ġain": 1804,
      "Ġcigaret": 1805,
      "Ġtop": 1806,
      "Ġline": 1807,
      "ĠCost": 1808,
      "Ġstay": 1809,
      "ical": 1810,
      "ĉAGENT": 1811,
      "Ġeye": 1812,
      "ubb": 1813,
      "light": 1814,
      "ory": 1815,
      "Ġrel": 1816,
      "Ġshr": 1817,
      "Ġansw": 1818,
      "ĠGump": 1819,
      "Ġleans": 1820,
      "IGN": 1821,
      "Ġsupp": 1822,
      "Ġalways": 1823,
      "ures": 1824,
      "Ġquick": 1825,
      "Ġlights": 1826,
      "gether": 1827,
      "Ġcontinues": 1828,
      "Ġbuilding": 1829,
      "Ġwoman": 1830,
      "12": 1831,
      "SP": 1832,
      "pe": 1833,
      "uf": 1834,
      "ĉK": 1835,
      "ĠEN": 1836,
      "Ġfound": 1837,
      "Ġdone": 1838,
      "ĠMal": 1839,
      "ĠBRO": 1840,
      "ĠJohn": 1841,
      "Ġsho": 1842,
      "Ġleave": 1843,
      "Ġtalking": 1844,
      "Ġwatching": 1845,
      "----------------": 1846,
      "Ġbad": 1847,
      "Ġthose": 1848,
      "Ġbeing": 1849,
      "================================": 1850,
      "Ġwaiting": 1851,
      "ĠANGELA": 1852,
      "ACE": 1853,
      "UG": 1854,
      "most": 1855,
      "ned": 1856,
      "Ġsqu": 1857,
      "Ġbreat": 1858,
      "Ġcent": 1859,
      "ĠIs": 1860,
      "Ġground": 1861,
      "Ġhell": 1862,
      "Ġear": 1863,
      "vers": 1864,
      "Ġrock": 1865,
      "Ġboy": 1866,
      "ĉyou": 1867,
      "CY": 1868,
      "oin": 1869,
      "ror": 1870,
      "Ġide": 1871,
      "iny": 1872,
      "Ġhit": 1873,
      "Ġgone": 1874,
      "ĠDAN": 1875,
      "ĠJules": 1876,
      "ries": 1877,
      "ĠVOICE": 1878,
      "Ġabove": 1879,
      "Ġroll": 1880,
      "Ġgives": 1881,
      "ĠFRENCH": 1882,
      "HN": 1883,
      "OHN": 1884,
      "bo": 1885,
      "ms": 1886,
      "rist": 1887,
      "ction": 1888,
      "Ġsub": 1889,
      "ffee": 1890,
      "Arthur": 1891,
      "Ġcut": 1892,
      "Ġmight": 1893,
      "ĠMorpheus": 1894,
      "Ġheard": 1895,
      "ĠLI": 1896,
      "ĠLT": 1897,
      "rie": 1898,
      "Ġchild": 1899,
      "Ġclim": 1900,
      "Ġlove": 1901,
      "ĠĠĠĠĠĠĠĠĠĠĠĠĠĠĠĠĠĠĠĠĠĠĠĠĠĠĠĠĠĠĠ": 1902,
      "ĠFABIEN": 1903,
      "ĠFABIENNE": 1904,
      "Ġfoot": 1905,
      "Ġlarge": 1906,
      "Ġgir": 1907,
      "Ġyoung": 1908,
      "ĠAriadne": 1909,
      "ĠLook": 1910,
      "ĠPRI": 1911,
      "erson": 1912,
      "OMAN": 1913,
      "ATE": 1914,
      "ape": 1915,
      "Ġfalls": 1916,
      "ween": 1917,
      "ECT": 1918,
      "ced": 1919,
      "cle": 1920,
      "ds": 1921,
      "ret": 1922,
      "ĠMan": 1923,
      "ĠNew": 1924,
      "ITO": 1925,
      "ney": 1926,
      "Ġsitting": 1927,
      "DY": 1928,
      "Ġboth": 1929,
      "Ġcross": 1930,
      "Ġfast": 1931,
      "ĠĠĠĠĠĠĠĠĠĠĠĠĠĠĠĠĠĠĠĠĠĠĠĠĠĠĠĠĠĠĠĠĠĠĠĠĠĠĠĠĠĠĠĠĠĠĠĠĠĠĠĠĠĠĠĠĠĠĠĠ": 1932,
      "Ġinc": 1933,
      "sell": 1934,
      "Ġreveal": 1935,
      "Ġshut": 1936,
      "Ġcoll": 1937,
      "ĠDoyle": 1938,
      "Ġfriend": 1939,
      "not": 1940,
      "Ġson": 1941,
      "Ġdif": 1942,
      "Ġmass": 1943,
      "Ġlay": 1944,
      "ĠSome": 1945,
      "ĠBilly": 1946,
      "ĠCOM": 1947,
      "ĠRE": 1948,
      "Ġseen": 1949,
      "Ġwhile": 1950,
      "Ġoffice": 1951,
      "ĉShe": 1952,
      "feren": 1953,
      "Ġidea": 1954,
      "66": 1955,
      "ĉe": 1956,
      "ndred": 1957,
      "Ġcour": 1958,
      "Ġcame": 1959,
      "Ġfive": 1960,
      "ony": 1961,
      "Ġtogether": 1962,
      "ĠSe": 1963,
      "ĠMOM": 1964,
      "ĠMAL": 1965,
      "Ġrad": 1966,
      "ute": 1967,
      "ants": 1968,
      "Ġmoving": 1969,
      "Ġothers": 1970,
      "Ġsomeone": 1971,
      "anks": 1972,
      "ĠSAITO": 1973,
      "Ġelse": 1974,
      "Ġcre": 1975,
      "att": 1976,
      "Ġshakes": 1977,
      "ADE": 1978,
      "Ġcoffee": 1979,
      "Ġtruck": 1980,
      "orton": 1981,
      "itchen": 1982,
      "Ġcrowd": 1983,
      "cess": 1984,
      "no": 1985,
      "Ġtou": 1986,
      "ense": 1987,
      "Ġgreat": 1988,
      "ĠĠĠĠĠĠĠĠĠĠĠĠĠĠĠĠĠĠĠĠĠĠĠĠĠĠĠĠĠĠĠĠĠĠĠĠĠĠĠĠĠĠĠĠĠĠĠĠĠĠĠĠĠĠĠĠĠĠĠĠĠĠĠĠĠĠ": 1989,
      "ĠAfter": 1990,
      "ĠJOHN": 1991,
      "acks": 1992,
      "ĠLt": 1993,
      "Ġkick": 1994,
      "Ġgetting": 1995,
      "Ġsud": 1996,
      "Ġheads": 1997,
      "Ġphot": 1998,
      "uddenly": 1999,
      "ĠMIA": 2000,
      "Ġcorner": 2001,
      "dy": 2002,
      "ond": 2003,
      "Ġwent": 2004,
      "Ġdet": 2005,
      "arb": 2006,
      "ĠHALL": 2007,
      "ERA": 2008,
      "Ġresp": 2009,
      "Ġalone": 2010,
      "Ġslowly": 2011,
      "Ġhalf": 2012,
      "ĠCostello": 2013,
      "-l": 2014,
      "-p": 2015,
      "ax": 2016,
      "day": 2017,
      "ipp": 2018,
      "ition": 2019,
      "Ġfill": 2020,
      "Ġmir": 2021,
      "Ġmust": 2022,
      "ents": 2023,
      "ently": 2024,
      "ĠRe": 2025,
      "Ġvan": 2026,
      "Ġscreen": 2027,
      "hole": 2028,
      "-f": 2029,
      "ey": 2030,
      "ually": 2031,
      "where": 2032,
      "Ġhall": 2033,
      "Ġmiss": 2034,
      "ORE": 2035,
      "CHER": 2036,
      "Ġtrain": 2037,
      "Ġwrong": 2038,
      "Ġpoints": 2039,
      "Ġfamily": 2040,
      "Ġsecond": 2041,
      "ĠBROWN": 2042,
      "SER": 2043,
      "Ġsir": 2044,
      "Ġwife": 2045,
      "Ġbra": 2046,
      "Ġdire": 2047,
      "oof": 2048,
      "Ġkitchen": 2049,
      "ITCH": 2050,
      "UNT": 2051,
      "Ġuntil": 2052,
      "Ġfollows": 2053,
      "Ġbetween": 2054,
      "levator": 2055,
      "Ġpolice": 2056,
      "yp": 2057,
      "Ġtry": 2058,
      "Ġland": 2059,
      "Ġpa": 2060,
      "vered": 2061,
      "ĠDIGN": 2062,
      "ĠFIT": 2063,
      "ANG": 2064,
      "ANUS": 2065,
      "ĠRoth": 2066,
      "Ġkiss": 2067,
      "ENTS": 2068,
      "aught": 2069,
      "Ġworm": 2070,
      "Ġdec": 2071,
      "ĉKAY": 2072,
      "ĠDIGNAM": 2073,
      "OZZ": 2074,
      "cur": 2075,
      "Ġmother": 2076,
      "ĠSU": 2077,
      "ĠAl": 2078,
      "ĠWOMAN": 2079,
      "Ġrec": 2080,
      "umber": 2081,
      "Ġpock": 2082,
      "ĠBUILD": 2083,
      "OLLOZZ": 2084,
      "OLLOZZO": 2085,
      "UARD": 2086,
      "ging": 2087,
      "ired": 2088,
      "so": 2089,
      "Ġokay": 2090,
      "ision": 2091,
      "Ġhum": 2092,
      "Ġcra": 2093,
      "Ġmot": 2094,
      "Ġonce": 2095,
      "Ġshow": 2096,
      "ĠOkay": 2097,
      "Ġyourself": 2098,
      "ations": 2099,
      "Ġrunning": 2100,
      "AGE": 2101,
      "Ġshoulder": 2102,
      "sellus": 2103,
      "IST": 2104,
      "Ġtight": 2105,
      "Ġball": 2106,
      "Ġint": 2107,
      "ERN": 2108,
      "Ġelevator": 2109,
      "Ġkind": 2110,
      "Ġknew": 2111,
      "Ġspace": 2112,
      "OTH": 2113,
      "Ġboys": 2114,
      "Ġquiet": 2115,
      "ĠMarsellus": 2116,
      "ĠChrist": 2117,
      "ĠĠĠĠĠĠĠĠĠĠĠĠĠĠĠĠĠĠĠĠĠĠĠĠĠĠĠĠĠĠĠĠĠĠĠĠĠĠĠĠĠĠĠĠĠĠĠĠĠ": 2118,
      "Ġhundred": 2119,
      "Ġapartment": 2120,
      "ĠMOMENTS": 2121,
      "ITCHEN": 2122,
      "ĠBUILDING": 2123,
      "Lester": 2124,
      "oice": 2125,
      "ta": 2126,
      "Ġtiny": 2127,
      "ering": 2128,
      "Ġfull": 2129,
      "Ġpict": 2130,
      "ĠCome": 2131,
      "ĠMia": 2132,
      "ley": 2133,
      "ESE": 2134,
      "Ġalmost": 2135,
      "Ġused": 2136,
      "Ġproble": 2137,
      "orning": 2138,
      "Ġbelow": 2139,
      "Ġhappened": 2140,
      "Ġremember": 2141,
      "ĠSMITH": 2142,
      "Ġcigarette": 2143,
      "55": 2144,
      "OOT": 2145,
      "ched": 2146,
      "ges": 2147,
      "man": 2148,
      "zz": 2149,
      "Ġed": 2150,
      "ĠUN": 2151,
      "Ġsch": 2152,
      "Ġstairs": 2153,
      "ams": 2154,
      "Ġwithout": 2155,
      "ĠPH": 2156,
      "Ġleaves": 2157,
      "ĉRed": 2158,
      "Ġwouldn": 2159,
      "Ġfinds": 2160,
      "ĠMcMANUS": 2161,
      "ĠMISTER": 2162,
      "Ġdifferen": 2163,
      "14": 2164,
      "He": 2165,
      "aving": 2166,
      "br": 2167,
      "Ġcap": 2168,
      "arm": 2169,
      "ĠĠĠĠĠĠĠĠĠĠĠĠĠĠĠĠĠĠĠĠĠĠĠĠĠĠĠĠĠĠĠĠĠĠĠĠĠĠĠĠĠĠĠĠĠĠĠĠĠĠĠ": 2170,
      "Ġinst": 2171,
      "INE": 2172,
      "alm": 2173,
      "ĠFIS": 2174,
      "ention": 2175,
      "Ġforward": 2176,
      "ifts": 2177,
      "Ġwasn": 2178,
      "Ġknows": 2179,
      "aul": 2180,
      "Ġwheel": 2181,
      "Ġeng": 2182,
      "ĠTRACY": 2183,
      "Ġplanet": 2184,
      "ered": 2185,
      "gr": 2186,
      "ĉa": 2187,
      "ĉst": 2188,
      "erv": 2189,
      "Ġben": 2190,
      "Ġcops": 2191,
      "ats": 2192,
      "ones": 2193,
      "Ġlow": 2194,
      "ĠAre": 2195,
      "ots": 2196,
      "ĠDET": 2197,
      "Ġrob": 2198,
      "ĠGUMP": 2199,
      "iew": 2200,
      "Ġwhole": 2201,
      "Ġarms": 2202,
      "Ġfinger": 2203,
      "ubba": 2204,
      "IF": 2205,
      "YLE": 2206,
      "cer": 2207,
      "ged": 2208,
      "oke": 2209,
      "oss": 2210,
      "off": 2211,
      "use": 2212,
      "Ġce": 2213,
      "ĠTars": 2214,
      "ĠBURN": 2215,
      "Ġisn": 2216,
      "Ġref": 2217,
      "enty": 2218,
      "ATH": 2219,
      "Ġmost": 2220,
      "Ġglances": 2221,
      "Ġbegin": 2222,
      "____": 2223,
      "Ġquickly": 2224,
      "ĠFISCHER": 2225,
      "AIR": 2226,
      "HAM": 2227,
      "SON": 2228,
      "Ġter": 2229,
      "Ġpark": 2230,
      "ĠMEN": 2231,
      "ĠBED": 2232,
      "imm": 2233,
      "Ġwearing": 2234,
      "onel": 2235,
      "lock": 2236,
      "abin": 2237,
      "ĉNo": 2238,
      "ELLOW": 2239,
      "Ġquest": 2240,
      "Ġworking": 2241,
      "ĠUP": 2242,
      "ĠColonel": 2243,
      "Ġsuddenly": 2244,
      "ĉof": 2245,
      "Ġsleep": 2246,
      "Ġob": 2247,
      "Ġbath": 2248,
      "Ġhot": 2249,
      "orr": 2250,
      "ĠTwo": 2251,
      "ĠCASE": 2252,
      "ĠĠĠĠĠĠĠĠĠĠĠĠĠĠĠĠĠĠĠĠĠĠĠĠĠĠĠĠĠĠĠĠĠĠĠĠĠĠĠĠĠĠĠĠĠĠĠĠĠĠĠĠĠĠĠĠĠĠĠĠĠĠĠĠĠ": 2253,
      "ĠBubba": 2254,
      "ĠAgent": 2255,
      "Ġuse": 2256,
      "Ġrep": 2257,
      "ĠYELLOW": 2258,
      "ĠGood": 2259,
      "ATOR": 2260,
      "Ġroad": 2261,
      "Ġdoors": 2262,
      "ages": 2263,
      "ĉCLEMENZA": 2264,
      "ize": 2265,
      "Ġcloses": 2266,
      "Ġappro": 2267,
      "ĠBLACK": 2268,
      "Ġdrops": 2269,
      "ORTON": 2270,
      "Ġwormhole": 2271,
      "-b": 2272,
      "dle": 2273,
      "ĉhe": 2274,
      "Ġcir": 2275,
      "Ġcity": 2276,
      "Ġpay": 2277,
      "Ġind": 2278,
      "ĠMaybe": 2279,
      "ĠAt": 2280,
      "Ġstaring": 2281,
      "Ġret": 2282,
      "Ġmeet": 2283,
      "ĉTANK": 2284,
      "LEY": 2285,
      "Ġdeep": 2286,
      "LOW": 2287,
      "Ġtrans": 2288,
      "Ġconf": 2289,
      "meric": 2290,
      "Ġpushes": 2291,
      "AK": 2292,
      "PHER": 2293,
      "uj": 2294,
      "Ġtaking": 2295,
      "ison": 2296,
      "ised": 2297,
      "Ġfig": 2298,
      "Ġperson": 2299,
      "arr": 2300,
      "ĠCON": 2301,
      "ARS": 2302,
      "usuf": 2303,
      "aken": 2304,
      "Ġsuit": 2305,
      "Ġguess": 2306,
      "Ġprobe": 2307,
      "Ġclear": 2308,
      "AC": 2309,
      "Eames": 2310,
      "MER": 2311,
      "ci": 2312,
      "ives": 2313,
      "ĉJ": 2314,
      "Ġsing": 2315,
      "Ġsix": 2316,
      "eside": 2317,
      "ital": 2318,
      "Ġfour": 2319,
      "Ġmur": 2320,
      "ĠTV": 2321,
      "ĠCan": 2322,
      "ĠMR": 2323,
      "ird": 2324,
      "ĠKe": 2325,
      "ĠKITCHEN": 2326,
      "INTER": 2327,
      "Ġsmile": 2328,
      "ĠDOYLE": 2329,
      "osed": 2330,
      "ockney": 2331,
      "Ġschool": 2332,
      "ĠBURNHAM": 2333,
      "cious": 2334,
      "Ġbro": 2335,
      "Ġbest": 2336,
      "Ġbooks": 2337,
      "Ġdie": 2338,
      "ĠCELL": 2339,
      "ĠSL": 2340,
      "Ġstud": 2341,
      "als": 2342,
      "ĠDid": 2343,
      "LLERB": 2344,
      "ĠELLERB": 2345,
      "Ġnotices": 2346,
      "Ġcons": 2347,
      "Ġcheck": 2348,
      "ugs": 2349,
      "Ġready": 2350,
      "UGH": 2351,
      "ĠELLERBY": 2352,
      "TAIN": 2353,
      "WINTER": 2354,
      "oy": 2355,
      "Ġcou": 2356,
      "Ġmar": 2357,
      "Ġmach": 2358,
      "Ġnumber": 2359,
      "Ġra": 2360,
      "Ġdoll": 2361,
      "ĠLA": 2362,
      "irty": 2363,
      "ĠPL": 2364,
      "Ġhair": 2365,
      "ĉThat": 2366,
      "gela": 2367,
      "ared": 2368,
      "Ġmany": 2369,
      "ours": 2370,
      "ized": 2371,
      "phone": 2372,
      "autif": 2373,
      "Ġshrimp": 2374,
      "Ġanswer": 2375,
      "ĠEND": 2376,
      "Ġgirl": 2377,
      "Ġdirect": 2378,
      "ujan": 2379,
      "15": 2380,
      "Ariadne": 2381,
      "SH": 2382,
      "come": 2383,
      "ten": 2384,
      "ĊĊĊĊ": 2385,
      "Ġsy": 2386,
      "Ġmid": 2387,
      "ĠTrinity": 2388,
      "Ġpan": 2389,
      "Ġgrou": 2390,
      "Ġinter": 2391,
      "ĠBE": 2392,
      "IND": 2393,
      "ĠHockney": 2394,
      "Ġstep": 2395,
      "ĠWH": 2396,
      "ĠWOL": 2397,
      "Ġrain": 2398,
      "ĠYour": 2399,
      "Ġnear": 2400,
      "Ġlies": 2401,
      "ully": 2402,
      "urns": 2403,
      "Ġcompl": 2404,
      "ular": 2405,
      "Ġwanted": 2406,
      "Ġsaw": 2407,
      "ĠBrown": 2408,
      "Ġspeed": 2409,
      "Ġcloser": 2410,
      "Ġdraw": 2411,
      "ready": 2412,
      "ĠDETECT": 2413,
      "ĠBEDROOM": 2414,
      "damn": 2415,
      "pr": 2416,
      "pause": 2417,
      "Ġaw": 2418,
      "ert": 2419,
      "Ġmon": 2420,
      "ĠTOM": 2421,
      "ĠCL": 2422,
      "ĠBob": 2423,
      "ĠFuck": 2424,
      "ift": 2425,
      "used": 2426,
      "ĉMorpheus": 2427,
      "UND": 2428,
      "Ġenvel": 2429,
      "Ġsweat": 2430,
      "Ġcalled": 2431,
      "Ġreads": 2432,
      "ĠSmith": 2433,
      "Ġcenter": 2434,
      "ĠPRISON": 2435,
      "Ġproblem": 2436,
      ".A": 2437,
      "face": 2438,
      "ĉbe": 2439,
      "Ġten": 2440,
      "Ġfore": 2441,
      "Ġmorning": 2442,
      "Ġgas": 2443,
      "ĠCLO": 2444,
      "Ġweek": 2445,
      "ically": 2446,
      "ably": 2447,
      "ĉth": 2448,
      "Ġwalking": 2449,
      "ASS": 2450,
      "Ġclot": 2451,
      "ĠQue": 2452,
      "Ġfinally": 2453,
      "Ġstraight": 2454,
      "Ġchildren": 2455,
      "-s": 2456,
      "IA": 2457,
      "PH": 2458,
      "fort": 2459,
      "mb": 2460,
      "ple": 2461,
      "ual": 2462,
      "Ġinform": 2463,
      "ĠSuddenly": 2464,
      "ĠJIM": 2465,
      "ĠROTH": 2466,
      "ilt": 2467,
      "iously": 2468,
      "ĠAND": 2469,
      "ĠBecause": 2470,
      "ĠDECK": 2471,
      "Ġmirror": 2472,
      "curity": 2473,
      "ding": 2474,
      "ither": 2475,
      "Ġfield": 2476,
      "Ġmaybe": 2477,
      "Ġpower": 2478,
      "Ġstick": 2479,
      "ĠFL": 2480,
      "ARY": 2481,
      "ĠEX": 2482,
      "ĠOL": 2483,
      "els": 2484,
      "ĠCOLON": 2485,
      "Ġflash": 2486,
      ":ĊĊĊ": 2487,
      "ĠMrs": 2488,
      "OUND": 2489,
      "ĠNothing": 2490,
      "ommy": 2491,
      "ĠMRS": 2492,
      "25": 2493,
      "UD": 2494,
      "UF": 2495,
      "YPHER": 2496,
      "men": 2497,
      "Ġsink": 2498,
      "Ġbur": 2499,
      "Ġbeside": 2500,
      "esc": 2501,
      "Ġdressed": 2502,
      "ĠTom": 2503,
      "Ġpar": 2504,
      "Ġpack": 2505,
      "ete": 2506,
      "ĠMay": 2507,
      "Ġreg": 2508,
      "unch": 2509,
      "ĠOUT": 2510,
      "arth": 2511,
      "Ġscream": 2512,
      "Ġbring": 2513,
      "ĠDOE": 2514,
      "ĠUn": 2515,
      "Ġfinis": 2516,
      "ĠSCRE": 2517,
      "Ġlaughs": 2518,
      "rief": 2519,
      "autiful": 2520,
      "right": 2521,
      "Ġhits": 2522,
      "Ġcatch": 2523,
      "Ġfre": 2524,
      "Ġmatter": 2525,
      "ĠMAIN": 2526,
      "ĠBACK": 2527,
      "Ġroof": 2528,
      "uth": 2529,
      "ĠLANCE": 2530,
      "Ġform": 2531,
      "aked": 2532,
      "ĠKujan": 2533,
      "umps": 2534,
      "ETT": 2535,
      "Ġalready": 2536,
      "Ġago": 2537,
      "ĉCYPHER": 2538,
      "Ġwindows": 2539,
      "NEY": 2540,
      "Ġentire": 2541,
      "Ġcount": 2542,
      "ĠColin": 2543,
      "Ġpocket": 2544,
      "Ġedge": 2545,
      "Ġdifferent": 2546,
      "Fischer": 2547,
      "GE": 2548,
      "PT": 2549,
      "bit": 2550,
      "ince": 2551,
      "Ġcol": 2552,
      "Ġcars": 2553,
      "atches": 2554,
      "Ġlate": 2555,
      "ĠWith": 2556,
      "OND": 2557,
      "urch": 2558,
      "ĠNITE": 2559,
      "uses": 2560,
      "Ġlive": 2561,
      "Ġliving": 2562,
      "ITAL": 2563,
      "Ġlegs": 2564,
      "onth": 2565,
      "ĉAgent": 2566,
      "ĠSomet": 2567,
      "OTHER": 2568,
      "Ġlock": 2569,
      "ĉwith": 2570,
      "ĠHOSP": 2571,
      "Ġpiece": 2572,
      "Ġcontrol": 2573,
      "Ġmassive": 2574,
      "Ġradio": 2575,
      "ĠDETECTIVE": 2576,
      "49": 2577,
      "fully": 2578,
      "Ġhor": 2579,
      "Ġdin": 2580,
      "Ġgre": 2581,
      "ĠFin": 2582,
      "ĠEx": 2583,
      "ĠGo": 2584,
      "ĉTrinity": 2585,
      "obody": 2586,
      "log": 2587,
      "ousand": 2588,
      "Ġposs": 2589,
      "Ġwalls": 2590,
      "ĠSoze": 2591,
      "Ġfingers": 2592,
      "Ġphoto": 2593,
      "Ġenvelope": 2594,
      "ĠQueen": 2595,
      "OON": 2596,
      "aur": 2597,
      "cons": 2598,
      "uc": 2599,
      "Ġwa": 2600,
      "Ġfun": 2601,
      "Ġfood": 2602,
      "Ġmess": 2603,
      "orle": 2604,
      "ĠAny": 2605,
      "ĠDe": 2606,
      "uter": 2607,
      "Ġres": 2608,
      "Ġreach": 2609,
      "ĠNorton": 2610,
      "ĠYork": 2611,
      "ĠPOV": 2612,
      "ĉNORTON": 2613,
      "ĠĠĠĠĠĠĠĠĠĠĊĠĠĠĠĠĠĠĠĠĠĊĠĠĠĠĠĠĠĠĠĠĊ": 2614,
      "Ġtears": 2615,
      "Ġclean": 2616,
      "Ġhuge": 2617,
      "Ġbreath": 2618,
      "Ġcourse": 2619,
      "ĠHOSPITAL": 2620,
      "ĠQueenan": 2621,
      "ACH": 2622,
      "EP": 2623,
      "OB": 2624,
      "nding": 2625,
      "Ġmonth": 2626,
      "any": 2627,
      "ĠCarolyn": 2628,
      "ĠĠĠĠĠĠĠĠĠĠĠĠĠĠĠĠĠĠĠĠĠĠĠĠĠĠĠĠĠĠĠĠĠĠĠĠĠĠĠĠĠĠĠĠĠĠĠĠĠĠĠĠĠĠĠ": 2629,
      "ĠBUS": 2630,
      "ĠDR": 2631,
      "Ġev": 2632,
      "ĠNE": 2633,
      "amm": 2634,
      "top": 2635,
      "ract": 2636,
      "Ġkne": 2637,
      "ately": 2638,
      "Ġscr": 2639,
      "Ġspec": 2640,
      "Ġtook": 2641,
      "Ġpoint": 2642,
      "Ġthrows": 2643,
      "Ġhangs": 2644,
      "oking": 2645,
      "She": 2646,
      "ex": 2647,
      "Ġtimes": 2648,
      "ery": 2649,
      "Ġcreat": 2650,
      "esus": 2651,
      "Ġfine": 2652,
      "Ġmain": 2653,
      "asy": 2654,
      "ERI": 2655,
      "Ġequ": 2656,
      "ooking": 2657,
      "Ġreas": 2658,
      "Ġweap": 2659,
      "CKNEY": 2660,
      "ried": 2661,
      "INGS": 2662,
      "ELD": 2663,
      "aby": 2664,
      "Ġwants": 2665,
      "Ġshel": 2666,
      "Ġgotta": 2667,
      "Ġclub": 2668,
      "ĠĠĠĠĠĠĠĠĠĠĊĠĠĠĠĠĠĠĠĠĠĊĠĠĠĠĠĠĠĠĠĠĊĠĠĠĠĠĠĠĠĠĠĊ": 2669,
      "Ġchecks": 2670,
      "ĉhis": 2671,
      "Ġdrive": 2672,
      "Ġdarkness": 2673,
      "Ġfilled": 2674,
      "Ġgroup": 2675,
      "20": 2676,
      "46": 2677,
      "OU": 2678,
      "Saito": 2679,
      "ĉse": 2680,
      "ĠĠĠĠĠĠĠĠĠĠĠĠĠĠĠĠĠĠĠĠĠ": 2681,
      "ined": 2682,
      "Ġfur": 2683,
      "Ġfif": 2684,
      "Ġdep": 2685,
      "Ġmus": 2686,
      "ĠTell": 2687,
      "ĠĠĠĠĠĠĠĠĠĠĠĠĠĠĠĠĠĠĠĠĠĠĠĠĠĠĠĠĠĠĠĠĠĠĠĠĠĠĠĠĠĠĠĠĠĠĠĠĠĠĠĠĠĠĠĠĠĠĠĠĠĠĠĠĠĠĠĠ": 2688,
      "Ġthousand": 2689,
      "ĠME": 2690,
      "Ġnice": 2691,
      "ĠAmeric": 2692,
      "ĠWill": 2693,
      "ĠFr": 2694,
      "adley": 2695,
      "utes": 2696,
      "ĠPAR": 2697,
      "ĠEames": 2698,
      "Ġplane": 2699,
      "Ġchar": 2700,
      "Ġcomm": 2701,
      "acing": 2702,
      "AMP": 2703,
      "Ġdeal": 2704,
      "Ġacc": 2705,
      "Ġdays": 2706,
      "ĠHOCKNEY": 2707,
      "ĠSPACE": 2708,
      "WOOD": 2709,
      "Ġbottle": 2710,
      "orleone": 2711,
      "Carolyn": 2712,
      "RU": 2713,
      "eople": 2714,
      "Ġdou": 2715,
      "Ġmag": 2716,
      "Ġlets": 2717,
      "enster": 2718,
      "ĠTo": 2719,
      "Ġpad": 2720,
      "Ġyear": 2721,
      "ĠHAGEN": 2722,
      "ĠFIR": 2723,
      "ĠCOP": 2724,
      "Ġshoo": 2725,
      "ĠPOL": 2726,
      "URANCE": 2727,
      "Ġview": 2728,
      "Ġgrand": 2729,
      "Ġkeeps": 2730,
      "upid": 2731,
      "Ġsurface": 2732,
      "Ġpainting": 2733,
      "Ġpieces": 2734,
      "Ġleads": 2735,
      "Ġclimbs": 2736,
      "Ġbathroom": 2737,
      "ĠENDURANCE": 2738,
      "ĠWOLF": 2739,
      "conscious": 2740,
      "-d": 2741,
      "AST": 2742,
      "OKS": 2743,
      "TER": 2744,
      "ead": 2745,
      "more": 2746,
      "ton": 2747,
      "wood": 2748,
      "zen": 2749,
      "ĉE": 2750,
      "Ġahead": 2751,
      "Ġbrief": 2752,
      "Ġfile": 2753,
      "Ġhears": 2754,
      "ĠBATH": 2755,
      "ĠFI": 2756,
      "ĠJimm": 2757,
      "Ġbeer": 2758,
      "Ġbeautiful": 2759,
      "Ġrif": 2760,
      "amed": 2761,
      "Ġsear": 2762,
      "ief": 2763,
      "ains": 2764,
      "ists": 2765,
      "Ġdef": 2766,
      "Ġvoice": 2767,
      "ĉSOLLOZZO": 2768,
      "Ġcovered": 2769,
      "ĠThank": 2770,
      "Ġpulling": 2771,
      "ABIN": 2772,
      "Ġprot": 2773,
      "ugg": 2774,
      "Ġpret": 2775,
      "IDE": 2776,
      "ĠHEAR": 2777,
      "Ġbullet": 2778,
      "Ġsupposed": 2779,
      "Ġshoes": 2780,
      "Ġcrew": 2781,
      "Ġmachine": 2782,
      "!Ċ": 2783,
      "-h": 2784,
      "-t": 2785,
      "CO": 2786,
      "SS": 2787,
      "VING": 2788,
      "case": 2789,
      "fuck": 2790,
      "uit": 2791,
      "uct": 2792,
      "ĉre": 2793,
      "Ġbas": 2794,
      "Ġhope": 2795,
      "Ġcalm": 2796,
      "Ġmill": 2797,
      "Ġpri": 2798,
      "ĠCAP": 2799,
      "Ġins": 2800,
      "Ġinte": 2801,
      "ĠSp": 2802,
      "Ġthick": 2803,
      "Ġheav": 2804,
      "stem": 2805,
      "ĠBl": 2806,
      "lect": 2807,
      "ĠDad": 2808,
      "Ġeat": 2809,
      "ĠYUS": 2810,
      "ĠRED": 2811,
      "Ġang": 2812,
      "ified": 2813,
      "Ġgod": 2814,
      "Ġjack": 2815,
      "Ġcover": 2816,
      "Ġpos": 2817,
      "Ġsaying": 2818,
      "ILES": 2819,
      "Ġcouldn": 2820,
      "ĉsh": 2821,
      "Ġdisapp": 2822,
      "Ġstrange": 2823,
      "Ġkilled": 2824,
      "levision": 2825,
      "EYWOOD": 2826,
      "ĠSEC": 2827,
      "ĠPRES": 2828,
      "Ġrevealing": 2829,
      "ĠFITZ": 2830,
      "Ġpicture": 2831,
      "ĠPHONE": 2832,
      "ĠPOLICE": 2833,
      "ĠYUSUF": 2834,
      "ULL": 2835,
      "ball": 2836,
      "cing": 2837,
      "fect": 2838,
      "ping": 2839,
      "Ġ|": 2840,
      "Ġtre": 2841,
      "eral": 2842,
      "Ġbare": 2843,
      "Ġcard": 2844,
      "onight": 2845,
      "Ġtow": 2846,
      "ĠTWO": 2847,
      "Ġgave": 2848,
      "Ġrises": 2849,
      "ĠGUN": 2850,
      "ĠGUARD": 2851,
      "ĉthat": 2852,
      "ĉIn": 2853,
      "Ġpulled": 2854,
      "Ġthinking": 2855,
      "ĠSTATION": 2856,
      "Ġtwenty": 2857,
      "Ġload": 2858,
      "Ġprob": 2859,
      "Ġtelevision": 2860,
      "ĠCHIN": 2861,
      "Ġcomputer": 2862,
      "Ġlistening": 2863,
      "Ġdistance": 2864,
      "Ġpretty": 2865,
      "ĠFITZY": 2866,
      "47": 2867,
      "OUT": 2868,
      "PLO": 2869,
      "die": 2870,
      "Ġz": 2871,
      "Ġtaken": 2872,
      "Ġcup": 2873,
      "onny": 2874,
      "Ġmaking": 2875,
      "Ġlaw": 2876,
      "enant": 2877,
      "Ġpat": 2878,
      "Ġyell": 2879,
      "Ġheart": 2880,
      "ĠAT": 2881,
      "ims": 2882,
      "utenant": 2883,
      "Ġshad": 2884,
      "Ġshows": 2885,
      "Ġshirt": 2886,
      "Ġmeans": 2887,
      "ieutenant": 2888,
      "ĉHEYWOOD": 2889,
      "RID": 2890,
      "Ġboard": 2891,
      "Ġanyone": 2892,
      "Ġlost": 2893,
      "Ġenter": 2894,
      "Ġemb": 2895,
      "Ġprom": 2896,
      "Ġsky": 2897,
      "Ġcounter": 2898,
      "ĠEveryone": 2899,
      "board": 2900,
      "ĠCOMP": 2901,
      "ipping": 2902,
      "Ġengine": 2903,
      "Ġmiddle": 2904,
      "ael": 2905,
      "ule": 2906,
      "ĠĠĠĠĠĠĠĠĠĠĠĠĠĠĠĠĠĠĠĠĠĠĠĠĠĠĠĠĠĠĠĠĠĠĠĠĠĠĠĠĠĠĠĠĠĠ": 2907,
      "Ġsun": 2908,
      "Ġwood": 2909,
      "Ġwild": 2910,
      "Ġcool": 2911,
      "Ġfly": 2912,
      "Ġfaces": 2913,
      "Ġdel": 2914,
      "Ġdang": 2915,
      "Ġtoss": 2916,
      "Ġlater": 2917,
      "Ġpun": 2918,
      "ĠSONNY": 2919,
      "ĠFenster": 2920,
      "iding": 2921,
      "ĠLike": 2922,
      "ĠGu": 2923,
      "USK": 2924,
      "Ġneck": 2925,
      "astic": 2926,
      "Ġword": 2927,
      "ement": 2928,
      "Ġcold": 2929,
      "Ġcarrying": 2930,
      "Ġsomebody": 2931,
      "Ġproject": 2932,
      "resses": 2933,
      "Ġchest": 2934,
      "ichael": 2935,
      "Ġpres": 2936,
      "Ġsurround": 2937,
      "Ġbott": 2938,
      "Ġcrosses": 2939,
      "ypher": 2940,
      "Ġcirc": 2941,
      "ĠCOLONEL": 2942,
      "BO": 2943,
      "LES": 2944,
      "MAN": 2945,
      "SC": 2946,
      "gan": 2947,
      "ient": 2948,
      "kes": 2949,
      "oon": 2950,
      "ped": 2951,
      "walk": 2952,
      "ĉV": 2953,
      "Ġ/": 2954,
      "Ġesc": 2955,
      "into": 2956,
      "Ġburn": 2957,
      "Ġdad": 2958,
      "Ġplease": 2959,
      "ĠĠĠĠĠĠĠĠĠĠĠĠĠĠĠĠĠĠĠĠĠĠĠĠĠĠĠĠĠĠĠĠĠĠĠĠĠĠĠĠĠĠĠĠĠĠĠĠĠĠĠĠĠĠĠĠĠ": 2960,
      "Ġyet": 2961,
      "Ġstupid": 2962,
      "ĠDRI": 2963,
      "roll": 2964,
      "Ġ--Ċ": 2965,
      "ility": 2966,
      "Ġsoon": 2967,
      "Ġhosp": 2968,
      "selves": 2969,
      "ĠSTAIR": 2970,
      "play": 2971,
      "ĉhim": 2972,
      "Ġprison": 2973,
      "Ġminutes": 2974,
      "Ġmonit": 2975,
      "Ġreason": 2976,
      "ĠCHINESE": 2977,
      "Ġhospital": 2978,
      ",\"": 2979,
      "AUL": 2980,
      "DIE": 2981,
      "HOUSE": 2982,
      "NIE": 2983,
      "RED": 2984,
      "TS": 2985,
      "father": 2986,
      "ien": 2987,
      "ks": 2988,
      "ken": 2989,
      "ns": 2990,
      "ron": 2991,
      "ters": 2992,
      "yer": 2993,
      "Ġbaby": 2994,
      "Ġtoday": 2995,
      "Ġmark": 2996,
      "Ġstri": 2997,
      "Ġrat": 2998,
      "ENE": 2999,
      "antly": 3000,
      "Ġplaces": 3001,
      "olice": 3002,
      "AMA": 3003,
      "Ġsold": 3004,
      "URCH": 3005,
      "ffic": 3006,
      "Ġtruth": 3007,
      "Ġsafe": 3008,
      "Ġeveryone": 3009,
      "izes": 3010,
      "ĠDOOR": 3011,
      "Ġbuilt": 3012,
      "Ġhappen": 3013,
      "Ġclosed": 3014,
      "Ġkids": 3015,
      "Ġhuman": 3016,
      "Ġquestion": 3017,
      "MY": 3018,
      "vice": 3019,
      "ĉis": 3020,
      "ĉit": 3021,
      "Ġwra": 3022,
      "Ġcam": 3023,
      "ited": 3024,
      "Ġdest": 3025,
      "anna": 3026,
      "ĠCITY": 3027,
      "Ġthough": 3028,
      "ĠMUR": 3029,
      "leas": 3030,
      "ĠDav": 3031,
      "ĠWE": 3032,
      "ĠFrom": 3033,
      "Ġeither": 3034,
      "veral": 3035,
      "ĠHell": 3036,
      "ĠLieutenant": 3037,
      "ĠELE": 3038,
      "arden": 3039,
      "Ġleg": 3040,
      "Ġleaving": 3041,
      "vest": 3042,
      "Ġable": 3043,
      "ult": 3044,
      "ĉThere": 3045,
      "UMB": 3046,
      "IEW": 3047,
      "ĉBut": 3048,
      "ĠBOY": 3049,
      "ĉdo": 3050,
      "Ġsurpr": 3051,
      "Ġwrit": 3052,
      "Ġfeels": 3053,
      "Ġsilence": 3054,
      "ĠHALLWAY": 3055,
      "Ġceiling": 3056,
      "Ġhotel": 3057,
      "Ġdollars": 3058,
      "Ġclothes": 3059,
      "-c": 3060,
      "UP": 3061,
      "just": 3062,
      "work": 3063,
      "zy": 3064,
      "int": 3065,
      "inal": 3066,
      "Ġsight": 3067,
      "Ġwound": 3068,
      "Ġble": 3069,
      "atri": 3070,
      "Ġless": 3071,
      "orts": 3072,
      "ĠCap": 3073,
      "ĠCorleone": 3074,
      "ooth": 3075,
      "ĠAFT": 3076,
      "ashes": 3077,
      "Ġrope": 3078,
      "Ġrece": 3079,
      "ĠLou": 3080,
      "ĠPlease": 3081,
      "ushes": 3082,
      "Ġspl": 3083,
      "Ġmyself": 3084,
      "ĉHow": 3085,
      "AMERA": 3086,
      "Ġexam": 3087,
      "ROUND": 3088,
      "Ġthinks": 3089,
      "eath": 3090,
      "Ġart": 3091,
      "Ġkey": 3092,
      "Ġemer": 3093,
      "IRL": 3094,
      "ĠCHURCH": 3095,
      "Ġadd": 3096,
      "Ġfriends": 3097,
      "Ġexplo": 3098,
      "Ġrolls": 3099,
      "ĠLIVING": 3100,
      "SERT": 3101,
      "ERNOON": 3102,
      "Ġcaptain": 3103,
      "ervous": 3104,
      "Ġparked": 3105,
      "Ġsingle": 3106,
      "Ġsystem": 3107,
      "ĠSCREAM": 3108,
      "ĠBATHROOM": 3109,
      "ĠAFTERNOON": 3110,
      "ale": 3111,
      "gn": 3112,
      "ric": 3113,
      "ured": 3114,
      "Ġtun": 3115,
      "Ġtest": 3116,
      "Ġwaves": 3117,
      "Ġbank": 3118,
      "itch": 3119,
      "Ġfil": 3120,
      "Ġpen": 3121,
      "Ġpur": 3122,
      "ĠCAL": 3123,
      "Ġnumb": 3124,
      "Ġstack": 3125,
      "ĠWIND": 3126,
      "ĠLooks": 3127,
      "ĠYusuf": 3128,
      "USH": 3129,
      "Ġwhis": 3130,
      "Ġmod": 3131,
      "Ġblue": 3132,
      "ADLEY": 3133,
      "ĉThen": 3134,
      "OLD": 3135,
      "Ġteam": 3136,
      "Ġgrav": 3137,
      "actly": 3138,
      "ashi": 3139,
      "ĠAngela": 3140,
      "ĠSMASH": 3141,
      "Ġminute": 3142,
      "Ġfigure": 3143,
      "Ġdirectly": 3144,
      "Ġcomplete": 3145,
      "ĠFinally": 3146,
      "ĠJimmie": 3147,
      "Ġrifle": 3148,
      "Ġbottom": 3149,
      "EK": 3150,
      "HUNT": 3151,
      "IER": 3152,
      "IAL": 3153,
      "gu": 3154,
      "lf": 3155,
      "ma": 3156,
      "nel": 3157,
      "rit": 3158,
      "ray": 3159,
      "Ġtub": 3160,
      "inc": 3161,
      "Ġsol": 3162,
      "era": 3163,
      "ero": 3164,
      "Ġfat": 3165,
      "ĠIS": 3166,
      "ĠCR": 3167,
      "ĠCal": 3168,
      "ĠMomm": 3169,
      "Ġnervous": 3170,
      "Ġstuff": 3171,
      "ald": 3172,
      "ĠDELA": 3173,
      "ĠJesus": 3174,
      "uts": 3175,
      "amb": 3176,
      "ĠRob": 3177,
      "ĠPro": 3178,
      "ĠPres": 3179,
      "ĠEL": 3180,
      "ctor": 3181,
      "ĉTOM": 3182,
      "Ġknock": 3183,
      "Ġchang": 3184,
      "ipes": 3185,
      "ipment": 3186,
      "Ġexits": 3187,
      "ective": 3188,
      "Ġguns": 3189,
      "Ġcrack": 3190,
      "ISS": 3191,
      "umbles": 3192,
      "Ġsteel": 3193,
      "Ġhurt": 3194,
      "ĠCAPTAIN": 3195,
      "ĠMomma": 3196,
      "ĠDELAHUNT": 3197,
      ".V": 3198,
      "18": 3199,
      "MORE": 3200,
      "SUM": 3201,
      "UC": 3202,
      "bing": 3203,
      "cre": 3204,
      "de": 3205,
      "hy": 3206,
      "iam": 3207,
      "Ġill": 3208,
      "Ġsent": 3209,
      "oud": 3210,
      "Ġcabin": 3211,
      "Ġfact": 3212,
      "ative": 3213,
      "ĠĠĠĠĠĠĠĠĠĠĠĠĠĠĠĠĠĠĠĠĠĠĠĠĠĠĠĠĠĠĠĠĠĠĠĠĠĠĠĠĠĠĠĠĠĠĠĠĠĠĠĠĠĠĠĠĠĠĠĠĠĠĠĠ": 3214,
      "Ġinv": 3215,
      "eth": 3216,
      "Ġriver": 3217,
      "ENS": 3218,
      "ĠRun": 3219,
      "roat": 3220,
      "iform": 3221,
      "icro": 3222,
      "ĠVAN": 3223,
      "ĉHADLEY": 3224,
      "Ġblind": 3225,
      "Ġdeck": 3226,
      "Ġalive": 3227,
      "Ġsoft": 3228,
      "Ġorbit": 3229,
      "ires": 3230,
      "ortant": 3231,
      "Ġbedroom": 3232,
      "ĠSHOT": 3233,
      "Ġhappy": 3234,
      "Ġdrives": 3235,
      "Ġstrugg": 3236,
      "inese": 3237,
      "Ġdrag": 3238,
      "Ġcontinue": 3239,
      "ĠLOU": 3240,
      "Ġdrop": 3241,
      "Ġattention": 3242,
      "Ġimm": 3243,
      "Ġrespect": 3244,
      "Ġpauses": 3245,
      "Ġrecord": 3246,
      "ĠKeys": 3247,
      "Ġbroken": 3248,
      "Ġequipment": 3249,
      "Ġinterest": 3250,
      "atrix": 3251,
      "SUMMER": 3252,
      "30": 3253,
      "65": 3254,
      "?\"": 3255,
      "An": 3256,
      "Ricky": 3257,
      "lass": 3258,
      "pers": 3259,
      "sm": 3260,
      "ye": 3261,
      "Ġ+": 3262,
      "Ġtonight": 3263,
      "ination": 3264,
      "Ġopp": 3265,
      "Ġhon": 3266,
      "Ġlim": 3267,
      "Ġlifts": 3268,
      "ĠĠĠĠĠĠĠĠĠĠĠĠĠĠĠĠĠĠĠĠĠĠĠĠĠĠĠĠĠĠĠĠĠĠĠĠĠĠĠĠĠĠĠĠĠĠĠĠĠĠ": 3269,
      "ĠĠĠĠĠĠĠĠĠĠĠĠĠĠĠĠĠĠĠĠĠĠĠĠĠĠĠĠĠĠĠĠĠĠĠĠĠĠĠĠĠĠĠĠĠĠĠĠĠĠĠĠĠĠĠĠĠĠ": 3270,
      "ĠSN": 3271,
      "ĠSOUND": 3272,
      "ĠMUS": 3273,
      "oose": 3274,
      "ĠAIR": 3275,
      "ĠWait": 3276,
      "ĠFab": 3277,
      "Ġrear": 3278,
      "ĠLE": 3279,
      "Ġshake": 3280,
      "ĠPUMP": 3281,
      "ific": 3282,
      "ilit": 3283,
      "Ġcannot": 3284,
      "oles": 3285,
      "RIPT": 3286,
      "Ġdeath": 3287,
      "obby": 3288,
      "Ġsheet": 3289,
      "Ġanymore": 3290,
      "Ġscen": 3291,
      "Ġbright": 3292,
      "Ġbrings": 3293,
      "Ġolder": 3294,
      "ĠChinese": 3295,
      "Ġbarre": 3296,
      "ĠTRAIN": 3297,
      "ESSIO": 3298,
      "ibly": 3299,
      "Ġactually": 3300,
      "ĠBARR": 3301,
      "fortable": 3302,
      "ĠMURPH": 3303,
      "ĠPresident": 3304,
      "ĠKeyser": 3305,
      "01": 3306,
      ";Ċ": 3307,
      "MIE": 3308,
      "RING": 3309,
      "end": 3310,
      "gen": 3311,
      "gra": 3312,
      "ole": 3313,
      "vin": 3314,
      "ĉout": 3315,
      "Ġbars": 3316,
      "Ġmay": 3317,
      "Ġlying": 3318,
      "Ġpants": 3319,
      "ĠĠĠĠĠĠĠĠĠĠĠĠĠĠĠĠĠĠĠĠĠĠĠĠĠĠĠĠĠĠĠĠĠĠĠĠĠĠĠĠĠĠĠĠĠĠĠĠĠĠĠĠĠĠĠĠĠĠĠĠĠ": 3320,
      "ĠĠĠĠĠĠĠĠĠĠĠ": 3321,
      "Ġya": 3322,
      "ĠSLOW": 3323,
      "Ġthroat": 3324,
      "ĠMon": 3325,
      "ĠMON": 3326,
      "ĠBASE": 3327,
      "ĠHadley": 3328,
      "lemen": 3329,
      "Ġstar": 3330,
      "ashing": 3331,
      "ĠWOR": 3332,
      "ONAS": 3333,
      "Ġreco": 3334,
      "ĠEdie": 3335,
      "ĠGIRL": 3336,
      "Ġherself": 3337,
      "ĠVIEW": 3338,
      "Ġlear": 3339,
      "Ġleast": 3340,
      "Ġwords": 3341,
      "Ġalso": 3342,
      "BBY": 3343,
      "Ġexc": 3344,
      "Ġslides": 3345,
      "tered": 3346,
      "ĉDo": 3347,
      "ighb": 3348,
      "Ġappears": 3349,
      "Ġdriver": 3350,
      "Ġpasses": 3351,
      "ĠBLUE": 3352,
      "ĠLOBBY": 3353,
      "Ġimposs": 3354,
      "Ġcontrols": 3355,
      "Ġrobot": 3356,
      "ĠJIMMIE": 3357,
      "Ġwaits": 3358,
      "Ġprotect": 3359,
      "Ġmillion": 3360,
      "AULIE": 3361,
      "ĠDavid": 3362,
      "ĠMUSIC": 3363,
      "ONASERA": 3364,
      "IV": 3365,
      "Jane": 3366,
      "aven": 3367,
      "got": 3368,
      "kin": 3369,
      "land": 3370,
      "tes": 3371,
      "ĉk": 3372,
      "ĉch": 3373,
      "inning": 3374,
      "Ġsle": 3375,
      "Ġsal": 3376,
      "Ġsets": 3377,
      "Ġwet": 3378,
      "Ġwake": 3379,
      "isto": 3380,
      "ister": 3381,
      "ese": 3382,
      "arian": 3383,
      "Ġgreen": 3384,
      "ĠĠĠĠĠĠĠĠĠĠĠĠĠĠĠĠĠĠĠĠĠĠĠĠĠĠĠĠĠĠĠĠĠĠĠĠĠĠĠĠĠĠĠĠĠĠĠĠĠĠĠĠĠĠ": 3385,
      "ĠHer": 3386,
      "ĠAL": 3387,
      "lex": 3388,
      "ĠDA": 3389,
      "ĠFAT": 3390,
      "uring": 3391,
      "ĠPeople": 3392,
      "Ġseveral": 3393,
      "ARE": 3394,
      "Ġarea": 3395,
      "ĉTh": 3396,
      "ĉHis": 3397,
      "Ġchurch": 3398,
      "aster": 3399,
      "Ġfear": 3400,
      "Ġanybody": 3401,
      "REE": 3402,
      "Ġarri": 3403,
      "teen": 3404,
      "Ġbuy": 3405,
      "ĠSHOP": 3406,
      "ASHI": 3407,
      "Ġplaying": 3408,
      "ials": 3409,
      "Ġlistens": 3410,
      "Ġmetal": 3411,
      "Ġincred": 3412,
      "Ġmotherfuck": 3413,
      "Ġquietly": 3414,
      "Ġcouple": 3415,
      "ĠEXPLO": 3416,
      "17": 3417,
      "22": 3418,
      "54": 3419,
      "AER": 3420,
      "KIN": 3421,
      "OK": 3422,
      "ground": 3423,
      "ogs": 3424,
      "Ġ&": 3425,
      "Ġtick": 3426,
      "Ġfro": 3427,
      "atic": 3428,
      "Ġdamn": 3429,
      "Ġla": 3430,
      "Ġpot": 3431,
      "Ġglo": 3432,
      "ĠSonny": 3433,
      "ĠMe": 3434,
      "ĠMALL": 3435,
      "ĠMatrix": 3436,
      "Ġstation": 3437,
      "Ġstory": 3438,
      "Ġeating": 3439,
      "Ġrub": 3440,
      "idence": 3441,
      "ĠYOU": 3442,
      "Ġshop": 3443,
      "Ġanim": 3444,
      "ARM": 3445,
      "ĠEng": 3446,
      "iforn": 3447,
      "ĠOP": 3448,
      "ĠOr": 3449,
      "aint": 3450,
      "ATT": 3451,
      "Ġnote": 3452,
      "Ġplastic": 3453,
      "isten": 3454,
      "Ġchange": 3455,
      "Ġblank": 3456,
      "Ġworry": 3457,
      "Ġsmiling": 3458,
      "Ġexcept": 3459,
      "Ġguard": 3460,
      "ROW": 3461,
      "Ġslight": 3462,
      "Ġflick": 3463,
      "Ġquite": 3464,
      "Ġstarted": 3465,
      "Ġimportant": 3466,
      "Ġrestaur": 3467,
      "ungle": 3468,
      "Ġraises": 3469,
      "Ġinformation": 3470,
      "ĠOLD": 3471,
      "Ġdinner": 3472,
      "Ġknees": 3473,
      "ĠHello": 3474,
      "Ġnumbers": 3475,
      "ifornia": 3476,
      "-sh": 3477,
      "PL": 3478,
      "QU": 3479,
      "VATOR": 3480,
      "We": 3481,
      "band": 3482,
      "ders": 3483,
      "from": 3484,
      "sy": 3485,
      "Ġve": 3486,
      "ining": 3487,
      "Ġwanna": 3488,
      "Ġbase": 3489,
      "Ġdig": 3490,
      "Ġdied": 3491,
      "ĠIM": 3492,
      "ĠTA": 3493,
      "ĠTake": 3494,
      "Ġpisto": 3495,
      "Ġgen": 3496,
      "ĠCon": 3497,
      "ĠMike": 3498,
      "stairs": 3499,
      "ĠBAER": 3500,
      "ĠHi": 3501,
      "ĠAr": 3502,
      "ĠWould": 3503,
      "ĠFLO": 3504,
      "Ġitself": 3505,
      "Ġbell": 3506,
      "--ĊĊ": 3507,
      "idge": 3508,
      "Ġasleep": 3509,
      "ĠPolice": 3510,
      "Ġseated": 3511,
      "iff": 3512,
      "ush": 3513,
      "ĠGAR": 3514,
      "ĠGRA": 3515,
      "AYASHI": 3516,
      "Ġjoin": 3517,
      "Ġjungle": 3518,
      "ĠKOB": 3519,
      "Ġalley": 3520,
      "Ġblow": 3521,
      "Ġdoorway": 3522,
      "empt": 3523,
      "REEN": 3524,
      "Ġworks": 3525,
      "ormal": 3526,
      "Ġletter": 3527,
      "CTOR": 3528,
      "ODY": 3529,
      "Ġpapers": 3530,
      "Ġglasses": 3531,
      "ĠZed": 3532,
      "Ġsilent": 3533,
      "Ġspeaks": 3534,
      "Ġfollowed": 3535,
      "Ġrocket": 3536,
      "Ġtouches": 3537,
      "-like": 3538,
      "Ġkisses": 3539,
      "ĠUNDER": 3540,
      "Ġbench": 3541,
      "ĠCLOSE": 3542,
      "ĠSomething": 3543,
      "ĠCalifornia": 3544,
      "ĠPUMPKIN": 3545,
      "Ġscene": 3546,
      "ĠKOBAYASHI": 3547,
      ".C": 3548,
      "?!ĊĊ": 3549,
      "BACK": 3550,
      "OUR": 3551,
      "aze": 3552,
      "but": 3553,
      "gth": 3554,
      "hin": 3555,
      "ham": 3556,
      "iol": 3557,
      "oves": 3558,
      "zes": 3559,
      "Ġtrou": 3560,
      ".ĊĊĊĊ": 3561,
      "Ġoper": 3562,
      "Ġbuck": 3563,
      "Ġhull": 3564,
      "Ġca": 3565,
      "Ġcry": 3566,
      "Ġtot": 3567,
      "Ġmicro": 3568,
      "ĠICE": 3569,
      "Ġpop": 3570,
      "Ġpound": 3571,
      "Ġpours": 3572,
      "ĠHave": 3573,
      "Ġnamed": 3574,
      "Ġstore": 3575,
      "ady": 3576,
      "Ġrail": 3577,
      "ands": 3578,
      "key": 3579,
      "unt": 3580,
      "unned": 3581,
      "rought": 3582,
      "ĉTank": 3583,
      "ĉThis": 3584,
      "Ġknife": 3585,
      "Ġneighb": 3586,
      "umm": 3587,
      "RIZZ": 3588,
      "ĉthis": 3589,
      "Ġsmoking": 3590,
      "nect": 3591,
      "Ġorgan": 3592,
      "ROOKS": 3593,
      "Ġuniform": 3594,
      "wards": 3595,
      "uddy": 3596,
      "ĉDon": 3597,
      "ĉYes": 3598,
      "Ġcheek": 3599,
      "ĉBROOKS": 3600,
      "ĠDOWN": 3601,
      "Ġstret": 3602,
      "Ġreading": 3603,
      "Ġlaughing": 3604,
      "Ġapart": 3605,
      "Ġsounds": 3606,
      "Ġlays": 3607,
      "Ġtouch": 3608,
      "aughter": 3609,
      "Ġcraw": 3610,
      "ĠFrank": 3611,
      "Ġbriefcase": 3612,
      "Ġlawyer": 3613,
      "ienne": 3614,
      "Ġgravity": 3615,
      "ĠRobert": 3616,
      "UCA": 3617,
      "ĠFabienne": 3618,
      "RIZZIO": 3619,
      "16": 3620,
      "And": 3621,
      "ECH": 3622,
      "IZ": 3623,
      "RON": 3624,
      "cri": 3625,
      "gg": 3626,
      "hh": 3627,
      "low": 3628,
      "line": 3629,
      "looks": 3630,
      "nard": 3631,
      "onder": 3632,
      "ocks": 3633,
      "sing": 3634,
      "Ġtie": 3635,
      "Ġtree": 3636,
      "Ġsense": 3637,
      "ertain": 3638,
      "ism": 3639,
      "Ġhour": 3640,
      "itting": 3641,
      "Ġfell": 3642,
      "Ġmed": 3643,
      "Ġlab": 3644,
      "ĠTARS": 3645,
      "ĠCLEMENZA": 3646,
      "ĠCAMERA": 3647,
      "eter": 3648,
      "Ġstars": 3649,
      "ĠWall": 3650,
      "ĠWILL": 3651,
      "ĠFADE": 3652,
      "ayashi": 3653,
      "END": 3654,
      "ĠHere": 3655,
      "ĠLe": 3656,
      "ĠLATE": 3657,
      "ĠNe": 3658,
      "ĠRAIN": 3659,
      "Ġlips": 3660,
      "obayashi": 3661,
      "geant": 3662,
      "ĠKAY": 3663,
      "IGAN": 3664,
      "UNCH": 3665,
      "Ġopening": 3666,
      "BBA": 3667,
      "Ġvis": 3668,
      "Ġvict": 3669,
      "Ġexit": 3670,
      "Ġusing": 3671,
      "Ġnose": 3672,
      "Ġorder": 3673,
      "Ġunit": 3674,
      "ĉCON": 3675,
      "ĠANOTHER": 3676,
      "Ġkept": 3677,
      "Ġlonger": 3678,
      "ĠSHA": 3679,
      "Ġprep": 3680,
      "Ġlisten": 3681,
      "Ġasked": 3682,
      "Ġexpect": 3683,
      "SPRING": 3684,
      "Ġsubconscious": 3685,
      "Ġmission": 3686,
      "Ġbeneath": 3687,
      "Ġreturn": 3688,
      "ĠWHITE": 3689,
      "Ġflashlight": 3690,
      "ĠMaynard": 3691,
      "Ġmonths": 3692,
      "ĠNEW": 3693,
      "Ġshoots": 3694,
      "Ġjacket": 3695,
      "Ġcamera": 3696,
      "ĠELEVATOR": 3697,
      "Ġpistol": 3698,
      "21": 3699,
      "28": 3700,
      "BR": 3701,
      "EM": 3702,
      "Keaton": 3703,
      "cl": 3704,
      "lic": 3705,
      "nie": 3706,
      "under": 3707,
      "ĉn": 3708,
      "Ġtill": 3709,
      "Ġtax": 3710,
      "Ġsick": 3711,
      "Ġsince": 3712,
      "ished": 3713,
      "Ġbat": 3714,
      "Ġbul": 3715,
      "Ġbrought": 3716,
      "Ġcab": 3717,
      "oring": 3718,
      "ĠTR": 3719,
      "ĠTommy": 3720,
      "Ġpier": 3721,
      "ĠSK": 3722,
      "ĠSer": 3723,
      "Ġnormal": 3724,
      "Ġstom": 3725,
      "Ġstair": 3726,
      "ote": 3727,
      "otion": 3728,
      "ĠDign": 3729,
      "ĠFOOT": 3730,
      "ided": 3731,
      "urb": 3732,
      "ĠRABIN": 3733,
      "Ġmem": 3734,
      "Ġsend": 3735,
      "ARLO": 3736,
      "ĠEDIE": 3737,
      "ĠGive": 3738,
      "Ġhaving": 3739,
      "Ġjo": 3740,
      "Ġabs": 3741,
      "Ġoffic": 3742,
      "ares": 3743,
      "Ġchance": 3744,
      "Ġsuch": 3745,
      "AME": 3746,
      "Ġbutton": 3747,
      "Ġext": 3748,
      "Ġexactly": 3749,
      "Ġpost": 3750,
      "Ġloc": 3751,
      "ĉCARLO": 3752,
      "Ġsave": 3753,
      "Ġswings": 3754,
      "rench": 3755,
      "ĠBOOM": 3756,
      "Ġï¿½ĊĊ": 3757,
      "Ġhappens": 3758,
      "ĠBUBBA": 3759,
      "ĉyour": 3760,
      "ĠSCENE": 3761,
      "ĉOh": 3762,
      "Ġperfect": 3763,
      "Ġbitch": 3764,
      "Ġdrinking": 3765,
      "--------------------------------": 3766,
      "ĠBROWNING": 3767,
      "ĠFITTS": 3768,
      "orrow": 3769,
      "Ġpersonal": 3770,
      "Ġmurder": 3771,
      "ĠBrowning": 3772,
      "Ġfinishes": 3773,
      "Ġpossible": 3774,
      "ĠWilliam": 3775,
      "ĠPARK": 3776,
      "AMPONE": 3777,
      "Ġgoddamn": 3778,
      "Ġprobably": 3779,
      "RIDOR": 3780,
      "ĠWINDOW": 3781,
      "Ġ+Ċ": 3782,
      "Ġrestaurant": 3783,
      "ĠDignam": 3784,
      "-st": 3785,
      "27": 3786,
      "29": 3787,
      "BS": 3788,
      "king": 3789,
      "ked": 3790,
      "uation": 3791,
      "ĉne": 3792,
      "Ġsad": 3793,
      "Ġwine": 3794,
      "Ġwish": 3795,
      "Ġbod": 3796,
      "Ġcaught": 3797,
      "Ġlie": 3798,
      "Ġgently": 3799,
      "eds": 3800,
      "ĠSee": 3801,
      "Ġnaked": 3802,
      "urance": 3803,
      "ama": 3804,
      "ĠRight": 3805,
      "ĠPULL": 3806,
      "ĠEAR": 3807,
      "ĠEarth": 3808,
      "icop": 3809,
      "CKS": 3810,
      "Ġbacks": 3811,
      "ĠKobayashi": 3812,
      "Ġmov": 3813,
      "Ġlevel": 3814,
      "Ġspread": 3815,
      "Ġplant": 3816,
      "Ġwhatever": 3817,
      "que": 3818,
      "Ġsmoke": 3819,
      "ĉNorton": 3820,
      "OPS": 3821,
      "ĠROO": 3822,
      "ude": 3823,
      "ĉwe": 3824,
      "ĉfor": 3825,
      "ĉfrom": 3826,
      "Ġtelling": 3827,
      "osite": 3828,
      "ormous": 3829,
      "ĠBODY": 3830,
      "umpkin": 3831,
      "Ġsidewalk": 3832,
      "ĉme": 3833,
      "Ġhelicop": 3834,
      "Ġsurv": 3835,
      "ĠCORRIDOR": 3836,
      "Ġcompany": 3837,
      "Ġserious": 3838,
      "Ġbullets": 3839,
      "Ġanswers": 3840,
      "Ġsquee": 3841,
      "Ġobv": 3842,
      "Ġapproaches": 3843,
      "Ġweapon": 3844,
      "Ġmusic": 3845,
      "Ġheavy": 3846,
      "Ġbarely": 3847,
      "Ġtowel": 3848,
      "Ġwrapped": 3849,
      "ĠCaptain": 3850,
      "ĉTOMMY": 3851,
      "ĠBARRIGAN": 3852,
      "'Ċ": 3853,
      "-y": 3854,
      "24": 3855,
      "CL": 3856,
      "DDY": 3857,
      "GT": 3858,
      "His": 3859,
      "Mal": 3860,
      "OG": 3861,
      "SELL": 3862,
      "UB": 3863,
      "aer": 3864,
      "fast": 3865,
      "house": 3866,
      "lish": 3867,
      "then": 3868,
      "Ġ.": 3869,
      "Ġign": 3870,
      "ĠĠĊ": 3871,
      "Ġav": 3872,
      "ino": 3873,
      "Ġsat": 3874,
      "Ġwide": 3875,
      "Ġhours": 3876,
      "Ġcas": 3877,
      "Ġfav": 3878,
      "Ġdust": 3879,
      "Ġtom": 3880,
      "Ġlobby": 3881,
      "ĠTOP": 3882,
      "Ġping": 3883,
      "ĠSure": 3884,
      "ĠSOLLOZZO": 3885,
      "Ġthin": 3886,
      "ĠBy": 3887,
      "Ġnobody": 3888,
      "ĠAm": 3889,
      "ERC": 3890,
      "ĠThese": 3891,
      "Ġbecom": 3892,
      "ENSTER": 3893,
      "ĠLance": 3894,
      "ĠNO": 3895,
      "ammer": 3896,
      "ĠRabin": 3897,
      "Ġshort": 3898,
      "ĠPRE": 3899,
      "ĠPumpkin": 3900,
      "Ġforget": 3901,
      "Ġsell": 3902,
      "Ġself": 3903,
      "ĠOur": 3904,
      "Ġjaw": 3905,
      "Ġjumps": 3906,
      "aining": 3907,
      "pping": 3908,
      "Ġplate": 3909,
      "inking": 3910,
      "Ġthemselves": 3911,
      "Ġcomb": 3912,
      "ALD": 3913,
      "ipe": 3914,
      "Ġexpl": 3915,
      "Ġheading": 3916,
      "Ġtrue": 3917,
      "ĠBrooks": 3918,
      "ression": 3919,
      "ollo": 3920,
      "izz": 3921,
      "Ġputting": 3922,
      "ĠCARLO": 3923,
      "ĉcan": 3924,
      "Ġstreets": 3925,
      "ĉFADE": 3926,
      "ĠĠĠĠĠĠĠĠĠĠĠĠĠĠĠĠĠĠĠĠĠĠĠĠĠĠĠĠĠĠĠĠĠĠĠ": 3927,
      "ĠBUDDY": 3928,
      "IDENT": 3929,
      "ĉGod": 3930,
      "ORNIA": 3931,
      "apping": 3932,
      "Ġfires": 3933,
      "Ġbreaks": 3934,
      "ĠĠĠĠĠĠĠĠĠĠĠĠĠĠĠĠĠĠĠĠĠĠĠĠĠĠĠĠĠĠĠĠĠĠĠĠĠĠĠĠĠĠĠĠĠĠĠĠĠĠĠĠĠĠĠĠĠĠĠĠĠĠĠĠĠĠĠ": 3935,
      "Ġbrain": 3936,
      "Ġmotion": 3937,
      "IFORNIA": 3938,
      "Ġcountry": 3939,
      "Ġpunches": 3940,
      "ĠDRIVER": 3941,
      "ĠCALIFORNIA": 3942,
      "crete": 3943,
      "ĠWallace": 3944,
      "ĉCONNIE": 3945,
      "Ġhelicopter": 3946,
      "23": 3947,
      "26": 3948,
      "FF": 3949,
      "IAM": 3950,
      "PORT": 3951,
      "aff": 3952,
      "fra": 3953,
      "gers": 3954,
      "gun": 3955,
      "ior": 3956,
      "ses": 3957,
      "sit": 3958,
      "ĉpl": 3959,
      "Ġir": 3960,
      "hem": 3961,
      "Ġsus": 3962,
      "Ġwin": 3963,
      "Ġwed": 3964,
      "Ġwire": 3965,
      "ishing": 3966,
      "Ġbill": 3967,
      "Ġcand": 3968,
      "Ġdirt": 3969,
      "Ġtor": 3970,
      "Ġmine": 3971,
      "aning": 3972,
      "Ġpath": 3973,
      "Ġgate": 3974,
      "Ġgarb": 3975,
      "Ġyeah": 3976,
      "ĠSGT": 3977,
      "Ġthird": 3978,
      "Ġthirty": 3979,
      "ĠMer": 3980,
      "ĠMET": 3981,
      "ĠMichael": 3982,
      "ĠBLO": 3983,
      "ĠAb": 3984,
      "ĠJAP": 3985,
      "Ġbecome": 3986,
      "Ġring": 3987,
      "Ġrid": 3988,
      "cho": 3989,
      "chan": 3990,
      "ury": 3991,
      "ANESE": 3992,
      "ĠListen": 3993,
      "ĠRINGS": 3994,
      "Ġframe": 3995,
      "aks": 3996,
      "Ġjer": 3997,
      "Ġknocks": 3998,
      "usted": 3999,
      "aper": 4000,
      "Ġspins": 4001,
      "aste": 4002,
      "Ġrocks": 4003,
      "ĉNot": 4004,
      "aged": 4005,
      "Ġviol": 4006,
      "ational": 4007,
      "Ġcarries": 4008,
      "Ġscared": 4009,
      "Ġtwist": 4010,
      "Ġprogr": 4011,
      "Ġenormous": 4012,
      "uding": 4013,
      "Ġteeth": 4014,
      "ISE": 4015,
      "Ġentr": 4016,
      "ĉBONASERA": 4017,
      "ĠBRETT": 4018,
      "Ġgrab": 4019,
      "ĠMARSELL": 4020,
      "Ġdriving": 4021,
      "Ġwrist": 4022,
      "Ġadm": 4023,
      "Ġimag": 4024,
      "Ġimage": 4025,
      "zzo": 4026,
      "________": 4027,
      "Ġconsid": 4028,
      "Ġspecial": 4029,
      "Ġposition": 4030,
      "Ġimpossible": 4031,
      "Ġfrozen": 4032,
      "Ġstomach": 4033,
      "Ġbodies": 4034,
      "ollozzo": 4035,
      "ĠJAPANESE": 4036,
      "ĠMARSELLUS": 4037,
      "AIT": 4038,
      "Br": 4039,
      "MO": 4040,
      "NO": 4041,
      "Yusuf": 4042,
      "iers": 4043,
      "oid": 4044,
      "ring": 4045,
      "und": 4046,
      "ĉon": 4047,
      "ising": 4048,
      "Ġbal": 4049,
      "Ġcat": 4050,
      "Ġcertain": 4051,
      "Ġfiles": 4052,
      "Ġdisc": 4053,
      "Ġtown": 4054,
      "Ġlap": 4055,
      "Ġluck": 4056,
      "Ġpiss": 4057,
      "Ġgar": 4058,
      "Ġgest": 4059,
      "Ġgame": 4060,
      "ĠBig": 4061,
      "ĠBurn": 4062,
      "ĠDet": 4063,
      "ĠWALL": 4064,
      "ĠFl": 4065,
      "ĠFENSTER": 4066,
      "ays": 4067,
      "ENING": 4068,
      "Ġwithin": 4069,
      "Ġsha": 4070,
      "Ġaside": 4071,
      "ĠPAP": 4072,
      "Ġanger": 4073,
      "Ġsec": 4074,
      "Ġseven": 4075,
      "ĠEven": 4076,
      "race": 4077,
      "ils": 4078,
      "ĉTESSIO": 4079,
      "ĠOVER": 4080,
      "Ġgold": 4081,
      "ained": 4082,
      "Ġlibr": 4083,
      "locks": 4084,
      "olf": 4085,
      "Ġblows": 4086,
      "Ġsuits": 4087,
      "ĉAn": 4088,
      "ously": 4089,
      "Ġexper": 4090,
      "ĠThree": 4091,
      "Ġguards": 4092,
      "Ġanyway": 4093,
      "Ġslams": 4094,
      "LOSE": 4095
    },
    "merges": [
      [
        "Ġ",
        "Ġ"
      ],
      [
        "ĠĠ",
        "ĠĠ"
      ],
      [
        "ĠĠĠĠ",
        "ĠĠĠĠ"
      ],
      [
        "ĠĠĠĠĠĠĠĠ",
        "ĠĠĠĠĠĠĠĠ"
      ],
      [
        "Ġ",
        "t"
      ],
      [
        "h",
        "e"
      ],
      [
        "Ġ",
        "a"
      ],
      [
        "i",
        "n"
      ],
      [
        "Ċ",
        "Ċ"
      ],
      [
        "Ġt",
        "he"
      ],
      [
        "Ġ",
        "s"
      ],
      [
        "o",
        "u"
      ],
      [
        "r",
        "e"
      ],
      [
        "Ġ",
        "w"
      ],
      [
        ".",
        "ĊĊ"
      ],
      [
        "Ġ",
        "o"
      ],
      [
        "e",
        "r"
      ],
      [
        "ĠĠĠĠĠĠĠĠ",
        "Ġ"
      ],
      [
        "i",
        "s"
      ],
      [
        "n",
        "d"
      ],
      [
        "Ġ",
        "b"
      ],
      [
        "Ġ",
        "h"
      ],
      [
        "in",
        "g"
      ],
      [
        "Ġ",
        "c"
      ],
      [
        "e",
        "s"
      ],
      [
        "i",
        "t"
      ],
      [
        "Ġ",
        "f"
      ],
      [
        "a",
        "t"
      ],
      [
        "Ġ",
        "d"
      ],
      [
        "ĠĠĠĠĠĠĠĠĠĠĠĠĠĠĠĠ",
        "ĠĠĠĠĠĠĠĠ"
      ],
      [
        "l",
        "l"
      ],
      [
        "o",
        "n"
      ],
      [
        "ĉ",
        "ĉ"
      ],
      [
        "Ġt",
        "o"
      ],
      [
        "Ġ",
        "m"
      ],
      [
        "Ġ",
        "l"
      ],
      [
        "Ġ",
        "I"
      ],
      [
        "e",
        "n"
      ],
      [
        "o",
        "r"
      ],
      [
        "a",
        "n"
      ],
      [
        "Ġ",
        "T"
      ],
      [
        "Ġ",
        "p"
      ],
      [
        "a",
        "r"
      ],
      [
        "Ġ",
        "Ċ"
      ],
      [
        "Ġ",
        "g"
      ],
      [
        "Ġ",
        "C"
      ],
      [
        "ĠĠĠĠĠĠĠĠĠĠĠĠĠĠĠĠ",
        "ĠĠĠĠĠĠĠĠĠĠĠĠĠĠĠĠ"
      ],
      [
        "Ġ",
        "in"
      ],
      [
        "ĠĠĠĠ",
        "ĠĠ"
      ],
      [
        "e",
        "d"
      ],
      [
        "ĠĠĠĠĠĠĠĠ",
        "ĠĠ"
      ],
      [
        "Ġ",
        "y"
      ],
      [
        ".",
        "Ċ"
      ],
      [
        "o",
        "m"
      ],
      [
        "Ġo",
        "f"
      ],
      [
        "Ġa",
        "nd"
      ],
      [
        "Ġ",
        "S"
      ],
      [
        "Ġy",
        "ou"
      ],
      [
        "c",
        "k"
      ],
      [
        "Ġt",
        "h"
      ],
      [
        "o",
        "w"
      ],
      [
        "e",
        "t"
      ],
      [
        "ĠĠĠĠĠĠĠĠĠĠĠĠĠĠĠĠ",
        "ĠĠ"
      ],
      [
        "Ġ",
        "M"
      ],
      [
        "Ġ",
        "he"
      ],
      [
        "s",
        "t"
      ],
      [
        "o",
        "o"
      ],
      [
        "Ġ",
        "B"
      ],
      [
        "'",
        "s"
      ],
      [
        "I",
        "N"
      ],
      [
        "Ġ",
        "H"
      ],
      [
        "Ġ",
        "n"
      ],
      [
        "Ġ",
        "A"
      ],
      [
        "l",
        "e"
      ],
      [
        "Ġ",
        "("
      ],
      [
        "Ġs",
        "t"
      ],
      [
        ".",
        "."
      ],
      [
        "a",
        "s"
      ],
      [
        "E",
        "R"
      ],
      [
        "o",
        "t"
      ],
      [
        "Ġo",
        "n"
      ],
      [
        "ĠĠĠĠĠĠĠĠ",
        "ĠĠĠĠĠĠ"
      ],
      [
        "ĠĠĠĠĠĠĠĠĠĠĠĠĠĠĠĠ",
        "ĠĠĠĠĠĠĠĠĠ"
      ],
      [
        "Ġ",
        "is"
      ],
      [
        "v",
        "e"
      ],
      [
        "a",
        "l"
      ],
      [
        "Ġ",
        "D"
      ],
      [
        "g",
        "h"
      ],
      [
        "Ġ",
        "u"
      ],
      [
        "i",
        "m"
      ],
      [
        "Ġ",
        "W"
      ],
      [
        "Ġh",
        "is"
      ],
      [
        "Ġ",
        "F"
      ],
      [
        "O",
        "N"
      ],
      [
        "Ġ",
        "it"
      ],
      [
        "Ġ",
        "J"
      ],
      [
        "ĠT",
        "he"
      ],
      [
        "a",
        "d"
      ],
      [
        "a",
        "y"
      ],
      [
        "Ġb",
        "e"
      ],
      [
        "Ġ",
        "e"
      ],
      [
        "ou",
        "t"
      ],
      [
        "Ġ",
        "r"
      ],
      [
        "ĠĠĠĠĠĠĠĠĠĠĠĠĠĠĠĠĠĠ",
        "Ġ"
      ],
      [
        ")",
        "Ċ"
      ],
      [
        "-",
        "-"
      ],
      [
        "i",
        "d"
      ],
      [
        "ĠĠĠĠĠĠĠĠĠĠ",
        "Ċ"
      ],
      [
        "c",
        "e"
      ],
      [
        "l",
        "d"
      ],
      [
        "v",
        "er"
      ],
      [
        "l",
        "y"
      ],
      [
        "a",
        "ck"
      ],
      [
        "u",
        "t"
      ],
      [
        "ĠĠĠĠĠĠĠĠĠĠĠĠĠĠĠĠĠĠĠĠĠĠĠĠĠ",
        "Ċ"
      ],
      [
        "oo",
        "k"
      ],
      [
        "a",
        "nd"
      ],
      [
        "Ġa",
        "t"
      ],
      [
        "c",
        "h"
      ],
      [
        "s",
        "e"
      ],
      [
        "u",
        "r"
      ],
      [
        "ĠĠĠĠĠĠĠĠĠĠĠĠĠĠĠĠĠĠĠĠĠĠĠĠ",
        "ĠĠĠĠ"
      ],
      [
        "ĠĠĠĠĠĠĠĠĠĠĠĠĠĠĠĠĠĠĠĠĠĠĠĠĠĠĠĠĠĠĠĠ",
        "ĠĠĠĠ"
      ],
      [
        "Ġ",
        "re"
      ],
      [
        "E",
        "N"
      ],
      [
        "en",
        "t"
      ],
      [
        "A",
        "N"
      ],
      [
        "'",
        "t"
      ],
      [
        "k",
        "e"
      ],
      [
        "ĠH",
        "e"
      ],
      [
        "gh",
        "t"
      ],
      [
        "h",
        "at"
      ],
      [
        "it",
        "h"
      ],
      [
        "Ġd",
        "o"
      ],
      [
        "Ġ",
        "L"
      ],
      [
        "Ġ",
        "N"
      ],
      [
        "ĠC",
        "O"
      ],
      [
        "i",
        "r"
      ],
      [
        "Ġ",
        "Y"
      ],
      [
        "a",
        "m"
      ],
      [
        "ĠĠĠĠĠĠĠĠĠĠĠĠĠĠĠĠ",
        "ĠĠĠĠĠĠ"
      ],
      [
        "E",
        "S"
      ],
      [
        "L",
        "L"
      ],
      [
        "i",
        "ll"
      ],
      [
        "Ġ",
        "R"
      ],
      [
        "?",
        "ĊĊ"
      ],
      [
        "Ġ",
        "out"
      ],
      [
        "Ġw",
        "ith"
      ],
      [
        "i",
        "ght"
      ],
      [
        "a",
        "ll"
      ],
      [
        "ĉĉ",
        "ĉ"
      ],
      [
        "=",
        "="
      ],
      [
        "Ġw",
        "e"
      ],
      [
        "Ġu",
        "p"
      ],
      [
        "Ġs",
        "h"
      ],
      [
        "Ġl",
        "ook"
      ],
      [
        "Ġ",
        "k"
      ],
      [
        "Ġa",
        "s"
      ],
      [
        "r",
        "o"
      ],
      [
        "he",
        "r"
      ],
      [
        "Ġh",
        "im"
      ],
      [
        "Ġ",
        "P"
      ],
      [
        "Ġf",
        "or"
      ],
      [
        "er",
        "s"
      ],
      [
        "Ġf",
        "r"
      ],
      [
        "Ġth",
        "at"
      ],
      [
        "t",
        "o"
      ],
      [
        "Ġa",
        "n"
      ],
      [
        "Ġm",
        "e"
      ],
      [
        "Ġs",
        "e"
      ],
      [
        "A",
        "R"
      ],
      [
        "u",
        "n"
      ],
      [
        "i",
        "on"
      ],
      [
        "Ġ",
        "E"
      ],
      [
        "O",
        "R"
      ],
      [
        "r",
        "ou"
      ],
      [
        "r",
        "a"
      ],
      [
        "i",
        "f"
      ],
      [
        "i",
        "c"
      ],
      [
        "Ġ",
        "--"
      ],
      [
        "Ġ",
        "ĊĊ"
      ],
      [
        "u",
        "s"
      ],
      [
        "C",
        "K"
      ],
      [
        "i",
        "l"
      ],
      [
        "Ġ",
        "G"
      ],
      [
        "ĠY",
        "ou"
      ],
      [
        "on",
        "e"
      ],
      [
        "a",
        "k"
      ],
      [
        "..",
        "."
      ],
      [
        "o",
        "p"
      ],
      [
        "Ġh",
        "a"
      ],
      [
        "Ġa",
        "re"
      ],
      [
        "c",
        "t"
      ],
      [
        "ĉ",
        "T"
      ],
      [
        "Ġ",
        "-"
      ],
      [
        "Ġ",
        "O"
      ],
      [
        "r",
        "i"
      ],
      [
        "in",
        "d"
      ],
      [
        "ON",
        "T"
      ],
      [
        "A",
        "Y"
      ],
      [
        "ow",
        "n"
      ],
      [
        "an",
        "t"
      ],
      [
        "ar",
        "d"
      ],
      [
        "Ġg",
        "o"
      ],
      [
        "Ġ",
        "j"
      ],
      [
        "E",
        "D"
      ],
      [
        "Ġk",
        "n"
      ],
      [
        "U",
        "S"
      ],
      [
        "i",
        "e"
      ],
      [
        "O",
        "M"
      ],
      [
        "om",
        "e"
      ],
      [
        "Ġlook",
        "s"
      ],
      [
        "Ġn",
        "e"
      ],
      [
        "a",
        "in"
      ],
      [
        "Ġhe",
        "r"
      ],
      [
        "u",
        "st"
      ],
      [
        "Ġfr",
        "om"
      ],
      [
        "Ġl",
        "i"
      ],
      [
        "C",
        "H"
      ],
      [
        "t",
        "er"
      ],
      [
        "Ġth",
        "is"
      ],
      [
        "Ġ",
        "V"
      ],
      [
        "o",
        "b"
      ],
      [
        "Ġw",
        "as"
      ],
      [
        "Ġin",
        "to"
      ],
      [
        "ĠI",
        "N"
      ],
      [
        "g",
        "e"
      ],
      [
        "A",
        "T"
      ],
      [
        "Ġw",
        "h"
      ],
      [
        "Ġb",
        "ack"
      ],
      [
        "a",
        "p"
      ],
      [
        "'",
        "re"
      ],
      [
        "h",
        "ing"
      ],
      [
        "IN",
        "G"
      ],
      [
        "Ġn",
        "ot"
      ],
      [
        "id",
        "e"
      ],
      [
        "l",
        "o"
      ],
      [
        "Ġyou",
        "r"
      ],
      [
        "ou",
        "ld"
      ],
      [
        "Ġ",
        "K"
      ],
      [
        "Ġc",
        "an"
      ],
      [
        "Ġd",
        "own"
      ],
      [
        "I",
        "T"
      ],
      [
        "al",
        "k"
      ],
      [
        "e",
        "p"
      ],
      [
        ",",
        "Ċ"
      ],
      [
        "e",
        "ll"
      ],
      [
        "Ġm",
        "o"
      ],
      [
        "ar",
        "t"
      ],
      [
        "E",
        "L"
      ],
      [
        "Ġha",
        "ve"
      ],
      [
        "==",
        "=="
      ],
      [
        "e",
        "l"
      ],
      [
        "Ġg",
        "et"
      ],
      [
        "i",
        "ck"
      ],
      [
        "u",
        "m"
      ],
      [
        "he",
        "s"
      ],
      [
        "A",
        "CK"
      ],
      [
        "IN",
        "T"
      ],
      [
        "a",
        "b"
      ],
      [
        "I",
        "LL"
      ],
      [
        "Ġkn",
        "ow"
      ],
      [
        "o",
        "d"
      ],
      [
        "ĠD",
        "AY"
      ],
      [
        "i",
        "g"
      ],
      [
        "Ġl",
        "e"
      ],
      [
        "s",
        "s"
      ],
      [
        "p",
        "er"
      ],
      [
        "X",
        "T"
      ],
      [
        "E",
        "T"
      ],
      [
        "ĠIN",
        "T"
      ],
      [
        "re",
        "st"
      ],
      [
        "ĠI",
        "t"
      ],
      [
        "ĉĉ",
        "ĉĉ"
      ],
      [
        "v",
        "es"
      ],
      [
        "ĠF",
        "or"
      ],
      [
        "'",
        "m"
      ],
      [
        "Ġa",
        "b"
      ],
      [
        "u",
        "ll"
      ],
      [
        "C",
        "ONT"
      ],
      [
        "p",
        "p"
      ],
      [
        "a",
        "ce"
      ],
      [
        "r",
        "y"
      ],
      [
        "..",
        ".ĊĊ"
      ],
      [
        "u",
        "ck"
      ],
      [
        "Ġs",
        "p"
      ],
      [
        "I",
        "G"
      ],
      [
        "Ġh",
        "and"
      ],
      [
        "Ġp",
        "l"
      ],
      [
        "ĉ",
        "M"
      ],
      [
        "Ġw",
        "hat"
      ],
      [
        "o",
        "l"
      ],
      [
        "Ġa",
        "ll"
      ],
      [
        "Ġm",
        "y"
      ],
      [
        "ur",
        "n"
      ],
      [
        "L",
        "E"
      ],
      [
        "oo",
        "d"
      ],
      [
        ".",
        ")Ċ"
      ],
      [
        "Ġof",
        "f"
      ],
      [
        "is",
        "t"
      ],
      [
        "a",
        "re"
      ],
      [
        "ĉ",
        "H"
      ],
      [
        "Ġli",
        "ke"
      ],
      [
        "ES",
        "T"
      ],
      [
        "ĠĠĠĠĠĠĠĠĠĠĠĠĠĠĠĠĠĠĠĠĠĠĠĠĠĠĠĠ",
        "Ġ"
      ],
      [
        "w",
        "ay"
      ],
      [
        "EN",
        "T"
      ],
      [
        ".",
        "O"
      ],
      [
        "Ġc",
        "h"
      ],
      [
        "Ġthe",
        "y"
      ],
      [
        "es",
        "s"
      ],
      [
        "on",
        "t"
      ],
      [
        "ar",
        "s"
      ],
      [
        "in",
        "k"
      ],
      [
        "Ġd",
        "on"
      ],
      [
        "ĠFor",
        "rest"
      ],
      [
        "Ġb",
        "l"
      ],
      [
        "Ġo",
        "ver"
      ],
      [
        "a",
        "ke"
      ],
      [
        "on",
        "g"
      ],
      [
        "ĠĠĠĠ",
        "Ġ"
      ],
      [
        "S",
        "T"
      ],
      [
        "a",
        "u"
      ],
      [
        "a",
        "st"
      ],
      [
        "ĠW",
        "e"
      ],
      [
        "Ġr",
        "o"
      ],
      [
        "q",
        "u"
      ],
      [
        "Ġm",
        "an"
      ],
      [
        "Ġw",
        "or"
      ],
      [
        "ĠĠĠĠĠĠĠĠĠĠĠĠĠĠĠĠĠĠĠĠĠĠĠĠ",
        "ĠĠ"
      ],
      [
        "Ġon",
        "e"
      ],
      [
        "Ġthe",
        "m"
      ],
      [
        "rou",
        "nd"
      ],
      [
        "R",
        "I"
      ],
      [
        "ĠJ",
        "ack"
      ],
      [
        "Ġc",
        "om"
      ],
      [
        "IN",
        "U"
      ],
      [
        "Ġdo",
        "or"
      ],
      [
        "ĠĠĠĠĠĠĠĠĠĠĠĠĠĠ",
        "Ġ"
      ],
      [
        "ĠJ",
        "ACK"
      ],
      [
        "C",
        "E"
      ],
      [
        "e",
        "m"
      ],
      [
        "p",
        "en"
      ],
      [
        "i",
        "ve"
      ],
      [
        "Ġs",
        "u"
      ],
      [
        "ĠA",
        "nd"
      ],
      [
        "a",
        "c"
      ],
      [
        "ĉ",
        "t"
      ],
      [
        "ver",
        "y"
      ],
      [
        "ou",
        "r"
      ],
      [
        "A",
        "L"
      ],
      [
        "ĉ",
        "A"
      ],
      [
        "i",
        "ce"
      ],
      [
        "ĠW",
        "hat"
      ],
      [
        "A",
        "M"
      ],
      [
        "Ġs",
        "m"
      ],
      [
        "u",
        "l"
      ],
      [
        "ak",
        "es"
      ],
      [
        "U",
        "N"
      ],
      [
        "?",
        "Ċ"
      ],
      [
        "Ġw",
        "he"
      ],
      [
        "A",
        "D"
      ],
      [
        "Ġd",
        "e"
      ],
      [
        "'",
        "S"
      ],
      [
        "!",
        "ĊĊ"
      ],
      [
        "Ġb",
        "y"
      ],
      [
        "Ġb",
        "ut"
      ],
      [
        "Ġa",
        "l"
      ],
      [
        "ĉT",
        "he"
      ],
      [
        "Ġj",
        "ust"
      ],
      [
        "rou",
        "gh"
      ],
      [
        "IG",
        "H"
      ],
      [
        "ob",
        "b"
      ],
      [
        "ou",
        "s"
      ],
      [
        "Ġab",
        "out"
      ],
      [
        "--",
        "--"
      ],
      [
        "in",
        "e"
      ],
      [
        "Ġs",
        "o"
      ],
      [
        "ĠS",
        "om"
      ],
      [
        "U",
        "R"
      ],
      [
        "ĉ",
        "N"
      ],
      [
        "oo",
        "per"
      ],
      [
        "n",
        "e"
      ],
      [
        "Ġo",
        "pen"
      ],
      [
        "re",
        "d"
      ],
      [
        "Ġw",
        "alk"
      ],
      [
        "B",
        "B"
      ],
      [
        "O",
        "US"
      ],
      [
        "a",
        "g"
      ],
      [
        "ĠC",
        "ooper"
      ],
      [
        "O",
        "P"
      ],
      [
        "Ġw",
        "at"
      ],
      [
        "IGH",
        "T"
      ],
      [
        "Ġh",
        "o"
      ],
      [
        "ĉ",
        "I"
      ],
      [
        "it",
        "s"
      ],
      [
        "as",
        "s"
      ],
      [
        "H",
        "E"
      ],
      [
        "i",
        "p"
      ],
      [
        "Ġ",
        "v"
      ],
      [
        "Ġe",
        "x"
      ],
      [
        "Ġt",
        "urn"
      ],
      [
        "Ġhe",
        "re"
      ],
      [
        "Ġth",
        "rough"
      ],
      [
        "ĠCO",
        "L"
      ],
      [
        "Ġw",
        "ant"
      ],
      [
        "t",
        "ing"
      ],
      [
        "ĠThe",
        "y"
      ],
      [
        "O",
        "L"
      ],
      [
        "at",
        "ion"
      ],
      [
        "Ġu",
        "s"
      ],
      [
        "ĉ",
        "S"
      ],
      [
        "at",
        "e"
      ],
      [
        "Ġs",
        "he"
      ],
      [
        "Ġc",
        "o"
      ],
      [
        "ers",
        "et"
      ],
      [
        "ĠSom",
        "erset"
      ],
      [
        "t",
        "her"
      ],
      [
        "Ġf",
        "e"
      ],
      [
        "E",
        "LL"
      ],
      [
        "Ġthe",
        "n"
      ],
      [
        "ill",
        "s"
      ],
      [
        "O",
        "T"
      ],
      [
        "ĠB",
        "ut"
      ],
      [
        "Ġa",
        "g"
      ],
      [
        "Ġthe",
        "re"
      ],
      [
        "ĠT",
        "h"
      ],
      [
        "ĠE",
        "XT"
      ],
      [
        "Ġhe",
        "ad"
      ],
      [
        "'",
        "ll"
      ],
      [
        "Ġst",
        "and"
      ],
      [
        "U",
        "T"
      ],
      [
        "Ġ",
        "\""
      ],
      [
        "all",
        "y"
      ],
      [
        "Ġa",
        "round"
      ],
      [
        "t",
        "h"
      ],
      [
        "ĠN",
        "IGHT"
      ],
      [
        "A",
        "S"
      ],
      [
        "ĠF",
        "OR"
      ],
      [
        "Ġb",
        "o"
      ],
      [
        "es",
        "t"
      ],
      [
        "1",
        "9"
      ],
      [
        "it",
        "y"
      ],
      [
        "AN",
        "D"
      ],
      [
        "ĠCOL",
        "IN"
      ],
      [
        "am",
        "e"
      ],
      [
        "Ġwh",
        "o"
      ],
      [
        "Ġse",
        "e"
      ],
      [
        "ĠCO",
        "BB"
      ],
      [
        "ĉ",
        "INT"
      ],
      [
        "o",
        "re"
      ],
      [
        "Ġn",
        "o"
      ],
      [
        "Ġg",
        "u"
      ],
      [
        "t",
        "s"
      ],
      [
        "Ġc",
        "ar"
      ],
      [
        "Ġo",
        "r"
      ],
      [
        "ER",
        "S"
      ],
      [
        "Ġg",
        "ot"
      ],
      [
        "R",
        "O"
      ],
      [
        "Ġo",
        "ther"
      ],
      [
        "Ġan",
        "y"
      ],
      [
        "se",
        "l"
      ],
      [
        "ĠS",
        "he"
      ],
      [
        "Ġs",
        "ome"
      ],
      [
        "ĠM",
        "ills"
      ],
      [
        "ĠB",
        "ILL"
      ],
      [
        "Ġu",
        "n"
      ],
      [
        "as",
        "e"
      ],
      [
        "u",
        "re"
      ],
      [
        "Ġp",
        "ull"
      ],
      [
        "w",
        "ard"
      ],
      [
        "nd",
        "er"
      ],
      [
        "Ġe",
        "y"
      ],
      [
        "Ġr",
        "ight"
      ],
      [
        "R",
        "EST"
      ],
      [
        "Ġs",
        "c"
      ],
      [
        "Ġth",
        "ink"
      ],
      [
        "im",
        "e"
      ],
      [
        "e",
        "ct"
      ],
      [
        "ĠFOR",
        "REST"
      ],
      [
        "Ġs",
        "l"
      ],
      [
        "====",
        "===="
      ],
      [
        "ĠBILL",
        "Y"
      ],
      [
        "ĠS",
        "T"
      ],
      [
        "Ġp",
        "o"
      ],
      [
        "Ġh",
        "as"
      ],
      [
        "Ġd",
        "id"
      ],
      [
        "ab",
        "le"
      ],
      [
        "R",
        "E"
      ],
      [
        "a",
        "ch"
      ],
      [
        "f",
        "f"
      ],
      [
        "Ġ",
        "if"
      ],
      [
        "Ġt",
        "w"
      ],
      [
        "n",
        "y"
      ],
      [
        "Ġturn",
        "s"
      ],
      [
        "CH",
        "A"
      ],
      [
        "Ġf",
        "uck"
      ],
      [
        "Ġc",
        "l"
      ],
      [
        "I",
        "CHA"
      ],
      [
        "ICHA",
        "EL"
      ],
      [
        "t",
        "y"
      ],
      [
        "Ġa",
        "way"
      ],
      [
        "ĠĠĠĠĠĠĠĠĠĠĊ",
        "ĠĠĠĠĠĠĠĠĠĠĊ"
      ],
      [
        "c",
        "hes"
      ],
      [
        "l",
        "er"
      ],
      [
        "s",
        "ide"
      ],
      [
        "'",
        "D"
      ],
      [
        "l",
        "es"
      ],
      [
        "Ġl",
        "o"
      ],
      [
        "Ġag",
        "ain"
      ],
      [
        "ĉ",
        "R"
      ],
      [
        "an",
        "k"
      ],
      [
        "Ġp",
        "ro"
      ],
      [
        "ĠR",
        "O"
      ],
      [
        "'",
        "ve"
      ],
      [
        "ow",
        "s"
      ],
      [
        "i",
        "re"
      ],
      [
        "INU",
        "ED"
      ],
      [
        "ĠC",
        "ONT"
      ],
      [
        "Ġgo",
        "ing"
      ],
      [
        "L",
        "O"
      ],
      [
        "a",
        "it"
      ],
      [
        "Ġro",
        "om"
      ],
      [
        "ĉ",
        "W"
      ],
      [
        "e",
        "at"
      ],
      [
        "Ġs",
        "ay"
      ],
      [
        "ot",
        "her"
      ],
      [
        "Ġthe",
        "ir"
      ],
      [
        "ĠT",
        "y"
      ],
      [
        "sel",
        "f"
      ],
      [
        "ĠD",
        "o"
      ],
      [
        "Ġwalk",
        "s"
      ],
      [
        "ĠTy",
        "ler"
      ],
      [
        "v",
        "ing"
      ],
      [
        "ĉ",
        "C"
      ],
      [
        "Ġbe",
        "en"
      ],
      [
        "od",
        "y"
      ],
      [
        "ing",
        "s"
      ],
      [
        "ĠN",
        "o"
      ],
      [
        "Ġt",
        "r"
      ],
      [
        "v",
        "en"
      ],
      [
        "Ġa",
        "r"
      ],
      [
        "ou",
        "nd"
      ],
      [
        "ĠT",
        "hat"
      ],
      [
        "or",
        "t"
      ],
      [
        "Ġn",
        "ow"
      ],
      [
        "a",
        "ir"
      ],
      [
        "i",
        "es"
      ],
      [
        "Ġt",
        "akes"
      ],
      [
        "Ġf",
        "l"
      ],
      [
        "Ġ",
        "en"
      ],
      [
        "Ġc",
        "on"
      ],
      [
        "Ġf",
        "ace"
      ],
      [
        "ep",
        "s"
      ],
      [
        "Ġt",
        "ime"
      ],
      [
        "Ġp",
        "h"
      ],
      [
        "re",
        "e"
      ],
      [
        "Ġr",
        "un"
      ],
      [
        "ELL",
        "O"
      ],
      [
        "Ġg",
        "un"
      ],
      [
        "Ġey",
        "es"
      ],
      [
        "Ġs",
        "a"
      ],
      [
        "ĉH",
        "e"
      ],
      [
        "b",
        "e"
      ],
      [
        "u",
        "d"
      ],
      [
        "p",
        "s"
      ],
      [
        "Ġc",
        "r"
      ],
      [
        "an",
        "s"
      ],
      [
        "Ġ",
        "qu"
      ],
      [
        "i",
        "ld"
      ],
      [
        "ĠS",
        "OM"
      ],
      [
        "om",
        "et"
      ],
      [
        ")",
        "ĊĊ"
      ],
      [
        "Ġw",
        "ay"
      ],
      [
        "Ġw",
        "ind"
      ],
      [
        "Ġc",
        "ont"
      ],
      [
        "Ġa",
        "c"
      ],
      [
        "E",
        "XT"
      ],
      [
        "ar",
        "k"
      ],
      [
        "N",
        "E"
      ],
      [
        "t",
        "e"
      ],
      [
        "ĠĠĠĠĠĠĠĠĠĠĠĠĠĠĠĠĠĠĠĠĠĠĠĠĠĠ",
        "Ġ"
      ],
      [
        "A",
        "G"
      ],
      [
        "i",
        "le"
      ],
      [
        "N",
        "Y"
      ],
      [
        "Ġho",
        "ld"
      ],
      [
        "ĠW",
        "h"
      ],
      [
        "ERS",
        "ET"
      ],
      [
        "ĠSOM",
        "ERSET"
      ],
      [
        "L",
        "ER"
      ],
      [
        "e",
        "o"
      ],
      [
        "Ġc",
        "lo"
      ],
      [
        "b",
        "le"
      ],
      [
        "t",
        "le"
      ],
      [
        "an",
        "g"
      ],
      [
        "Ġg",
        "l"
      ],
      [
        "in",
        "s"
      ],
      [
        "Ġl",
        "ight"
      ],
      [
        "Ġst",
        "art"
      ],
      [
        "ĠM",
        "ILL"
      ],
      [
        ":",
        "ĊĊ"
      ],
      [
        "Ġw",
        "ould"
      ],
      [
        "ĠB",
        "r"
      ],
      [
        "ĠTh",
        "is"
      ],
      [
        "Ġh",
        "ad"
      ],
      [
        "OP",
        "ER"
      ],
      [
        "ĠMILL",
        "S"
      ],
      [
        "ĠCO",
        "OPER"
      ],
      [
        "I",
        "CE"
      ],
      [
        "ĠT",
        "Y"
      ],
      [
        "ro",
        "ss"
      ],
      [
        "I",
        "L"
      ],
      [
        "ĠĠĠĠĠĠĠĠĠĠĠĠĠĠĠĠĠĠĠĠĠĠĠĠĠĠĠĠĠĠĠĠ",
        "Ġ"
      ],
      [
        "a",
        "ge"
      ],
      [
        "Ġs",
        "omet"
      ],
      [
        "u",
        "b"
      ],
      [
        "Ġw",
        "ill"
      ],
      [
        "ĉ",
        "w"
      ],
      [
        "Ġp",
        "e"
      ],
      [
        "ĠTY",
        "LER"
      ],
      [
        "Ġt",
        "e"
      ],
      [
        "Ġc",
        "ould"
      ],
      [
        "y",
        "s"
      ],
      [
        "et",
        "s"
      ],
      [
        "Ġu",
        "nder"
      ],
      [
        "Ġtw",
        "o"
      ],
      [
        "if",
        "e"
      ],
      [
        "re",
        "ss"
      ],
      [
        "Ġb",
        "r"
      ],
      [
        "IN",
        "C"
      ],
      [
        "ON",
        "E"
      ],
      [
        "he",
        "re"
      ],
      [
        "ĉM",
        "ICHAEL"
      ],
      [
        "ĉ",
        "D"
      ],
      [
        ".ĊĊ",
        "Ċ"
      ],
      [
        "ĉ",
        "s"
      ],
      [
        "it",
        "e"
      ],
      [
        "an",
        "ce"
      ],
      [
        "Ġe",
        "very"
      ],
      [
        "Ġwor",
        "k"
      ],
      [
        "h",
        "ind"
      ],
      [
        "i",
        "ous"
      ],
      [
        "o",
        "ll"
      ],
      [
        "ĠO",
        "F"
      ],
      [
        "m",
        "ent"
      ],
      [
        "ĠT",
        "HE"
      ],
      [
        "ĠA",
        "N"
      ],
      [
        "Ġdo",
        "es"
      ],
      [
        "i",
        "z"
      ],
      [
        "Ġto",
        "ward"
      ],
      [
        "au",
        "se"
      ],
      [
        "OUS",
        "E"
      ],
      [
        "Ġwhe",
        "n"
      ],
      [
        "-",
        "ĊĊ"
      ],
      [
        "U",
        "M"
      ],
      [
        "Ġs",
        "its"
      ],
      [
        "Ġhand",
        "s"
      ],
      [
        "re",
        "at"
      ],
      [
        "Ġwe",
        "re"
      ],
      [
        "Ġpull",
        "s"
      ],
      [
        "Ġne",
        "ed"
      ],
      [
        "ĉt",
        "he"
      ],
      [
        "im",
        "p"
      ],
      [
        "t",
        "hing"
      ],
      [
        "Ġg",
        "r"
      ],
      [
        "a",
        "ve"
      ],
      [
        "ĠC",
        "obb"
      ],
      [
        "Ġstand",
        "s"
      ],
      [
        "ĠĠĠĠĠĠĠĠ",
        "ĠĠĠĠĠ"
      ],
      [
        "Ġsomet",
        "hing"
      ],
      [
        "ĉ",
        "Y"
      ],
      [
        "op",
        "s"
      ],
      [
        "U",
        "L"
      ],
      [
        "Ġ",
        "ke"
      ],
      [
        "R",
        "A"
      ],
      [
        "c",
        "o"
      ],
      [
        "at",
        "her"
      ],
      [
        "ST",
        "ELLO"
      ],
      [
        "I",
        "E"
      ],
      [
        "Ġne",
        "ver"
      ],
      [
        "I",
        "S"
      ],
      [
        "Ġp",
        "ut"
      ],
      [
        "or",
        "n"
      ],
      [
        "ĠCO",
        "STELLO"
      ],
      [
        "'",
        "d"
      ],
      [
        "CONT",
        "INUED"
      ],
      [
        "u",
        "e"
      ],
      [
        "Ġmo",
        "re"
      ],
      [
        "Ġ",
        "ent"
      ],
      [
        "ry",
        "ing"
      ],
      [
        "Ġs",
        "w"
      ],
      [
        "Ġc",
        "he"
      ],
      [
        "Ġe",
        "m"
      ],
      [
        "ĉR",
        "ED"
      ],
      [
        "Ġt",
        "alk"
      ],
      [
        "Ġw",
        "all"
      ],
      [
        "ĠM",
        "ar"
      ],
      [
        "ĠRO",
        "OM"
      ],
      [
        "ĉ",
        "B"
      ],
      [
        "ĉ",
        "f"
      ],
      [
        "Ġf",
        "ind"
      ],
      [
        "Ġst",
        "ill"
      ],
      [
        "Ġlook",
        "ing"
      ],
      [
        "op",
        "le"
      ],
      [
        "b",
        "er"
      ],
      [
        "is",
        "s"
      ],
      [
        "INC",
        "ENT"
      ],
      [
        "he",
        "n"
      ],
      [
        "Ġsp",
        "e"
      ],
      [
        "Ġbl",
        "ack"
      ],
      [
        "p",
        "l"
      ],
      [
        "ĠD",
        "O"
      ],
      [
        "ĠV",
        "INCENT"
      ],
      [
        "o",
        "st"
      ],
      [
        "Ġwat",
        "ch"
      ],
      [
        "ĠCONT",
        "INU"
      ],
      [
        "Ġst",
        "eps"
      ],
      [
        "I",
        "R"
      ],
      [
        "Y",
        "N"
      ],
      [
        "Ġt",
        "ell"
      ],
      [
        "Ġl",
        "ong"
      ],
      [
        "Ġbe",
        "g"
      ],
      [
        "Ġbe",
        "hind"
      ],
      [
        "Ġl",
        "it"
      ],
      [
        "Ġbe",
        "l"
      ],
      [
        "c",
        "es"
      ],
      [
        "f",
        "t"
      ],
      [
        "ou",
        "n"
      ],
      [
        "ĠCONTINU",
        "OUS"
      ],
      [
        "ĠC",
        "AR"
      ],
      [
        "----",
        "----"
      ],
      [
        "e",
        "ars"
      ],
      [
        "f",
        "ter"
      ],
      [
        "Ġf",
        "lo"
      ],
      [
        "il",
        "es"
      ],
      [
        "n",
        "a"
      ],
      [
        "p",
        "h"
      ],
      [
        "re",
        "n"
      ],
      [
        "Ġg",
        "ood"
      ],
      [
        "Ġfr",
        "ont"
      ],
      [
        "Ċ",
        "ĠĠĠĠĠĠĠĠĠĠĠĠĠĠĠĠĠĠĠĠĠĠĠĠĠĊ"
      ],
      [
        "Ġto",
        "o"
      ],
      [
        "ĠS",
        "o"
      ],
      [
        "ĠM",
        "r"
      ],
      [
        "ĠB",
        "R"
      ],
      [
        "Ġb",
        "u"
      ],
      [
        "Ġm",
        "ake"
      ],
      [
        "ĠT",
        "O"
      ],
      [
        "A",
        "B"
      ],
      [
        "p",
        "t"
      ],
      [
        "Ġo",
        "ld"
      ],
      [
        "OL",
        "YN"
      ],
      [
        "ĉ",
        "h"
      ],
      [
        "ĠThe",
        "re"
      ],
      [
        "an",
        "e"
      ],
      [
        "o",
        "s"
      ],
      [
        "Ġc",
        "ome"
      ],
      [
        "or",
        "m"
      ],
      [
        "l",
        "a"
      ],
      [
        "Ġopen",
        "s"
      ],
      [
        "ĉ",
        "c"
      ],
      [
        "ou",
        "se"
      ],
      [
        "c",
        "ent"
      ],
      [
        "Ġt",
        "ake"
      ],
      [
        "ĠB",
        "O"
      ],
      [
        "C",
        "obb"
      ],
      [
        "re",
        "am"
      ],
      [
        "ĠH",
        "OUSE"
      ],
      [
        "Ġt",
        "able"
      ],
      [
        "i",
        "ch"
      ],
      [
        "en",
        "ny"
      ],
      [
        "Ġsh",
        "ould"
      ],
      [
        "b",
        "s"
      ],
      [
        "ot",
        "h"
      ],
      [
        "ir",
        "st"
      ],
      [
        "ar",
        "ing"
      ],
      [
        "Ġb",
        "ed"
      ],
      [
        "Ġg",
        "ra"
      ],
      [
        "ĠJ",
        "enny"
      ],
      [
        "Ġph",
        "one"
      ],
      [
        "is",
        "c"
      ],
      [
        "um",
        "p"
      ],
      [
        "Ġl",
        "et"
      ],
      [
        "ĠI",
        "n"
      ],
      [
        "Ġp",
        "r"
      ],
      [
        "ĉ",
        "b"
      ],
      [
        "Ġt",
        "ra"
      ],
      [
        "Ġc",
        "all"
      ],
      [
        "Ġget",
        "s"
      ],
      [
        "Ġwhe",
        "re"
      ],
      [
        "L",
        "A"
      ],
      [
        "ĠS",
        "t"
      ],
      [
        "ck",
        "s"
      ],
      [
        "A",
        "LL"
      ],
      [
        "f",
        "ore"
      ],
      [
        "u",
        "g"
      ],
      [
        "Ġs",
        "ide"
      ],
      [
        "a",
        "ct"
      ],
      [
        "s",
        "h"
      ],
      [
        "IT",
        "Y"
      ],
      [
        "ig",
        "n"
      ],
      [
        "Ġlit",
        "tle"
      ],
      [
        "Ġh",
        "ow"
      ],
      [
        "as",
        "h"
      ],
      [
        "Ġmo",
        "ves"
      ],
      [
        "e",
        "e"
      ],
      [
        "Ġm",
        "en"
      ],
      [
        "Ġwind",
        "ow"
      ],
      [
        "ĠĠĠĠĠĠĠĠĠĠĠĠĠĠĠĠĠĠĠĠĠĠĠĠ",
        "ĠĠĠĠĠĠ"
      ],
      [
        ".",
        "S"
      ],
      [
        "Ġ",
        "U"
      ],
      [
        "es",
        "ter"
      ],
      [
        "on",
        "s"
      ],
      [
        "ĠS",
        "H"
      ],
      [
        "ER",
        "B"
      ],
      [
        "T",
        "H"
      ],
      [
        "eat",
        "on"
      ],
      [
        "Ġd",
        "r"
      ],
      [
        "Ġd",
        "es"
      ],
      [
        "Ġre",
        "al"
      ],
      [
        "E",
        "O"
      ],
      [
        "en",
        "s"
      ],
      [
        "ook",
        "s"
      ],
      [
        "¿",
        "½"
      ],
      [
        "ï",
        "¿½"
      ],
      [
        "Ġ",
        "Q"
      ],
      [
        "Ġ",
        "ï¿½"
      ],
      [
        "AR",
        "D"
      ],
      [
        "Ġpe",
        "ople"
      ],
      [
        "x",
        "t"
      ],
      [
        "ĉ",
        "m"
      ],
      [
        "Ġs",
        "it"
      ],
      [
        "Ġst",
        "re"
      ],
      [
        "V",
        "E"
      ],
      [
        "w",
        "n"
      ],
      [
        "Ġ",
        "our"
      ],
      [
        "he",
        "d"
      ],
      [
        "ĠC",
        "h"
      ],
      [
        "Ġflo",
        "or"
      ],
      [
        "ou",
        "gh"
      ],
      [
        "ĠM",
        "AR"
      ],
      [
        "u",
        "p"
      ],
      [
        "Ġb",
        "us"
      ],
      [
        "ĠM",
        "AN"
      ],
      [
        "========",
        "========"
      ],
      [
        "d",
        "en"
      ],
      [
        "UL",
        "ES"
      ],
      [
        "I",
        "CK"
      ],
      [
        "i",
        "ly"
      ],
      [
        "Ġon",
        "ly"
      ],
      [
        "ĠJ",
        "ULES"
      ],
      [
        "ak",
        "ing"
      ],
      [
        "Ġgo",
        "es"
      ],
      [
        ".",
        "\""
      ],
      [
        "I",
        "C"
      ],
      [
        "EST",
        "ER"
      ],
      [
        "a",
        "h"
      ],
      [
        "i",
        "gh"
      ],
      [
        "Ċ",
        "ĠĠĠĠĠĠĠĠĠĠĊ"
      ],
      [
        "Ġhe",
        "l"
      ],
      [
        "Ġha",
        "pp"
      ],
      [
        "s",
        "p"
      ],
      [
        "Ġd",
        "is"
      ],
      [
        "..",
        ".Ċ"
      ],
      [
        "ĠAnd",
        "y"
      ],
      [
        "Ġf",
        "oll"
      ],
      [
        "at",
        "ed"
      ],
      [
        "ĠL",
        "ESTER"
      ],
      [
        "AT",
        "ER"
      ],
      [
        "Ġclo",
        "s"
      ],
      [
        "ĉ",
        "d"
      ],
      [
        "Ġa",
        "pp"
      ],
      [
        "ĠI",
        "f"
      ],
      [
        "Ġp",
        "re"
      ],
      [
        "Ġt",
        "ri"
      ],
      [
        "Ġb",
        "et"
      ],
      [
        "Ġf",
        "irst"
      ],
      [
        "Ġs",
        "ur"
      ],
      [
        "Ġm",
        "om"
      ],
      [
        "Ġre",
        "ad"
      ],
      [
        "Ġac",
        "ross"
      ],
      [
        "ĉY",
        "ou"
      ],
      [
        "ĉ",
        "F"
      ],
      [
        "ĉ",
        "EXT"
      ],
      [
        "Ġbe",
        "fore"
      ],
      [
        "Ġre",
        "m"
      ],
      [
        "Ġp",
        "ick"
      ],
      [
        "O",
        "UN"
      ],
      [
        ".",
        ")"
      ],
      [
        "l",
        "ing"
      ],
      [
        "r",
        "th"
      ],
      [
        "Ġd",
        "ri"
      ],
      [
        "on",
        "na"
      ],
      [
        "ĠOF",
        "F"
      ],
      [
        "rth",
        "ur"
      ],
      [
        "Ġa",
        "m"
      ],
      [
        "ĊĊ",
        "Ċ"
      ],
      [
        "Ġstart",
        "s"
      ],
      [
        "at",
        "h"
      ],
      [
        "Ġin",
        "side"
      ],
      [
        "ĠH",
        "ow"
      ],
      [
        "ĠBr",
        "and"
      ],
      [
        "en",
        "ce"
      ],
      [
        "ĠĠĠĠĠĠĠĠĠĠĠĠĠĠĠĠĠĠĠĠĠĠĠĠĠĠĠĠĠĠĠĠ",
        "ĠĠ"
      ],
      [
        "ĠM",
        "c"
      ],
      [
        "ĠCO",
        "R"
      ],
      [
        "Ġdid",
        "n"
      ],
      [
        "c",
        "ause"
      ],
      [
        "Ġw",
        "r"
      ],
      [
        "Ġw",
        "ait"
      ],
      [
        "ĠĠĠĠĠĠĠĠĠĠĠĠĠĠĠĠĠĠĠĠĠĠĠĠĠĠĠĠĠĠĠĠ",
        "ĠĠĠĠĠĠĠĠĠĠĠĠĠĠĠĠ"
      ],
      [
        "ĠA",
        "n"
      ],
      [
        "ĠK",
        "eaton"
      ],
      [
        "isc",
        "her"
      ],
      [
        ":",
        "Ċ"
      ],
      [
        "I",
        "ON"
      ],
      [
        "Ġcom",
        "es"
      ],
      [
        "Ġagain",
        "st"
      ],
      [
        "e",
        "w"
      ],
      [
        "i",
        "ke"
      ],
      [
        "g",
        "er"
      ],
      [
        "Ġd",
        "ay"
      ],
      [
        "ĠC",
        "H"
      ],
      [
        "ĠThe",
        "n"
      ],
      [
        "Ġan",
        "other"
      ],
      [
        "op",
        "e"
      ],
      [
        "C",
        "T"
      ],
      [
        "l",
        "s"
      ],
      [
        "oo",
        "t"
      ],
      [
        "Ġse",
        "es"
      ],
      [
        "Ġar",
        "m"
      ],
      [
        "ac",
        "hes"
      ],
      [
        "Ġde",
        "ad"
      ],
      [
        "H",
        "ER"
      ],
      [
        "or",
        "p"
      ],
      [
        "Ġg",
        "onna"
      ],
      [
        "Ġst",
        "are"
      ],
      [
        "ĠN",
        "eo"
      ],
      [
        "Ġwat",
        "ches"
      ],
      [
        "T",
        "he"
      ],
      [
        "Ġst",
        "r"
      ],
      [
        "od",
        "s"
      ],
      [
        "ĠH",
        "is"
      ],
      [
        "AND",
        "Y"
      ],
      [
        "ĠBR",
        "AND"
      ],
      [
        "e",
        "ar"
      ],
      [
        "e",
        "ah"
      ],
      [
        "g",
        "et"
      ],
      [
        "o",
        "ck"
      ],
      [
        "Ġ",
        "very"
      ],
      [
        "is",
        "h"
      ],
      [
        "1",
        "1"
      ],
      [
        "a",
        "il"
      ],
      [
        "Ġhim",
        "self"
      ],
      [
        "ĉN",
        "EO"
      ],
      [
        "ĠBut",
        "ch"
      ],
      [
        "n",
        "ing"
      ],
      [
        "Ġh",
        "ouse"
      ],
      [
        "one",
        "y"
      ],
      [
        "ĉ",
        "p"
      ],
      [
        "ĉ",
        "ANDY"
      ],
      [
        "Ġf",
        "all"
      ],
      [
        "am",
        "es"
      ],
      [
        "Ġsh",
        "it"
      ],
      [
        "Ġmom",
        "ent"
      ],
      [
        "at",
        "or"
      ],
      [
        "Ġth",
        "an"
      ],
      [
        "ĠV",
        "in"
      ],
      [
        "RI",
        "AD"
      ],
      [
        "ĠMc",
        "M"
      ],
      [
        "Ġpl",
        "ace"
      ],
      [
        "Ġsa",
        "id"
      ],
      [
        "Ġbeg",
        "ins"
      ],
      [
        "-",
        "Ċ"
      ],
      [
        "Ġl",
        "ife"
      ],
      [
        "ĠA",
        "R"
      ],
      [
        "ĠA",
        "RIAD"
      ],
      [
        "ĉĉĉ",
        "Ġ"
      ],
      [
        "AG",
        "EN"
      ],
      [
        "ĠARIAD",
        "NE"
      ],
      [
        "i",
        "a"
      ],
      [
        "AS",
        "H"
      ],
      [
        "A",
        "IN"
      ],
      [
        "a",
        "v"
      ],
      [
        "in",
        "es"
      ],
      [
        "Ġhe",
        "ar"
      ],
      [
        "ĠB",
        "U"
      ],
      [
        "A",
        "P"
      ],
      [
        "er",
        "b"
      ],
      [
        "oo",
        "l"
      ],
      [
        "ĠW",
        "ell"
      ],
      [
        "Ġe",
        "ach"
      ],
      [
        "ĠL",
        "ATER"
      ],
      [
        "I",
        "D"
      ],
      [
        "ĠN",
        "ot"
      ],
      [
        "ion",
        "s"
      ],
      [
        "Ġcom",
        "p"
      ],
      [
        "Ġrun",
        "s"
      ],
      [
        "Ġf",
        "in"
      ],
      [
        "ad",
        "e"
      ],
      [
        "Ġhold",
        "s"
      ],
      [
        "M",
        "ENT"
      ],
      [
        "U",
        "E"
      ],
      [
        "c",
        "y"
      ],
      [
        "w",
        "e"
      ],
      [
        "Ġth",
        "ing"
      ],
      [
        "OR",
        "P"
      ],
      [
        "Ġne",
        "w"
      ],
      [
        "i",
        "ed"
      ],
      [
        "u",
        "ch"
      ],
      [
        "ou",
        "ght"
      ],
      [
        "Ġsm",
        "iles"
      ],
      [
        "O",
        "D"
      ],
      [
        "k",
        "ay"
      ],
      [
        "ĉA",
        "nd"
      ],
      [
        "f",
        "e"
      ],
      [
        "ĉ",
        "G"
      ],
      [
        "Ġp",
        "art"
      ],
      [
        "ĠB",
        "UT"
      ],
      [
        "ĠD",
        "on"
      ],
      [
        "ON",
        "NY"
      ],
      [
        "Ġt",
        "rying"
      ],
      [
        "nd",
        "s"
      ],
      [
        "Ġy",
        "ears"
      ],
      [
        "Ġne",
        "xt"
      ],
      [
        "Ġl",
        "au"
      ],
      [
        "ĉM",
        "ORP"
      ],
      [
        "HE",
        "US"
      ],
      [
        "ĉMORP",
        "HEUS"
      ],
      [
        "V",
        "ER"
      ],
      [
        "t",
        "ain"
      ],
      [
        "Ġn",
        "ods"
      ],
      [
        "out",
        "h"
      ],
      [
        "AR",
        "T"
      ],
      [
        "W",
        "N"
      ],
      [
        "a",
        "w"
      ],
      [
        "is",
        "e"
      ],
      [
        "Ġp",
        "ass"
      ],
      [
        "Ġg",
        "i"
      ],
      [
        "ĠH",
        "O"
      ],
      [
        "Ġe",
        "ven"
      ],
      [
        "ĠN",
        "ow"
      ],
      [
        "Ġfe",
        "el"
      ],
      [
        "o",
        "se"
      ],
      [
        "Ġd",
        "ark"
      ],
      [
        "Ġpo",
        "in"
      ],
      [
        "Ġb",
        "ig"
      ],
      [
        "ĠC",
        "UT"
      ],
      [
        "ĠM",
        "I"
      ],
      [
        "ĠA",
        "s"
      ],
      [
        "e",
        "k"
      ],
      [
        "Ġa",
        "fter"
      ],
      [
        "Ġst",
        "ops"
      ],
      [
        "Ġon",
        "to"
      ],
      [
        "ĠR",
        "ed"
      ],
      [
        "ri",
        "ad"
      ],
      [
        "ait",
        "o"
      ],
      [
        "erb",
        "al"
      ],
      [
        "E",
        "AT"
      ],
      [
        "_",
        "_"
      ],
      [
        "Ġb",
        "ody"
      ],
      [
        "I",
        "M"
      ],
      [
        "re",
        "en"
      ],
      [
        "Ġc",
        "le"
      ],
      [
        "at",
        "es"
      ],
      [
        "Ġk",
        "ill"
      ],
      [
        "ST",
        "ER"
      ],
      [
        "ERB",
        "AL"
      ],
      [
        "ĠVin",
        "cent"
      ],
      [
        "Ġa",
        "d"
      ],
      [
        "Ġn",
        "ight"
      ],
      [
        "ĠD",
        "ON"
      ],
      [
        "ĠF",
        "R"
      ],
      [
        "ĠĠĠĠĠĠĠĠĠĠĠĠĠĠĠĠĠĠĠĠĠĠ",
        "Ġ"
      ],
      [
        "ĠV",
        "ERBAL"
      ],
      [
        "den",
        "ly"
      ],
      [
        "riad",
        "ne"
      ],
      [
        "l",
        "ed"
      ],
      [
        "Ġ",
        "'"
      ],
      [
        "he",
        "us"
      ],
      [
        "Ġh",
        "u"
      ],
      [
        "Ġpl",
        "ay"
      ],
      [
        "ac",
        "es"
      ],
      [
        "Ġsm",
        "all"
      ],
      [
        "ĠOFF",
        "ICE"
      ],
      [
        "orp",
        "heus"
      ],
      [
        "ĠT",
        "ra"
      ],
      [
        "ar",
        "y"
      ],
      [
        "LE",
        "ONE"
      ],
      [
        "ĠWh",
        "y"
      ],
      [
        "ĠCOR",
        "LEONE"
      ],
      [
        "i",
        "al"
      ],
      [
        "Ġd",
        "ra"
      ],
      [
        "Ġas",
        "s"
      ],
      [
        "Ġse",
        "em"
      ],
      [
        "ick",
        "y"
      ],
      [
        "Ġfe",
        "et"
      ],
      [
        "Ġfuck",
        "in"
      ],
      [
        "Ġstre",
        "et"
      ],
      [
        "n",
        "ess"
      ],
      [
        "AN",
        "E"
      ],
      [
        "r",
        "in"
      ],
      [
        "Ġm",
        "uch"
      ],
      [
        "an",
        "ge"
      ],
      [
        "ĠM",
        "AD"
      ],
      [
        "air",
        "s"
      ],
      [
        "i",
        "ble"
      ],
      [
        "n",
        "g"
      ],
      [
        "o",
        "ve"
      ],
      [
        "ĉ",
        "y"
      ],
      [
        "Ġth",
        "r"
      ],
      [
        "Ġgu",
        "y"
      ],
      [
        "ĠDo",
        "e"
      ],
      [
        "9",
        "4"
      ],
      [
        "Ġs",
        "k"
      ],
      [
        "Ġf",
        "ight"
      ],
      [
        "Ġl",
        "ist"
      ],
      [
        "Ġn",
        "ame"
      ],
      [
        "ic",
        "t"
      ],
      [
        "Ġdoes",
        "n"
      ],
      [
        "TH",
        "UR"
      ],
      [
        "ICK",
        "Y"
      ],
      [
        "ĠAR",
        "THUR"
      ],
      [
        "ĠMAD",
        "OLYN"
      ],
      [
        "or",
        "d"
      ],
      [
        "ĠB",
        "L"
      ],
      [
        "ĠR",
        "ICKY"
      ],
      [
        "ĠMAR",
        "LA"
      ],
      [
        "Ġstare",
        "s"
      ],
      [
        "b",
        "ody"
      ],
      [
        "ay",
        "be"
      ],
      [
        "Ġdo",
        "ing"
      ],
      [
        "Ġal",
        "ong"
      ],
      [
        "Ġany",
        "thing"
      ],
      [
        "ĠBUT",
        "CH"
      ],
      [
        "ĠS",
        "M"
      ],
      [
        "EN",
        "NY"
      ],
      [
        "ro",
        "om"
      ],
      [
        "OR",
        "N"
      ],
      [
        "ĉN",
        "eo"
      ],
      [
        "Ġcont",
        "in"
      ],
      [
        "Ġbu",
        "ild"
      ],
      [
        "o",
        "ly"
      ],
      [
        "ĠJ",
        "ENNY"
      ],
      [
        "Ġbl",
        "ood"
      ],
      [
        "g",
        "ent"
      ],
      [
        "i",
        "et"
      ],
      [
        "Ġ",
        "..."
      ],
      [
        "Ġe",
        "ver"
      ],
      [
        "ĠL",
        "O"
      ],
      [
        "Ġput",
        "s"
      ],
      [
        "R",
        "IN"
      ],
      [
        "Ġb",
        "re"
      ],
      [
        "v",
        "ed"
      ],
      [
        "Ġh",
        "ome"
      ],
      [
        "Ġp",
        "ap"
      ],
      [
        "st",
        "and"
      ],
      [
        "ĠMar",
        "la"
      ],
      [
        "i",
        "x"
      ],
      [
        "Ġ",
        "imp"
      ],
      [
        "at",
        "ing"
      ],
      [
        "Ġd",
        "ream"
      ],
      [
        "Ġl",
        "ast"
      ],
      [
        "Ġg",
        "ive"
      ],
      [
        "st",
        "er"
      ],
      [
        "or",
        "ry"
      ],
      [
        "ĠB",
        "e"
      ],
      [
        "Ġsh",
        "ip"
      ],
      [
        "Ġas",
        "k"
      ],
      [
        "ie",
        "ve"
      ],
      [
        "h",
        "o"
      ],
      [
        "z",
        "e"
      ],
      [
        "Ġb",
        "ar"
      ],
      [
        "UM",
        "P"
      ],
      [
        "Ġke",
        "ep"
      ],
      [
        "Z",
        "Z"
      ],
      [
        "Ġo",
        "wn"
      ],
      [
        "Ġh",
        "ard"
      ],
      [
        "Ġth",
        "ings"
      ],
      [
        "ĠF",
        "ischer"
      ],
      [
        "ĠV",
        "erbal"
      ],
      [
        "Ġmo",
        "ve"
      ],
      [
        "Ġle",
        "ft"
      ],
      [
        "ĉD",
        "ON"
      ],
      [
        "he",
        "ad"
      ],
      [
        "at",
        "ch"
      ],
      [
        "Ġd",
        "ist"
      ],
      [
        "en",
        "ed"
      ],
      [
        "Ġp",
        "ain"
      ],
      [
        "Ġsu",
        "re"
      ],
      [
        "AS",
        "E"
      ],
      [
        "ĠAN",
        "G"
      ],
      [
        "ĠTra",
        "cy"
      ],
      [
        "4",
        "5"
      ],
      [
        "le",
        "v"
      ],
      [
        "Ġit",
        "s"
      ],
      [
        "ĠL",
        "ester"
      ],
      [
        "Ġme",
        "an"
      ],
      [
        "EL",
        "A"
      ],
      [
        "Ġem",
        "p"
      ],
      [
        "g",
        "s"
      ],
      [
        "m",
        "er"
      ],
      [
        "ĠĠĠĠĠĠĠĠĠĠĠĠĠĠĠĠ",
        "ĠĠĠĠ"
      ],
      [
        "Ġc",
        "oun"
      ],
      [
        "ĠC",
        "ol"
      ],
      [
        "ĠO",
        "h"
      ],
      [
        "EAT",
        "ON"
      ],
      [
        "a",
        "ves"
      ],
      [
        "j",
        "ect"
      ],
      [
        "u",
        "es"
      ],
      [
        "Ġd",
        "ro"
      ],
      [
        "ĠS",
        "P"
      ],
      [
        "ve",
        "l"
      ],
      [
        "ĠG",
        "od"
      ],
      [
        "ĉT",
        "RIN"
      ],
      [
        "ap",
        "p"
      ],
      [
        "ĠK",
        "EATON"
      ],
      [
        "ĉTRIN",
        "ITY"
      ],
      [
        "Ġm",
        "oney"
      ],
      [
        "ĠT",
        "RA"
      ],
      [
        "ĠS",
        "C"
      ],
      [
        "ĠD",
        "an"
      ],
      [
        "f",
        "ul"
      ],
      [
        "Ġ",
        "#"
      ],
      [
        "Ġs",
        "n"
      ],
      [
        "Ġf",
        "ing"
      ],
      [
        "Ġm",
        "outh"
      ],
      [
        "id",
        "es"
      ],
      [
        "Ġfr",
        "ie"
      ],
      [
        "Ġlau",
        "gh"
      ],
      [
        "Ġa",
        "p"
      ],
      [
        "ow",
        "ing"
      ],
      [
        "um",
        "b"
      ],
      [
        "Ġgl",
        "ass"
      ],
      [
        "Ġtoward",
        "s"
      ],
      [
        "in",
        "ess"
      ],
      [
        "Ġth",
        "ree"
      ],
      [
        "Ġth",
        "ought"
      ],
      [
        "ĠA",
        "P"
      ],
      [
        "Ġst",
        "op"
      ],
      [
        "Ġat",
        "t"
      ],
      [
        "AN",
        "CE"
      ],
      [
        "Ġj",
        "ob"
      ],
      [
        "Ġwh",
        "ich"
      ],
      [
        "Ġbo",
        "x"
      ],
      [
        "RO",
        "OM"
      ],
      [
        "Ġhel",
        "p"
      ],
      [
        "oly",
        "n"
      ],
      [
        "L",
        "Y"
      ],
      [
        "i",
        "v"
      ],
      [
        "ĠT",
        "H"
      ],
      [
        "AN",
        "T"
      ],
      [
        "ES",
        "S"
      ],
      [
        "r",
        "om"
      ],
      [
        "u",
        "ff"
      ],
      [
        "Ġp",
        "ol"
      ],
      [
        "OR",
        "T"
      ],
      [
        "ĠST",
        "RE"
      ],
      [
        "U",
        "J"
      ],
      [
        "it",
        "c"
      ],
      [
        "ar",
        "ge"
      ],
      [
        "Ġex",
        "p"
      ],
      [
        "ĠCONT",
        "INUED"
      ],
      [
        "ĠWh",
        "o"
      ],
      [
        "ĉ",
        "l"
      ],
      [
        "Ġre",
        "st"
      ],
      [
        "Ġnot",
        "hing"
      ],
      [
        "ĉH",
        "AGEN"
      ],
      [
        "ip",
        "s"
      ],
      [
        "ĉ",
        "O"
      ],
      [
        "Ġs",
        "ame"
      ],
      [
        "Ġre",
        "aches"
      ],
      [
        "EN",
        "Z"
      ],
      [
        "un",
        "g"
      ],
      [
        "Ġ--",
        "ĊĊ"
      ],
      [
        "Ġpl",
        "an"
      ],
      [
        "way",
        "s"
      ],
      [
        "Ġfe",
        "w"
      ],
      [
        "t",
        "he"
      ],
      [
        "Ġf",
        "ar"
      ],
      [
        "Ġp",
        "ie"
      ],
      [
        "om",
        "m"
      ],
      [
        "ĠY",
        "eah"
      ],
      [
        "Ġwh",
        "y"
      ],
      [
        "ap",
        "s"
      ],
      [
        "Ġwor",
        "ld"
      ],
      [
        "ĠSTRE",
        "ET"
      ],
      [
        "K",
        "S"
      ],
      [
        "re",
        "ad"
      ],
      [
        "ĠS",
        "A"
      ],
      [
        "ĉAnd",
        "y"
      ],
      [
        "UJ",
        "AN"
      ],
      [
        "ĉ",
        "L"
      ],
      [
        "ĉ",
        "g"
      ],
      [
        "Ġ",
        "Z"
      ],
      [
        "Ġs",
        "il"
      ],
      [
        "Ġre",
        "ally"
      ],
      [
        "Ġho",
        "le"
      ],
      [
        "Ġent",
        "ers"
      ],
      [
        "i",
        "ver"
      ],
      [
        "t",
        "ed"
      ],
      [
        "Ġp",
        "ast"
      ],
      [
        "Ġe",
        "nd"
      ],
      [
        "ir",
        "t"
      ],
      [
        "ĠK",
        "UJAN"
      ],
      [
        "Ġpick",
        "s"
      ],
      [
        "rin",
        "ity"
      ],
      [
        "Ġw",
        "om"
      ],
      [
        "EN",
        "AN"
      ],
      [
        "ĠO",
        "ne"
      ],
      [
        "IT",
        "E"
      ],
      [
        "Ġwat",
        "er"
      ],
      [
        "ĉS",
        "ONNY"
      ],
      [
        "Ġbel",
        "ieve"
      ],
      [
        "Ġdes",
        "k"
      ],
      [
        "ĠQ",
        "UE"
      ],
      [
        "ĠQUE",
        "ENAN"
      ],
      [
        "E",
        "Y"
      ],
      [
        "h",
        "is"
      ],
      [
        "Ġh",
        "ang"
      ],
      [
        "Ġp",
        "er"
      ],
      [
        "ow",
        "er"
      ],
      [
        "ĉW",
        "hat"
      ],
      [
        "S",
        "E"
      ],
      [
        "n",
        "er"
      ],
      [
        "Ġm",
        "ind"
      ],
      [
        "or",
        "k"
      ],
      [
        "an",
        "ces"
      ],
      [
        "ĠJ",
        "ANE"
      ],
      [
        "IL",
        "D"
      ],
      [
        "Ġgra",
        "bs"
      ],
      [
        "0",
        "6"
      ],
      [
        "ĉ",
        "and"
      ],
      [
        "Ġ",
        "im"
      ],
      [
        "Ġs",
        "er"
      ],
      [
        "Ġs",
        "orry"
      ],
      [
        "Ġm",
        "ade"
      ],
      [
        "an",
        "us"
      ],
      [
        "Ġp",
        "us"
      ],
      [
        "ĠY",
        "es"
      ],
      [
        "Ġout",
        "side"
      ],
      [
        "OT",
        "EL"
      ],
      [
        "1",
        "0"
      ],
      [
        "F",
        "T"
      ],
      [
        "M",
        "AT"
      ],
      [
        "d",
        "er"
      ],
      [
        "o",
        "h"
      ],
      [
        "Ġ",
        "ice"
      ],
      [
        "Ġw",
        "on"
      ],
      [
        "is",
        "es"
      ],
      [
        "Ġc",
        "are"
      ],
      [
        "Ġwe",
        "ll"
      ],
      [
        "ĠE",
        "very"
      ],
      [
        "Ġgu",
        "ys"
      ],
      [
        "i",
        "er"
      ],
      [
        "o",
        "ld"
      ],
      [
        "Ġc",
        "op"
      ],
      [
        "Ġf",
        "ather"
      ],
      [
        "Ġemp",
        "ty"
      ],
      [
        "D",
        "ER"
      ],
      [
        "O",
        "W"
      ],
      [
        "W",
        "O"
      ],
      [
        "Ġf",
        "am"
      ],
      [
        "or",
        "s"
      ],
      [
        "il",
        "ing"
      ],
      [
        "art",
        "ment"
      ],
      [
        "RI",
        "X"
      ],
      [
        "Ġclo",
        "se"
      ],
      [
        "G",
        "ENT"
      ],
      [
        "I",
        "VE"
      ],
      [
        "e",
        "ver"
      ],
      [
        "y",
        "le"
      ],
      [
        "Ġa",
        "ir"
      ],
      [
        "ĠS",
        "h"
      ],
      [
        "ĠH",
        "E"
      ],
      [
        "ĠA",
        "ll"
      ],
      [
        "le",
        "ep"
      ],
      [
        "ĠR",
        "icky"
      ],
      [
        "ĠG",
        "et"
      ],
      [
        "MAT",
        "RIX"
      ],
      [
        "O",
        "V"
      ],
      [
        "O",
        "ICE"
      ],
      [
        "AN",
        "K"
      ],
      [
        "ĠHe",
        "y"
      ],
      [
        "ART",
        "MENT"
      ],
      [
        "I",
        "O"
      ],
      [
        "c",
        "om"
      ],
      [
        "i",
        "b"
      ],
      [
        "l",
        "ess"
      ],
      [
        "s",
        "w"
      ],
      [
        "Ġthe",
        "se"
      ],
      [
        "Ġto",
        "ld"
      ],
      [
        "ĠM",
        "ICHAEL"
      ],
      [
        "OUN",
        "G"
      ],
      [
        "Ġa",
        "ct"
      ],
      [
        "Ġs",
        "ound"
      ],
      [
        "Ġb",
        "ull"
      ],
      [
        "Ġb",
        "ag"
      ],
      [
        "Ġh",
        "igh"
      ],
      [
        "ig",
        "are"
      ],
      [
        "Ġch",
        "air"
      ],
      [
        "AM",
        "ES"
      ],
      [
        "Ġstand",
        "ing"
      ],
      [
        ".\"",
        "ĊĊ"
      ],
      [
        "igare",
        "t"
      ],
      [
        "Ġc",
        "ur"
      ],
      [
        "Ġc",
        "orn"
      ],
      [
        "Ġf",
        "ire"
      ],
      [
        "at",
        "er"
      ],
      [
        "Ġl",
        "ot"
      ],
      [
        "ĠS",
        "E"
      ],
      [
        "ĠA",
        "rthur"
      ],
      [
        "Ġst",
        "e"
      ],
      [
        "im",
        "es"
      ],
      [
        "ĠW",
        "here"
      ],
      [
        "Ġsh",
        "ot"
      ],
      [
        "AT",
        "ION"
      ],
      [
        "Ġsl",
        "ow"
      ],
      [
        "Ġen",
        "ough"
      ],
      [
        "ĉ",
        "P"
      ],
      [
        "Ġ",
        "ON"
      ],
      [
        "en",
        "ing"
      ],
      [
        "ĠJ",
        "ane"
      ],
      [
        "Ġe",
        "l"
      ],
      [
        "am",
        "n"
      ],
      [
        "Ġcom",
        "ing"
      ],
      [
        "Ġfuck",
        "ing"
      ],
      [
        "Ġbus",
        "iness"
      ],
      [
        "f",
        "orm"
      ],
      [
        "o",
        "f"
      ],
      [
        "Ġm",
        "et"
      ],
      [
        "ĠS",
        "aito"
      ],
      [
        "ĠM",
        "y"
      ],
      [
        "ĠF",
        "AB"
      ],
      [
        "ĠY",
        "OUNG"
      ],
      [
        "ill",
        "y"
      ],
      [
        "un",
        "k"
      ],
      [
        "Ġwh",
        "ite"
      ],
      [
        "ĉThe",
        "y"
      ],
      [
        "ĠĠ",
        "Ġ"
      ],
      [
        "Ġb",
        "it"
      ],
      [
        "Ġh",
        "ur"
      ],
      [
        "Ġf",
        "ree"
      ],
      [
        "ĠC",
        "ase"
      ],
      [
        "ĠW",
        "hen"
      ],
      [
        "ĠJ",
        "ust"
      ],
      [
        "am",
        "p"
      ],
      [
        "ress",
        "ed"
      ],
      [
        "a",
        "ut"
      ],
      [
        "y",
        "ing"
      ],
      [
        "ar",
        "olyn"
      ],
      [
        "ĠĠĠĠĠĠĠĠĠĠĠĠĠĠĠĠĠĠĠĠĠĠĠĠĠĠĠĠĠĠĠĠ",
        "ĠĠĠĠĠĠĠĠĠĠĠĠĠĠĠĠĠĠĠĠĠĠĠĠĠĠĠ"
      ],
      [
        "Ġbe",
        "at"
      ],
      [
        "Ġk",
        "id"
      ],
      [
        "Ġse",
        "co"
      ],
      [
        "ul",
        "es"
      ],
      [
        "ĉW",
        "e"
      ],
      [
        "Ġseem",
        "s"
      ],
      [
        "oh",
        "n"
      ],
      [
        "a",
        "z"
      ],
      [
        "i",
        "an"
      ],
      [
        "o",
        "c"
      ],
      [
        "Ġs",
        "ign"
      ],
      [
        "Ġw",
        "ar"
      ],
      [
        "Ġb",
        "ook"
      ],
      [
        "Ġm",
        "akes"
      ],
      [
        "le",
        "ase"
      ],
      [
        "Ġse",
        "at"
      ],
      [
        "Ġle",
        "ad"
      ],
      [
        "ĉI",
        "t"
      ],
      [
        "Ġspe",
        "ak"
      ],
      [
        "ĠCAR",
        "OLYN"
      ],
      [
        "Ġbet",
        "ter"
      ],
      [
        "Ġpap",
        "er"
      ],
      [
        "1",
        "3"
      ],
      [
        "W",
        "AY"
      ],
      [
        "ĉ",
        "in"
      ],
      [
        "ĠH",
        "OTEL"
      ],
      [
        "ĠD",
        "E"
      ],
      [
        "Ġbe",
        "cause"
      ],
      [
        "ĠL",
        "et"
      ],
      [
        "pp",
        "ed"
      ],
      [
        "Ġbo",
        "at"
      ],
      [
        "Ġcont",
        "ro"
      ],
      [
        "Ġevery",
        "thing"
      ],
      [
        "Ġtri",
        "es"
      ],
      [
        "ENZ",
        "A"
      ],
      [
        "M",
        "ENZA"
      ],
      [
        "t",
        "il"
      ],
      [
        "w",
        "o"
      ],
      [
        "ĉ",
        "to"
      ],
      [
        "Ġb",
        "ot"
      ],
      [
        "at",
        "ter"
      ],
      [
        "Ġm",
        "in"
      ],
      [
        "ĠS",
        "m"
      ],
      [
        "ĠM",
        "ORN"
      ],
      [
        "ĠB",
        "AR"
      ],
      [
        "EN",
        "CH"
      ],
      [
        "ard",
        "s"
      ],
      [
        "LE",
        "MENZA"
      ],
      [
        "UR",
        "N"
      ],
      [
        "ĠMORN",
        "ING"
      ],
      [
        "O",
        "LL"
      ],
      [
        "o",
        "ver"
      ],
      [
        "r",
        "u"
      ],
      [
        "Ġs",
        "et"
      ],
      [
        "Ġc",
        "ase"
      ],
      [
        "ĠM",
        "ur"
      ],
      [
        "ch",
        "ing"
      ],
      [
        "ic",
        "es"
      ],
      [
        "ĠO",
        "n"
      ],
      [
        "ie",
        "ld"
      ],
      [
        "IT",
        "H"
      ],
      [
        "em",
        "ber"
      ],
      [
        "Ġsay",
        "s"
      ],
      [
        "Ġcr",
        "ow"
      ],
      [
        "Ġhold",
        "ing"
      ],
      [
        "Ġunder",
        "stand"
      ],
      [
        "Ġdr",
        "ink"
      ],
      [
        "Ġbre",
        "ak"
      ],
      [
        "i",
        "o"
      ],
      [
        "re",
        "s"
      ],
      [
        "Ġh",
        "al"
      ],
      [
        "Ġc",
        "ell"
      ],
      [
        "Ġst",
        "ra"
      ],
      [
        "ve",
        "al"
      ],
      [
        "id",
        "ent"
      ],
      [
        "ce",
        "pt"
      ],
      [
        "Ġre",
        "d"
      ],
      [
        "ĠP",
        "R"
      ],
      [
        "ĠE",
        "AMES"
      ],
      [
        "ell",
        "o"
      ],
      [
        "Ġfoll",
        "ow"
      ],
      [
        "ĠMcM",
        "anus"
      ],
      [
        "ĠAP",
        "ARTMENT"
      ],
      [
        "ĠMur",
        "ph"
      ],
      [
        "I",
        "P"
      ],
      [
        "I",
        "EN"
      ],
      [
        "o",
        "k"
      ],
      [
        "Ġa",
        "in"
      ],
      [
        "Ġc",
        "igaret"
      ],
      [
        "Ġto",
        "p"
      ],
      [
        "Ġl",
        "ine"
      ],
      [
        "ĠC",
        "ost"
      ],
      [
        "Ġst",
        "ay"
      ],
      [
        "ic",
        "al"
      ],
      [
        "ĉA",
        "GENT"
      ],
      [
        "Ġey",
        "e"
      ],
      [
        "ub",
        "b"
      ],
      [
        "l",
        "ight"
      ],
      [
        "or",
        "y"
      ],
      [
        "Ġre",
        "l"
      ],
      [
        "Ġsh",
        "r"
      ],
      [
        "Ġan",
        "sw"
      ],
      [
        "ĠG",
        "ump"
      ],
      [
        "Ġle",
        "ans"
      ],
      [
        "IG",
        "N"
      ],
      [
        "Ġsu",
        "pp"
      ],
      [
        "Ġal",
        "ways"
      ],
      [
        "ure",
        "s"
      ],
      [
        "Ġqu",
        "ick"
      ],
      [
        "Ġlight",
        "s"
      ],
      [
        "get",
        "her"
      ],
      [
        "Ġcontin",
        "ues"
      ],
      [
        "Ġbuild",
        "ing"
      ],
      [
        "Ġwom",
        "an"
      ],
      [
        "1",
        "2"
      ],
      [
        "S",
        "P"
      ],
      [
        "p",
        "e"
      ],
      [
        "u",
        "f"
      ],
      [
        "ĉ",
        "K"
      ],
      [
        "Ġ",
        "EN"
      ],
      [
        "Ġf",
        "ound"
      ],
      [
        "Ġd",
        "one"
      ],
      [
        "ĠM",
        "al"
      ],
      [
        "ĠB",
        "RO"
      ],
      [
        "ĠJ",
        "ohn"
      ],
      [
        "Ġsh",
        "o"
      ],
      [
        "Ġle",
        "ave"
      ],
      [
        "Ġtalk",
        "ing"
      ],
      [
        "Ġwatch",
        "ing"
      ],
      [
        "--------",
        "--------"
      ],
      [
        "Ġb",
        "ad"
      ],
      [
        "Ġth",
        "ose"
      ],
      [
        "Ġbe",
        "ing"
      ],
      [
        "================",
        "================"
      ],
      [
        "Ġwait",
        "ing"
      ],
      [
        "ĠANG",
        "ELA"
      ],
      [
        "A",
        "CE"
      ],
      [
        "U",
        "G"
      ],
      [
        "m",
        "ost"
      ],
      [
        "n",
        "ed"
      ],
      [
        "Ġs",
        "qu"
      ],
      [
        "Ġb",
        "reat"
      ],
      [
        "Ġc",
        "ent"
      ],
      [
        "ĠI",
        "s"
      ],
      [
        "Ġg",
        "round"
      ],
      [
        "Ġhe",
        "ll"
      ],
      [
        "Ġe",
        "ar"
      ],
      [
        "ver",
        "s"
      ],
      [
        "Ġro",
        "ck"
      ],
      [
        "Ġbo",
        "y"
      ],
      [
        "ĉy",
        "ou"
      ],
      [
        "C",
        "Y"
      ],
      [
        "o",
        "in"
      ],
      [
        "r",
        "or"
      ],
      [
        "Ġ",
        "ide"
      ],
      [
        "in",
        "y"
      ],
      [
        "Ġh",
        "it"
      ],
      [
        "Ġg",
        "one"
      ],
      [
        "ĠD",
        "AN"
      ],
      [
        "ĠJ",
        "ules"
      ],
      [
        "ri",
        "es"
      ],
      [
        "ĠV",
        "OICE"
      ],
      [
        "Ġab",
        "ove"
      ],
      [
        "Ġro",
        "ll"
      ],
      [
        "Ġgi",
        "ves"
      ],
      [
        "ĠFR",
        "ENCH"
      ],
      [
        "H",
        "N"
      ],
      [
        "O",
        "HN"
      ],
      [
        "b",
        "o"
      ],
      [
        "m",
        "s"
      ],
      [
        "r",
        "ist"
      ],
      [
        "ct",
        "ion"
      ],
      [
        "Ġsu",
        "b"
      ],
      [
        "ff",
        "ee"
      ],
      [
        "A",
        "rthur"
      ],
      [
        "Ġc",
        "ut"
      ],
      [
        "Ġm",
        "ight"
      ],
      [
        "ĠM",
        "orpheus"
      ],
      [
        "Ġhe",
        "ard"
      ],
      [
        "ĠL",
        "I"
      ],
      [
        "ĠL",
        "T"
      ],
      [
        "ri",
        "e"
      ],
      [
        "Ġch",
        "ild"
      ],
      [
        "Ġcl",
        "im"
      ],
      [
        "Ġlo",
        "ve"
      ],
      [
        "ĠĠĠĠĠĠĠĠĠĠĠĠĠĠĠĠĠĠĠĠĠĠĠĠĠĠĠĠĠĠ",
        "Ġ"
      ],
      [
        "ĠFAB",
        "IEN"
      ],
      [
        "ĠFABIEN",
        "NE"
      ],
      [
        "Ġf",
        "oot"
      ],
      [
        "Ġl",
        "arge"
      ],
      [
        "Ġg",
        "ir"
      ],
      [
        "Ġyou",
        "ng"
      ],
      [
        "ĠA",
        "riadne"
      ],
      [
        "ĠL",
        "ook"
      ],
      [
        "ĠP",
        "RI"
      ],
      [
        "ers",
        "on"
      ],
      [
        "OM",
        "AN"
      ],
      [
        "AT",
        "E"
      ],
      [
        "ap",
        "e"
      ],
      [
        "Ġfall",
        "s"
      ],
      [
        "we",
        "en"
      ],
      [
        "E",
        "CT"
      ],
      [
        "c",
        "ed"
      ],
      [
        "c",
        "le"
      ],
      [
        "d",
        "s"
      ],
      [
        "re",
        "t"
      ],
      [
        "ĠM",
        "an"
      ],
      [
        "ĠN",
        "ew"
      ],
      [
        "IT",
        "O"
      ],
      [
        "ne",
        "y"
      ],
      [
        "Ġsit",
        "ting"
      ],
      [
        "D",
        "Y"
      ],
      [
        "Ġb",
        "oth"
      ],
      [
        "Ġc",
        "ross"
      ],
      [
        "Ġf",
        "ast"
      ],
      [
        "ĠĠĠĠĠĠĠĠĠĠĠĠĠĠĠĠĠĠĠĠĠĠĠĠĠĠĠĠĠĠĠĠ",
        "ĠĠĠĠĠĠĠĠĠĠĠĠĠĠĠĠĠĠĠĠĠĠĠĠĠĠĠĠ"
      ],
      [
        "Ġin",
        "c"
      ],
      [
        "se",
        "ll"
      ],
      [
        "Ġre",
        "veal"
      ],
      [
        "Ġsh",
        "ut"
      ],
      [
        "Ġco",
        "ll"
      ],
      [
        "ĠDo",
        "yle"
      ],
      [
        "Ġfrie",
        "nd"
      ],
      [
        "n",
        "ot"
      ],
      [
        "Ġs",
        "on"
      ],
      [
        "Ġd",
        "if"
      ],
      [
        "Ġm",
        "ass"
      ],
      [
        "Ġl",
        "ay"
      ],
      [
        "ĠS",
        "ome"
      ],
      [
        "ĠB",
        "illy"
      ],
      [
        "ĠCO",
        "M"
      ],
      [
        "ĠR",
        "E"
      ],
      [
        "Ġse",
        "en"
      ],
      [
        "Ġwh",
        "ile"
      ],
      [
        "Ġoff",
        "ice"
      ],
      [
        "ĉS",
        "he"
      ],
      [
        "fe",
        "ren"
      ],
      [
        "Ġide",
        "a"
      ],
      [
        "6",
        "6"
      ],
      [
        "ĉ",
        "e"
      ],
      [
        "nd",
        "red"
      ],
      [
        "Ġc",
        "our"
      ],
      [
        "Ġc",
        "ame"
      ],
      [
        "Ġf",
        "ive"
      ],
      [
        "on",
        "y"
      ],
      [
        "Ġto",
        "gether"
      ],
      [
        "ĠS",
        "e"
      ],
      [
        "ĠM",
        "OM"
      ],
      [
        "ĠM",
        "AL"
      ],
      [
        "Ġr",
        "ad"
      ],
      [
        "ut",
        "e"
      ],
      [
        "ant",
        "s"
      ],
      [
        "Ġmo",
        "ving"
      ],
      [
        "Ġother",
        "s"
      ],
      [
        "Ġsome",
        "one"
      ],
      [
        "ank",
        "s"
      ],
      [
        "ĠSA",
        "ITO"
      ],
      [
        "Ġel",
        "se"
      ],
      [
        "Ġc",
        "re"
      ],
      [
        "at",
        "t"
      ],
      [
        "Ġsh",
        "akes"
      ],
      [
        "AD",
        "E"
      ],
      [
        "Ġco",
        "ffee"
      ],
      [
        "Ġtr",
        "uck"
      ],
      [
        "ort",
        "on"
      ],
      [
        "itc",
        "hen"
      ],
      [
        "Ġcrow",
        "d"
      ],
      [
        "c",
        "ess"
      ],
      [
        "n",
        "o"
      ],
      [
        "Ġt",
        "ou"
      ],
      [
        "en",
        "se"
      ],
      [
        "Ġg",
        "reat"
      ],
      [
        "ĠĠĠĠĠĠĠĠĠĠĠĠĠĠĠĠĠĠĠĠĠĠĠĠĠĠĠĠĠĠĠĠ",
        "ĠĠĠĠĠĠĠĠĠĠĠĠĠĠĠĠĠĠĠĠĠĠĠĠĠĠĠĠĠĠĠĠĠĠ"
      ],
      [
        "ĠA",
        "fter"
      ],
      [
        "ĠJ",
        "OHN"
      ],
      [
        "ack",
        "s"
      ],
      [
        "ĠL",
        "t"
      ],
      [
        "Ġk",
        "ick"
      ],
      [
        "Ġget",
        "ting"
      ],
      [
        "Ġsu",
        "d"
      ],
      [
        "Ġhead",
        "s"
      ],
      [
        "Ġph",
        "ot"
      ],
      [
        "ud",
        "denly"
      ],
      [
        "ĠMI",
        "A"
      ],
      [
        "Ġcorn",
        "er"
      ],
      [
        "d",
        "y"
      ],
      [
        "o",
        "nd"
      ],
      [
        "Ġw",
        "ent"
      ],
      [
        "Ġd",
        "et"
      ],
      [
        "ar",
        "b"
      ],
      [
        "ĠH",
        "ALL"
      ],
      [
        "ER",
        "A"
      ],
      [
        "Ġre",
        "sp"
      ],
      [
        "Ġal",
        "one"
      ],
      [
        "Ġslow",
        "ly"
      ],
      [
        "Ġhal",
        "f"
      ],
      [
        "ĠCost",
        "ello"
      ],
      [
        "-",
        "l"
      ],
      [
        "-",
        "p"
      ],
      [
        "a",
        "x"
      ],
      [
        "d",
        "ay"
      ],
      [
        "i",
        "pp"
      ],
      [
        "it",
        "ion"
      ],
      [
        "Ġf",
        "ill"
      ],
      [
        "Ġm",
        "ir"
      ],
      [
        "Ġm",
        "ust"
      ],
      [
        "ent",
        "s"
      ],
      [
        "ent",
        "ly"
      ],
      [
        "ĠR",
        "e"
      ],
      [
        "Ġv",
        "an"
      ],
      [
        "Ġsc",
        "reen"
      ],
      [
        "ho",
        "le"
      ],
      [
        "-",
        "f"
      ],
      [
        "e",
        "y"
      ],
      [
        "u",
        "ally"
      ],
      [
        "w",
        "here"
      ],
      [
        "Ġh",
        "all"
      ],
      [
        "Ġm",
        "iss"
      ],
      [
        "OR",
        "E"
      ],
      [
        "CH",
        "ER"
      ],
      [
        "Ġtra",
        "in"
      ],
      [
        "Ġwr",
        "ong"
      ],
      [
        "Ġpoin",
        "ts"
      ],
      [
        "Ġfam",
        "ily"
      ],
      [
        "Ġseco",
        "nd"
      ],
      [
        "ĠBRO",
        "WN"
      ],
      [
        "S",
        "ER"
      ],
      [
        "Ġs",
        "ir"
      ],
      [
        "Ġw",
        "ife"
      ],
      [
        "Ġb",
        "ra"
      ],
      [
        "Ġd",
        "ire"
      ],
      [
        "oo",
        "f"
      ],
      [
        "Ġk",
        "itchen"
      ],
      [
        "IT",
        "CH"
      ],
      [
        "UN",
        "T"
      ],
      [
        "Ġun",
        "til"
      ],
      [
        "Ġfoll",
        "ows"
      ],
      [
        "Ġbet",
        "ween"
      ],
      [
        "lev",
        "ator"
      ],
      [
        "Ġpol",
        "ice"
      ],
      [
        "y",
        "p"
      ],
      [
        "Ġt",
        "ry"
      ],
      [
        "Ġl",
        "and"
      ],
      [
        "Ġp",
        "a"
      ],
      [
        "ve",
        "red"
      ],
      [
        "ĠD",
        "IGN"
      ],
      [
        "ĠF",
        "IT"
      ],
      [
        "AN",
        "G"
      ],
      [
        "AN",
        "US"
      ],
      [
        "ĠR",
        "oth"
      ],
      [
        "Ġk",
        "iss"
      ],
      [
        "ENT",
        "S"
      ],
      [
        "au",
        "ght"
      ],
      [
        "Ġwor",
        "m"
      ],
      [
        "Ġde",
        "c"
      ],
      [
        "ĉK",
        "AY"
      ],
      [
        "ĠDIGN",
        "AM"
      ],
      [
        "O",
        "ZZ"
      ],
      [
        "c",
        "ur"
      ],
      [
        "Ġm",
        "other"
      ],
      [
        "ĠS",
        "U"
      ],
      [
        "ĠA",
        "l"
      ],
      [
        "ĠW",
        "OMAN"
      ],
      [
        "Ġre",
        "c"
      ],
      [
        "um",
        "ber"
      ],
      [
        "Ġpo",
        "ck"
      ],
      [
        "ĠBU",
        "ILD"
      ],
      [
        "OLL",
        "OZZ"
      ],
      [
        "OLLOZZ",
        "O"
      ],
      [
        "U",
        "ARD"
      ],
      [
        "g",
        "ing"
      ],
      [
        "i",
        "red"
      ],
      [
        "s",
        "o"
      ],
      [
        "Ġo",
        "kay"
      ],
      [
        "is",
        "ion"
      ],
      [
        "Ġh",
        "um"
      ],
      [
        "Ġc",
        "ra"
      ],
      [
        "Ġm",
        "ot"
      ],
      [
        "Ġon",
        "ce"
      ],
      [
        "Ġsh",
        "ow"
      ],
      [
        "ĠO",
        "kay"
      ],
      [
        "Ġyour",
        "self"
      ],
      [
        "ation",
        "s"
      ],
      [
        "Ġrun",
        "ning"
      ],
      [
        "AG",
        "E"
      ],
      [
        "Ġshould",
        "er"
      ],
      [
        "sell",
        "us"
      ],
      [
        "I",
        "ST"
      ],
      [
        "Ġt",
        "ight"
      ],
      [
        "Ġb",
        "all"
      ],
      [
        "Ġin",
        "t"
      ],
      [
        "ER",
        "N"
      ],
      [
        "Ġe",
        "levator"
      ],
      [
        "Ġk",
        "ind"
      ],
      [
        "Ġkn",
        "ew"
      ],
      [
        "Ġsp",
        "ace"
      ],
      [
        "OT",
        "H"
      ],
      [
        "Ġbo",
        "ys"
      ],
      [
        "Ġqu",
        "iet"
      ],
      [
        "ĠMar",
        "sellus"
      ],
      [
        "ĠCh",
        "rist"
      ],
      [
        "ĠĠĠĠĠĠĠĠĠĠĠĠĠĠĠĠĠĠĠĠĠĠĠĠĠĠĠĠĠĠĠĠĠĠĠĠĠĠĠĠĠĠĠĠĠĠĠĠ",
        "Ġ"
      ],
      [
        "Ġhu",
        "ndred"
      ],
      [
        "Ġap",
        "artment"
      ],
      [
        "ĠMOM",
        "ENTS"
      ],
      [
        "ITCH",
        "EN"
      ],
      [
        "ĠBUILD",
        "ING"
      ],
      [
        "L",
        "ester"
      ],
      [
        "o",
        "ice"
      ],
      [
        "t",
        "a"
      ],
      [
        "Ġt",
        "iny"
      ],
      [
        "er",
        "ing"
      ],
      [
        "Ġf",
        "ull"
      ],
      [
        "Ġp",
        "ict"
      ],
      [
        "ĠC",
        "ome"
      ],
      [
        "ĠM",
        "ia"
      ],
      [
        "le",
        "y"
      ],
      [
        "ES",
        "E"
      ],
      [
        "Ġal",
        "most"
      ],
      [
        "Ġus",
        "ed"
      ],
      [
        "Ġpro",
        "ble"
      ],
      [
        "orn",
        "ing"
      ],
      [
        "Ġbel",
        "ow"
      ],
      [
        "Ġhapp",
        "ened"
      ],
      [
        "Ġrem",
        "ember"
      ],
      [
        "ĠSM",
        "ITH"
      ],
      [
        "Ġcigaret",
        "te"
      ],
      [
        "5",
        "5"
      ],
      [
        "O",
        "OT"
      ],
      [
        "c",
        "hed"
      ],
      [
        "g",
        "es"
      ],
      [
        "m",
        "an"
      ],
      [
        "z",
        "z"
      ],
      [
        "Ġ",
        "ed"
      ],
      [
        "Ġ",
        "UN"
      ],
      [
        "Ġs",
        "ch"
      ],
      [
        "Ġst",
        "airs"
      ],
      [
        "am",
        "s"
      ],
      [
        "Ġwith",
        "out"
      ],
      [
        "ĠP",
        "H"
      ],
      [
        "Ġle",
        "aves"
      ],
      [
        "ĉR",
        "ed"
      ],
      [
        "Ġwould",
        "n"
      ],
      [
        "Ġfind",
        "s"
      ],
      [
        "ĠMcM",
        "ANUS"
      ],
      [
        "ĠMI",
        "STER"
      ],
      [
        "Ġdif",
        "feren"
      ],
      [
        "1",
        "4"
      ],
      [
        "H",
        "e"
      ],
      [
        "a",
        "ving"
      ],
      [
        "b",
        "r"
      ],
      [
        "Ġc",
        "ap"
      ],
      [
        "ar",
        "m"
      ],
      [
        "ĠĠĠĠĠĠĠĠĠĠĠĠĠĠĠĠĠĠĠĠĠĠĠĠĠĠĠĠĠĠĠĠ",
        "ĠĠĠĠĠĠĠĠĠĠĠĠĠĠĠĠĠĠĠ"
      ],
      [
        "Ġin",
        "st"
      ],
      [
        "IN",
        "E"
      ],
      [
        "al",
        "m"
      ],
      [
        "ĠF",
        "IS"
      ],
      [
        "ent",
        "ion"
      ],
      [
        "Ġfor",
        "ward"
      ],
      [
        "if",
        "ts"
      ],
      [
        "Ġwas",
        "n"
      ],
      [
        "Ġknow",
        "s"
      ],
      [
        "au",
        "l"
      ],
      [
        "Ġwhe",
        "el"
      ],
      [
        "Ġen",
        "g"
      ],
      [
        "ĠTRA",
        "CY"
      ],
      [
        "Ġplan",
        "et"
      ],
      [
        "e",
        "red"
      ],
      [
        "g",
        "r"
      ],
      [
        "ĉ",
        "a"
      ],
      [
        "ĉ",
        "st"
      ],
      [
        "er",
        "v"
      ],
      [
        "Ġb",
        "en"
      ],
      [
        "Ġc",
        "ops"
      ],
      [
        "at",
        "s"
      ],
      [
        "on",
        "es"
      ],
      [
        "Ġl",
        "ow"
      ],
      [
        "ĠA",
        "re"
      ],
      [
        "ot",
        "s"
      ],
      [
        "ĠD",
        "ET"
      ],
      [
        "Ġr",
        "ob"
      ],
      [
        "ĠG",
        "UMP"
      ],
      [
        "ie",
        "w"
      ],
      [
        "Ġwho",
        "le"
      ],
      [
        "Ġarm",
        "s"
      ],
      [
        "Ġfing",
        "er"
      ],
      [
        "ubb",
        "a"
      ],
      [
        "I",
        "F"
      ],
      [
        "Y",
        "LE"
      ],
      [
        "c",
        "er"
      ],
      [
        "g",
        "ed"
      ],
      [
        "o",
        "ke"
      ],
      [
        "o",
        "ss"
      ],
      [
        "o",
        "ff"
      ],
      [
        "u",
        "se"
      ],
      [
        "Ġc",
        "e"
      ],
      [
        "ĠT",
        "ars"
      ],
      [
        "ĠB",
        "URN"
      ],
      [
        "Ġis",
        "n"
      ],
      [
        "Ġre",
        "f"
      ],
      [
        "ent",
        "y"
      ],
      [
        "AT",
        "H"
      ],
      [
        "Ġmo",
        "st"
      ],
      [
        "Ġgl",
        "ances"
      ],
      [
        "Ġbeg",
        "in"
      ],
      [
        "__",
        "__"
      ],
      [
        "Ġquick",
        "ly"
      ],
      [
        "ĠFIS",
        "CHER"
      ],
      [
        "A",
        "IR"
      ],
      [
        "H",
        "AM"
      ],
      [
        "S",
        "ON"
      ],
      [
        "Ġt",
        "er"
      ],
      [
        "Ġp",
        "ark"
      ],
      [
        "ĠM",
        "EN"
      ],
      [
        "ĠB",
        "ED"
      ],
      [
        "im",
        "m"
      ],
      [
        "Ġwe",
        "aring"
      ],
      [
        "one",
        "l"
      ],
      [
        "lo",
        "ck"
      ],
      [
        "ab",
        "in"
      ],
      [
        "ĉN",
        "o"
      ],
      [
        "ELLO",
        "W"
      ],
      [
        "Ġqu",
        "est"
      ],
      [
        "Ġwork",
        "ing"
      ],
      [
        "ĠU",
        "P"
      ],
      [
        "ĠCol",
        "onel"
      ],
      [
        "Ġsud",
        "denly"
      ],
      [
        "ĉ",
        "of"
      ],
      [
        "Ġs",
        "leep"
      ],
      [
        "Ġo",
        "b"
      ],
      [
        "Ġb",
        "ath"
      ],
      [
        "Ġh",
        "ot"
      ],
      [
        "or",
        "r"
      ],
      [
        "ĠT",
        "wo"
      ],
      [
        "ĠC",
        "ASE"
      ],
      [
        "ĠĠĠĠĠĠĠĠĠĠĠĠĠĠĠĠĠĠĠĠĠĠĠĠĠĠĠĠĠĠĠĠ",
        "ĠĠĠĠĠĠĠĠĠĠĠĠĠĠĠĠĠĠĠĠĠĠĠĠĠĠĠĠĠĠĠĠĠ"
      ],
      [
        "ĠB",
        "ubba"
      ],
      [
        "ĠA",
        "gent"
      ],
      [
        "Ġu",
        "se"
      ],
      [
        "Ġre",
        "p"
      ],
      [
        "ĠY",
        "ELLOW"
      ],
      [
        "ĠG",
        "ood"
      ],
      [
        "AT",
        "OR"
      ],
      [
        "Ġro",
        "ad"
      ],
      [
        "Ġdoor",
        "s"
      ],
      [
        "ag",
        "es"
      ],
      [
        "ĉC",
        "LEMENZA"
      ],
      [
        "iz",
        "e"
      ],
      [
        "Ġclos",
        "es"
      ],
      [
        "Ġapp",
        "ro"
      ],
      [
        "ĠBL",
        "ACK"
      ],
      [
        "Ġdro",
        "ps"
      ],
      [
        "ORT",
        "ON"
      ],
      [
        "Ġworm",
        "hole"
      ],
      [
        "-",
        "b"
      ],
      [
        "d",
        "le"
      ],
      [
        "ĉ",
        "he"
      ],
      [
        "Ġc",
        "ir"
      ],
      [
        "Ġc",
        "ity"
      ],
      [
        "Ġp",
        "ay"
      ],
      [
        "Ġin",
        "d"
      ],
      [
        "ĠM",
        "aybe"
      ],
      [
        "ĠA",
        "t"
      ],
      [
        "Ġst",
        "aring"
      ],
      [
        "Ġre",
        "t"
      ],
      [
        "Ġme",
        "et"
      ],
      [
        "ĉT",
        "ANK"
      ],
      [
        "LE",
        "Y"
      ],
      [
        "Ġde",
        "ep"
      ],
      [
        "LO",
        "W"
      ],
      [
        "Ġtr",
        "ans"
      ],
      [
        "Ġcon",
        "f"
      ],
      [
        "mer",
        "ic"
      ],
      [
        "Ġpus",
        "hes"
      ],
      [
        "A",
        "K"
      ],
      [
        "P",
        "HER"
      ],
      [
        "u",
        "j"
      ],
      [
        "Ġt",
        "aking"
      ],
      [
        "is",
        "on"
      ],
      [
        "is",
        "ed"
      ],
      [
        "Ġf",
        "ig"
      ],
      [
        "Ġp",
        "erson"
      ],
      [
        "ar",
        "r"
      ],
      [
        "ĠC",
        "ON"
      ],
      [
        "AR",
        "S"
      ],
      [
        "us",
        "uf"
      ],
      [
        "ak",
        "en"
      ],
      [
        "Ġsu",
        "it"
      ],
      [
        "Ġgu",
        "ess"
      ],
      [
        "Ġpro",
        "be"
      ],
      [
        "Ġcle",
        "ar"
      ],
      [
        "A",
        "C"
      ],
      [
        "E",
        "ames"
      ],
      [
        "M",
        "ER"
      ],
      [
        "c",
        "i"
      ],
      [
        "i",
        "ves"
      ],
      [
        "ĉ",
        "J"
      ],
      [
        "Ġs",
        "ing"
      ],
      [
        "Ġs",
        "ix"
      ],
      [
        "es",
        "ide"
      ],
      [
        "it",
        "al"
      ],
      [
        "Ġf",
        "our"
      ],
      [
        "Ġm",
        "ur"
      ],
      [
        "ĠT",
        "V"
      ],
      [
        "ĠC",
        "an"
      ],
      [
        "ĠM",
        "R"
      ],
      [
        "ir",
        "d"
      ],
      [
        "ĠK",
        "e"
      ],
      [
        "ĠK",
        "ITCHEN"
      ],
      [
        "INT",
        "ER"
      ],
      [
        "Ġsm",
        "ile"
      ],
      [
        "ĠDO",
        "YLE"
      ],
      [
        "os",
        "ed"
      ],
      [
        "ock",
        "ney"
      ],
      [
        "Ġsch",
        "ool"
      ],
      [
        "ĠBURN",
        "HAM"
      ],
      [
        "c",
        "ious"
      ],
      [
        "Ġb",
        "ro"
      ],
      [
        "Ġb",
        "est"
      ],
      [
        "Ġb",
        "ooks"
      ],
      [
        "Ġd",
        "ie"
      ],
      [
        "ĠC",
        "ELL"
      ],
      [
        "ĠS",
        "L"
      ],
      [
        "Ġst",
        "ud"
      ],
      [
        "al",
        "s"
      ],
      [
        "ĠD",
        "id"
      ],
      [
        "LL",
        "ERB"
      ],
      [
        "ĠE",
        "LLERB"
      ],
      [
        "Ġnot",
        "ices"
      ],
      [
        "Ġcon",
        "s"
      ],
      [
        "Ġche",
        "ck"
      ],
      [
        "ug",
        "s"
      ],
      [
        "Ġread",
        "y"
      ],
      [
        "UG",
        "H"
      ],
      [
        "ĠELLERB",
        "Y"
      ],
      [
        "T",
        "AIN"
      ],
      [
        "W",
        "INTER"
      ],
      [
        "o",
        "y"
      ],
      [
        "Ġc",
        "ou"
      ],
      [
        "Ġm",
        "ar"
      ],
      [
        "Ġm",
        "ach"
      ],
      [
        "Ġn",
        "umber"
      ],
      [
        "Ġr",
        "a"
      ],
      [
        "Ġdo",
        "ll"
      ],
      [
        "ĠL",
        "A"
      ],
      [
        "ir",
        "ty"
      ],
      [
        "ĠP",
        "L"
      ],
      [
        "Ġha",
        "ir"
      ],
      [
        "ĉT",
        "hat"
      ],
      [
        "ge",
        "la"
      ],
      [
        "are",
        "d"
      ],
      [
        "Ġman",
        "y"
      ],
      [
        "our",
        "s"
      ],
      [
        "iz",
        "ed"
      ],
      [
        "ph",
        "one"
      ],
      [
        "aut",
        "if"
      ],
      [
        "Ġshr",
        "imp"
      ],
      [
        "Ġansw",
        "er"
      ],
      [
        "ĠEN",
        "D"
      ],
      [
        "Ġgir",
        "l"
      ],
      [
        "Ġdire",
        "ct"
      ],
      [
        "uj",
        "an"
      ],
      [
        "1",
        "5"
      ],
      [
        "A",
        "riadne"
      ],
      [
        "S",
        "H"
      ],
      [
        "c",
        "ome"
      ],
      [
        "t",
        "en"
      ],
      [
        "ĊĊ",
        "ĊĊ"
      ],
      [
        "Ġs",
        "y"
      ],
      [
        "Ġm",
        "id"
      ],
      [
        "ĠT",
        "rinity"
      ],
      [
        "Ġp",
        "an"
      ],
      [
        "Ġg",
        "rou"
      ],
      [
        "Ġin",
        "ter"
      ],
      [
        "ĠB",
        "E"
      ],
      [
        "IN",
        "D"
      ],
      [
        "ĠH",
        "ockney"
      ],
      [
        "Ġst",
        "ep"
      ],
      [
        "ĠW",
        "H"
      ],
      [
        "ĠW",
        "OL"
      ],
      [
        "Ġr",
        "ain"
      ],
      [
        "ĠYou",
        "r"
      ],
      [
        "Ġne",
        "ar"
      ],
      [
        "Ġli",
        "es"
      ],
      [
        "ull",
        "y"
      ],
      [
        "urn",
        "s"
      ],
      [
        "Ġcom",
        "pl"
      ],
      [
        "ul",
        "ar"
      ],
      [
        "Ġwant",
        "ed"
      ],
      [
        "Ġsa",
        "w"
      ],
      [
        "ĠBr",
        "own"
      ],
      [
        "Ġspe",
        "ed"
      ],
      [
        "Ġclos",
        "er"
      ],
      [
        "Ġdra",
        "w"
      ],
      [
        "read",
        "y"
      ],
      [
        "ĠDET",
        "ECT"
      ],
      [
        "ĠBED",
        "ROOM"
      ],
      [
        "d",
        "amn"
      ],
      [
        "p",
        "r"
      ],
      [
        "p",
        "ause"
      ],
      [
        "Ġa",
        "w"
      ],
      [
        "er",
        "t"
      ],
      [
        "Ġm",
        "on"
      ],
      [
        "ĠT",
        "OM"
      ],
      [
        "ĠC",
        "L"
      ],
      [
        "ĠB",
        "ob"
      ],
      [
        "ĠF",
        "uck"
      ],
      [
        "if",
        "t"
      ],
      [
        "us",
        "ed"
      ],
      [
        "ĉM",
        "orpheus"
      ],
      [
        "UN",
        "D"
      ],
      [
        "Ġen",
        "vel"
      ],
      [
        "Ġsw",
        "eat"
      ],
      [
        "Ġcall",
        "ed"
      ],
      [
        "Ġread",
        "s"
      ],
      [
        "ĠSm",
        "ith"
      ],
      [
        "Ġcent",
        "er"
      ],
      [
        "ĠPRI",
        "SON"
      ],
      [
        "Ġproble",
        "m"
      ],
      [
        ".",
        "A"
      ],
      [
        "f",
        "ace"
      ],
      [
        "ĉ",
        "be"
      ],
      [
        "Ġt",
        "en"
      ],
      [
        "Ġf",
        "ore"
      ],
      [
        "Ġm",
        "orning"
      ],
      [
        "Ġg",
        "as"
      ],
      [
        "ĠC",
        "LO"
      ],
      [
        "Ġwe",
        "ek"
      ],
      [
        "ic",
        "ally"
      ],
      [
        "ab",
        "ly"
      ],
      [
        "ĉt",
        "h"
      ],
      [
        "Ġwalk",
        "ing"
      ],
      [
        "AS",
        "S"
      ],
      [
        "Ġcl",
        "ot"
      ],
      [
        "ĠQ",
        "ue"
      ],
      [
        "Ġfin",
        "ally"
      ],
      [
        "Ġstra",
        "ight"
      ],
      [
        "Ġchild",
        "ren"
      ],
      [
        "-",
        "s"
      ],
      [
        "I",
        "A"
      ],
      [
        "P",
        "H"
      ],
      [
        "f",
        "ort"
      ],
      [
        "m",
        "b"
      ],
      [
        "p",
        "le"
      ],
      [
        "u",
        "al"
      ],
      [
        "Ġin",
        "form"
      ],
      [
        "ĠS",
        "uddenly"
      ],
      [
        "ĠJ",
        "IM"
      ],
      [
        "ĠR",
        "OTH"
      ],
      [
        "il",
        "t"
      ],
      [
        "ious",
        "ly"
      ],
      [
        "ĠAN",
        "D"
      ],
      [
        "ĠBe",
        "cause"
      ],
      [
        "ĠDE",
        "CK"
      ],
      [
        "Ġmir",
        "ror"
      ],
      [
        "cur",
        "ity"
      ],
      [
        "d",
        "ing"
      ],
      [
        "it",
        "her"
      ],
      [
        "Ġf",
        "ield"
      ],
      [
        "Ġm",
        "aybe"
      ],
      [
        "Ġp",
        "ower"
      ],
      [
        "Ġst",
        "ick"
      ],
      [
        "ĠF",
        "L"
      ],
      [
        "AR",
        "Y"
      ],
      [
        "ĠE",
        "X"
      ],
      [
        "ĠO",
        "L"
      ],
      [
        "el",
        "s"
      ],
      [
        "ĠCOL",
        "ON"
      ],
      [
        "Ġfl",
        "ash"
      ],
      [
        ":ĊĊ",
        "Ċ"
      ],
      [
        "ĠMr",
        "s"
      ],
      [
        "OUN",
        "D"
      ],
      [
        "ĠNot",
        "hing"
      ],
      [
        "omm",
        "y"
      ],
      [
        "ĠMR",
        "S"
      ],
      [
        "2",
        "5"
      ],
      [
        "U",
        "D"
      ],
      [
        "U",
        "F"
      ],
      [
        "Y",
        "PHER"
      ],
      [
        "m",
        "en"
      ],
      [
        "Ġs",
        "ink"
      ],
      [
        "Ġb",
        "ur"
      ],
      [
        "Ġb",
        "eside"
      ],
      [
        "es",
        "c"
      ],
      [
        "Ġd",
        "ressed"
      ],
      [
        "ĠT",
        "om"
      ],
      [
        "Ġp",
        "ar"
      ],
      [
        "Ġp",
        "ack"
      ],
      [
        "et",
        "e"
      ],
      [
        "ĠM",
        "ay"
      ],
      [
        "Ġre",
        "g"
      ],
      [
        "un",
        "ch"
      ],
      [
        "ĠO",
        "UT"
      ],
      [
        "art",
        "h"
      ],
      [
        "Ġsc",
        "ream"
      ],
      [
        "Ġbr",
        "ing"
      ],
      [
        "ĠDO",
        "E"
      ],
      [
        "ĠU",
        "n"
      ],
      [
        "Ġfin",
        "is"
      ],
      [
        "ĠSC",
        "RE"
      ],
      [
        "Ġlaugh",
        "s"
      ],
      [
        "rie",
        "f"
      ],
      [
        "autif",
        "ul"
      ],
      [
        "r",
        "ight"
      ],
      [
        "Ġh",
        "its"
      ],
      [
        "Ġc",
        "atch"
      ],
      [
        "Ġf",
        "re"
      ],
      [
        "Ġm",
        "atter"
      ],
      [
        "ĠM",
        "AIN"
      ],
      [
        "ĠB",
        "ACK"
      ],
      [
        "Ġr",
        "oof"
      ],
      [
        "ut",
        "h"
      ],
      [
        "ĠL",
        "ANCE"
      ],
      [
        "Ġfor",
        "m"
      ],
      [
        "ak",
        "ed"
      ],
      [
        "ĠK",
        "ujan"
      ],
      [
        "um",
        "ps"
      ],
      [
        "ET",
        "T"
      ],
      [
        "Ġal",
        "ready"
      ],
      [
        "Ġag",
        "o"
      ],
      [
        "ĉC",
        "YPHER"
      ],
      [
        "Ġwind",
        "ows"
      ],
      [
        "NE",
        "Y"
      ],
      [
        "Ġent",
        "ire"
      ],
      [
        "Ġcoun",
        "t"
      ],
      [
        "ĠCol",
        "in"
      ],
      [
        "Ġpock",
        "et"
      ],
      [
        "Ġed",
        "ge"
      ],
      [
        "Ġdifferen",
        "t"
      ],
      [
        "F",
        "ischer"
      ],
      [
        "G",
        "E"
      ],
      [
        "P",
        "T"
      ],
      [
        "b",
        "it"
      ],
      [
        "in",
        "ce"
      ],
      [
        "Ġc",
        "ol"
      ],
      [
        "Ġc",
        "ars"
      ],
      [
        "at",
        "ches"
      ],
      [
        "Ġl",
        "ate"
      ],
      [
        "ĠW",
        "ith"
      ],
      [
        "ON",
        "D"
      ],
      [
        "ur",
        "ch"
      ],
      [
        "ĠN",
        "ITE"
      ],
      [
        "us",
        "es"
      ],
      [
        "Ġli",
        "ve"
      ],
      [
        "Ġli",
        "ving"
      ],
      [
        "IT",
        "AL"
      ],
      [
        "Ġle",
        "gs"
      ],
      [
        "ont",
        "h"
      ],
      [
        "ĉA",
        "gent"
      ],
      [
        "ĠSom",
        "et"
      ],
      [
        "OT",
        "HER"
      ],
      [
        "Ġlo",
        "ck"
      ],
      [
        "ĉw",
        "ith"
      ],
      [
        "ĠHO",
        "SP"
      ],
      [
        "Ġpie",
        "ce"
      ],
      [
        "Ġcontro",
        "l"
      ],
      [
        "Ġmass",
        "ive"
      ],
      [
        "Ġrad",
        "io"
      ],
      [
        "ĠDETECT",
        "IVE"
      ],
      [
        "4",
        "9"
      ],
      [
        "f",
        "ully"
      ],
      [
        "Ġh",
        "or"
      ],
      [
        "Ġd",
        "in"
      ],
      [
        "Ġg",
        "re"
      ],
      [
        "ĠF",
        "in"
      ],
      [
        "ĠE",
        "x"
      ],
      [
        "ĠG",
        "o"
      ],
      [
        "ĉT",
        "rinity"
      ],
      [
        "ob",
        "ody"
      ],
      [
        "lo",
        "g"
      ],
      [
        "ous",
        "and"
      ],
      [
        "Ġpo",
        "ss"
      ],
      [
        "Ġwall",
        "s"
      ],
      [
        "ĠSo",
        "ze"
      ],
      [
        "Ġfing",
        "ers"
      ],
      [
        "Ġphot",
        "o"
      ],
      [
        "Ġenvel",
        "ope"
      ],
      [
        "ĠQue",
        "en"
      ],
      [
        "O",
        "ON"
      ],
      [
        "a",
        "ur"
      ],
      [
        "c",
        "ons"
      ],
      [
        "u",
        "c"
      ],
      [
        "Ġw",
        "a"
      ],
      [
        "Ġf",
        "un"
      ],
      [
        "Ġf",
        "ood"
      ],
      [
        "Ġm",
        "ess"
      ],
      [
        "or",
        "le"
      ],
      [
        "ĠA",
        "ny"
      ],
      [
        "ĠD",
        "e"
      ],
      [
        "ut",
        "er"
      ],
      [
        "Ġre",
        "s"
      ],
      [
        "Ġre",
        "ach"
      ],
      [
        "ĠN",
        "orton"
      ],
      [
        "ĠY",
        "ork"
      ],
      [
        "ĠP",
        "OV"
      ],
      [
        "ĉN",
        "ORTON"
      ],
      [
        "ĠĠĠĠĠĠĠĠĠĠĊĠĠĠĠĠĠĠĠĠĠĊ",
        "ĠĠĠĠĠĠĠĠĠĠĊ"
      ],
      [
        "Ġte",
        "ars"
      ],
      [
        "Ġcle",
        "an"
      ],
      [
        "Ġhu",
        "ge"
      ],
      [
        "Ġbreat",
        "h"
      ],
      [
        "Ġcour",
        "se"
      ],
      [
        "ĠHOSP",
        "ITAL"
      ],
      [
        "ĠQueen",
        "an"
      ],
      [
        "A",
        "CH"
      ],
      [
        "E",
        "P"
      ],
      [
        "O",
        "B"
      ],
      [
        "nd",
        "ing"
      ],
      [
        "Ġm",
        "onth"
      ],
      [
        "an",
        "y"
      ],
      [
        "ĠC",
        "arolyn"
      ],
      [
        "ĠĠĠĠĠĠĠĠĠĠĠĠĠĠĠĠĠĠĠĠĠĠĠĠĠĠĠĠĠĠĠĠ",
        "ĠĠĠĠĠĠĠĠĠĠĠĠĠĠĠĠĠĠĠĠĠĠĠ"
      ],
      [
        "ĠB",
        "US"
      ],
      [
        "ĠD",
        "R"
      ],
      [
        "Ġe",
        "v"
      ],
      [
        "ĠN",
        "E"
      ],
      [
        "am",
        "m"
      ],
      [
        "to",
        "p"
      ],
      [
        "ra",
        "ct"
      ],
      [
        "Ġkn",
        "e"
      ],
      [
        "ate",
        "ly"
      ],
      [
        "Ġsc",
        "r"
      ],
      [
        "Ġspe",
        "c"
      ],
      [
        "Ġtoo",
        "k"
      ],
      [
        "Ġpoin",
        "t"
      ],
      [
        "Ġthr",
        "ows"
      ],
      [
        "Ġhang",
        "s"
      ],
      [
        "ok",
        "ing"
      ],
      [
        "S",
        "he"
      ],
      [
        "e",
        "x"
      ],
      [
        "Ġt",
        "imes"
      ],
      [
        "er",
        "y"
      ],
      [
        "Ġc",
        "reat"
      ],
      [
        "es",
        "us"
      ],
      [
        "Ġf",
        "ine"
      ],
      [
        "Ġm",
        "ain"
      ],
      [
        "as",
        "y"
      ],
      [
        "ER",
        "I"
      ],
      [
        "Ġe",
        "qu"
      ],
      [
        "ook",
        "ing"
      ],
      [
        "Ġre",
        "as"
      ],
      [
        "Ġwe",
        "ap"
      ],
      [
        "CK",
        "NEY"
      ],
      [
        "ri",
        "ed"
      ],
      [
        "ING",
        "S"
      ],
      [
        "EL",
        "D"
      ],
      [
        "ab",
        "y"
      ],
      [
        "Ġwant",
        "s"
      ],
      [
        "Ġshe",
        "l"
      ],
      [
        "Ġgot",
        "ta"
      ],
      [
        "Ġcl",
        "ub"
      ],
      [
        "ĠĠĠĠĠĠĠĠĠĠĊĠĠĠĠĠĠĠĠĠĠĊ",
        "ĠĠĠĠĠĠĠĠĠĠĊĠĠĠĠĠĠĠĠĠĠĊ"
      ],
      [
        "Ġche",
        "cks"
      ],
      [
        "ĉh",
        "is"
      ],
      [
        "Ġdri",
        "ve"
      ],
      [
        "Ġdark",
        "ness"
      ],
      [
        "Ġfill",
        "ed"
      ],
      [
        "Ġgrou",
        "p"
      ],
      [
        "2",
        "0"
      ],
      [
        "4",
        "6"
      ],
      [
        "O",
        "U"
      ],
      [
        "S",
        "aito"
      ],
      [
        "ĉ",
        "se"
      ],
      [
        "ĠĠĠĠĠĠĠĠĠĠĠĠĠĠĠĠ",
        "ĠĠĠĠĠ"
      ],
      [
        "in",
        "ed"
      ],
      [
        "Ġf",
        "ur"
      ],
      [
        "Ġf",
        "if"
      ],
      [
        "Ġd",
        "ep"
      ],
      [
        "Ġm",
        "us"
      ],
      [
        "ĠT",
        "ell"
      ],
      [
        "ĠĠĠĠĠĠĠĠĠĠĠĠĠĠĠĠĠĠĠĠĠĠĠĠĠĠĠĠĠĠĠĠ",
        "ĠĠĠĠĠĠĠĠĠĠĠĠĠĠĠĠĠĠĠĠĠĠĠĠĠĠĠĠĠĠĠĠĠĠĠĠ"
      ],
      [
        "Ġth",
        "ousand"
      ],
      [
        "ĠM",
        "E"
      ],
      [
        "Ġn",
        "ice"
      ],
      [
        "ĠA",
        "meric"
      ],
      [
        "ĠW",
        "ill"
      ],
      [
        "ĠF",
        "r"
      ],
      [
        "ad",
        "ley"
      ],
      [
        "ut",
        "es"
      ],
      [
        "ĠP",
        "AR"
      ],
      [
        "ĠE",
        "ames"
      ],
      [
        "Ġpl",
        "ane"
      ],
      [
        "Ġch",
        "ar"
      ],
      [
        "Ġcom",
        "m"
      ],
      [
        "ac",
        "ing"
      ],
      [
        "AM",
        "P"
      ],
      [
        "Ġde",
        "al"
      ],
      [
        "Ġac",
        "c"
      ],
      [
        "Ġday",
        "s"
      ],
      [
        "ĠHO",
        "CKNEY"
      ],
      [
        "ĠSP",
        "ACE"
      ],
      [
        "WO",
        "OD"
      ],
      [
        "Ġbot",
        "tle"
      ],
      [
        "orle",
        "one"
      ],
      [
        "C",
        "arolyn"
      ],
      [
        "R",
        "U"
      ],
      [
        "e",
        "ople"
      ],
      [
        "Ġd",
        "ou"
      ],
      [
        "Ġm",
        "ag"
      ],
      [
        "Ġl",
        "ets"
      ],
      [
        "en",
        "ster"
      ],
      [
        "ĠT",
        "o"
      ],
      [
        "Ġp",
        "ad"
      ],
      [
        "Ġy",
        "ear"
      ],
      [
        "ĠH",
        "AGEN"
      ],
      [
        "ĠF",
        "IR"
      ],
      [
        "ĠCO",
        "P"
      ],
      [
        "Ġsh",
        "oo"
      ],
      [
        "ĠP",
        "OL"
      ],
      [
        "UR",
        "ANCE"
      ],
      [
        "Ġv",
        "iew"
      ],
      [
        "Ġgr",
        "and"
      ],
      [
        "Ġke",
        "eps"
      ],
      [
        "up",
        "id"
      ],
      [
        "Ġsur",
        "face"
      ],
      [
        "Ġpain",
        "ting"
      ],
      [
        "Ġpie",
        "ces"
      ],
      [
        "Ġlead",
        "s"
      ],
      [
        "Ġclim",
        "bs"
      ],
      [
        "Ġbath",
        "room"
      ],
      [
        "ĠEND",
        "URANCE"
      ],
      [
        "ĠWOL",
        "F"
      ],
      [
        "cons",
        "cious"
      ],
      [
        "-",
        "d"
      ],
      [
        "A",
        "ST"
      ],
      [
        "O",
        "KS"
      ],
      [
        "T",
        "ER"
      ],
      [
        "e",
        "ad"
      ],
      [
        "m",
        "ore"
      ],
      [
        "t",
        "on"
      ],
      [
        "w",
        "ood"
      ],
      [
        "z",
        "en"
      ],
      [
        "ĉ",
        "E"
      ],
      [
        "Ġa",
        "head"
      ],
      [
        "Ġb",
        "rief"
      ],
      [
        "Ġf",
        "ile"
      ],
      [
        "Ġhe",
        "ars"
      ],
      [
        "ĠB",
        "ATH"
      ],
      [
        "ĠF",
        "I"
      ],
      [
        "ĠJ",
        "imm"
      ],
      [
        "Ġbe",
        "er"
      ],
      [
        "Ġbe",
        "autiful"
      ],
      [
        "Ġr",
        "if"
      ],
      [
        "am",
        "ed"
      ],
      [
        "Ġse",
        "ar"
      ],
      [
        "ie",
        "f"
      ],
      [
        "ain",
        "s"
      ],
      [
        "ist",
        "s"
      ],
      [
        "Ġde",
        "f"
      ],
      [
        "Ġv",
        "oice"
      ],
      [
        "ĉS",
        "OLLOZZO"
      ],
      [
        "Ġco",
        "vered"
      ],
      [
        "ĠTh",
        "ank"
      ],
      [
        "Ġpull",
        "ing"
      ],
      [
        "AB",
        "IN"
      ],
      [
        "Ġpr",
        "ot"
      ],
      [
        "ug",
        "g"
      ],
      [
        "Ġpre",
        "t"
      ],
      [
        "ID",
        "E"
      ],
      [
        "ĠHE",
        "AR"
      ],
      [
        "Ġbull",
        "et"
      ],
      [
        "Ġsupp",
        "osed"
      ],
      [
        "Ġsho",
        "es"
      ],
      [
        "Ġcre",
        "w"
      ],
      [
        "Ġmach",
        "ine"
      ],
      [
        "!",
        "Ċ"
      ],
      [
        "-",
        "h"
      ],
      [
        "-",
        "t"
      ],
      [
        "C",
        "O"
      ],
      [
        "S",
        "S"
      ],
      [
        "V",
        "ING"
      ],
      [
        "c",
        "ase"
      ],
      [
        "f",
        "uck"
      ],
      [
        "u",
        "it"
      ],
      [
        "u",
        "ct"
      ],
      [
        "ĉ",
        "re"
      ],
      [
        "Ġb",
        "as"
      ],
      [
        "Ġh",
        "ope"
      ],
      [
        "Ġc",
        "alm"
      ],
      [
        "Ġm",
        "ill"
      ],
      [
        "Ġp",
        "ri"
      ],
      [
        "ĠC",
        "AP"
      ],
      [
        "Ġin",
        "s"
      ],
      [
        "Ġin",
        "te"
      ],
      [
        "ĠS",
        "p"
      ],
      [
        "Ġth",
        "ick"
      ],
      [
        "Ġhe",
        "av"
      ],
      [
        "st",
        "em"
      ],
      [
        "ĠB",
        "l"
[...]
